{
  "version": "1.0",
  "truncation": null,
  "padding": null,
  "added_tokens": [
    {
      "id": 0,
      "content": "<eos_de>",
      "single_word": false,
      "lstrip": false,
      "rstrip": false,
      "normalized": false,
      "special": true
    },
    {
      "id": 1,
      "content": "<eos_en>",
      "single_word": false,
      "lstrip": false,
      "rstrip": false,
      "normalized": false,
      "special": true
    },
    {
      "id": 2,
      "content": "<pad>",
      "single_word": false,
      "lstrip": false,
      "rstrip": false,
      "normalized": false,
      "special": true
    }
  ],
  "normalizer": null,
  "pre_tokenizer": {
    "type": "ByteLevel",
    "add_prefix_space": false,
    "trim_offsets": true,
    "use_regex": true
  },
  "post_processor": {
    "type": "ByteLevel",
    "add_prefix_space": true,
    "trim_offsets": false,
    "use_regex": true
  },
  "decoder": {
    "type": "ByteLevel",
    "add_prefix_space": true,
    "trim_offsets": true,
    "use_regex": true
  },
  "model": {
    "type": "BPE",
    "dropout": null,
    "unk_token": null,
    "continuing_subword_prefix": null,
    "end_of_word_suffix": null,
    "fuse_unk": false,
    "byte_fallback": false,
    "ignore_merges": false,
    "vocab": {
      "<eos_de>": 0,
      "<eos_en>": 1,
      "<pad>": 2,
      "!": 3,
      "\"": 4,
      "#": 5,
      "$": 6,
      "%": 7,
      "&": 8,
      "'": 9,
      "(": 10,
      ")": 11,
      "*": 12,
      "+": 13,
      ",": 14,
      "-": 15,
      ".": 16,
      "/": 17,
      "0": 18,
      "1": 19,
      "2": 20,
      "3": 21,
      "4": 22,
      "5": 23,
      "6": 24,
      "7": 25,
      "8": 26,
      "9": 27,
      ":": 28,
      ";": 29,
      "<": 30,
      "=": 31,
      ">": 32,
      "?": 33,
      "@": 34,
      "A": 35,
      "B": 36,
      "C": 37,
      "D": 38,
      "E": 39,
      "F": 40,
      "G": 41,
      "H": 42,
      "I": 43,
      "J": 44,
      "K": 45,
      "L": 46,
      "M": 47,
      "N": 48,
      "O": 49,
      "P": 50,
      "Q": 51,
      "R": 52,
      "S": 53,
      "T": 54,
      "U": 55,
      "V": 56,
      "W": 57,
      "X": 58,
      "Y": 59,
      "Z": 60,
      "[": 61,
      "\\": 62,
      "]": 63,
      "^": 64,
      "_": 65,
      "`": 66,
      "a": 67,
      "b": 68,
      "c": 69,
      "d": 70,
      "e": 71,
      "f": 72,
      "g": 73,
      "h": 74,
      "i": 75,
      "j": 76,
      "k": 77,
      "l": 78,
      "m": 79,
      "n": 80,
      "o": 81,
      "p": 82,
      "q": 83,
      "r": 84,
      "s": 85,
      "t": 86,
      "u": 87,
      "v": 88,
      "w": 89,
      "x": 90,
      "y": 91,
      "z": 92,
      "{": 93,
      "|": 94,
      "}": 95,
      "~": 96,
      "¡": 97,
      "¢": 98,
      "£": 99,
      "¤": 100,
      "¥": 101,
      "¦": 102,
      "§": 103,
      "¨": 104,
      "©": 105,
      "ª": 106,
      "«": 107,
      "¬": 108,
      "®": 109,
      "¯": 110,
      "°": 111,
      "±": 112,
      "²": 113,
      "³": 114,
      "´": 115,
      "µ": 116,
      "¶": 117,
      "·": 118,
      "¸": 119,
      "¹": 120,
      "º": 121,
      "»": 122,
      "¼": 123,
      "½": 124,
      "¾": 125,
      "¿": 126,
      "À": 127,
      "Á": 128,
      "Â": 129,
      "Ã": 130,
      "Ä": 131,
      "Å": 132,
      "Æ": 133,
      "Ç": 134,
      "È": 135,
      "É": 136,
      "Ê": 137,
      "Ë": 138,
      "Ì": 139,
      "Í": 140,
      "Î": 141,
      "Ï": 142,
      "Ð": 143,
      "Ñ": 144,
      "Ò": 145,
      "Ó": 146,
      "Ô": 147,
      "Õ": 148,
      "Ö": 149,
      "×": 150,
      "Ø": 151,
      "Ù": 152,
      "Ú": 153,
      "Û": 154,
      "Ü": 155,
      "Ý": 156,
      "Þ": 157,
      "ß": 158,
      "à": 159,
      "á": 160,
      "â": 161,
      "ã": 162,
      "ä": 163,
      "å": 164,
      "æ": 165,
      "ç": 166,
      "è": 167,
      "é": 168,
      "ê": 169,
      "ë": 170,
      "ì": 171,
      "í": 172,
      "î": 173,
      "ï": 174,
      "ð": 175,
      "ñ": 176,
      "ò": 177,
      "ó": 178,
      "ô": 179,
      "õ": 180,
      "ö": 181,
      "÷": 182,
      "ø": 183,
      "ù": 184,
      "ú": 185,
      "û": 186,
      "ü": 187,
      "ý": 188,
      "þ": 189,
      "ÿ": 190,
      "Ā": 191,
      "ā": 192,
      "Ă": 193,
      "ă": 194,
      "Ą": 195,
      "ą": 196,
      "Ć": 197,
      "ć": 198,
      "Ĉ": 199,
      "ĉ": 200,
      "Ċ": 201,
      "ċ": 202,
      "Č": 203,
      "č": 204,
      "Ď": 205,
      "ď": 206,
      "Đ": 207,
      "đ": 208,
      "Ē": 209,
      "ē": 210,
      "Ĕ": 211,
      "ĕ": 212,
      "Ė": 213,
      "ė": 214,
      "Ę": 215,
      "ę": 216,
      "Ě": 217,
      "ě": 218,
      "Ĝ": 219,
      "ĝ": 220,
      "Ğ": 221,
      "ğ": 222,
      "Ġ": 223,
      "ġ": 224,
      "Ģ": 225,
      "ģ": 226,
      "Ĥ": 227,
      "ĥ": 228,
      "Ħ": 229,
      "ħ": 230,
      "Ĩ": 231,
      "ĩ": 232,
      "Ī": 233,
      "ī": 234,
      "Ĭ": 235,
      "ĭ": 236,
      "Į": 237,
      "į": 238,
      "İ": 239,
      "ı": 240,
      "Ĳ": 241,
      "ĳ": 242,
      "Ĵ": 243,
      "ĵ": 244,
      "Ķ": 245,
      "ķ": 246,
      "ĸ": 247,
      "Ĺ": 248,
      "ĺ": 249,
      "Ļ": 250,
      "ļ": 251,
      "Ľ": 252,
      "ľ": 253,
      "Ŀ": 254,
      "ŀ": 255,
      "Ł": 256,
      "ł": 257,
      "Ń": 258,
      "Ġ.": 259,
      "er": 260,
      "en": 261,
      "in": 262,
      "ch": 263,
      "th": 264,
      "Ġs": 265,
      "Ġa": 266,
      "Ġd": 267,
      "Ġw": 268,
      "Ġi": 269,
      "es": 270,
      "an": 271,
      "Ġth": 272,
      "ie": 273,
      "Ġm": 274,
      "as": 275,
      "on": 276,
      "st": 277,
      "un": 278,
      "Ġh": 279,
      "at": 280,
      "Ġg": 281,
      "re": 282,
      "Ġb": 283,
      "ich": 284,
      "Ġ&": 285,
      "Ġe": 286,
      "Ġ,": 287,
      "it": 288,
      "ll": 289,
      "Ġt": 290,
      "os": 291,
      "Ġn": 292,
      "ap": 293,
      "ou": 294,
      "ar": 295,
      "Ġf": 296,
      "is": 297,
      "or": 298,
      "le": 299,
      "Ġp": 300,
      "apos": 301,
      "Ġthe": 302,
      "Ġc": 303,
      "Ġ?": 304,
      "ing": 305,
      "ir": 306,
      "Ġk": 307,
      "ot": 308,
      "Ġv": 309,
      "te": 310,
      "al": 311,
      "Ġein": 312,
      "Ġin": 313,
      "Ġo": 314,
      "and": 315,
      "Ġl": 316,
      "Ġist": 317,
      "und": 318,
      "Ã¼": 319,
      "ig": 320,
      "om": 321,
      "ed": 322,
      "Ġis": 323,
      "Ġan": 324,
      "you": 325,
      "us": 326,
      "qu": 327,
      "ere": 328,
      "so": 329,
      "Ġto": 330,
      "el": 331,
      "ion": 332,
      "ab": 333,
      "Ã¤": 334,
      "Ġz": 335,
      "Ġbe": 336,
      "ro": 337,
      "ut": 338,
      "ein": 339,
      "Ġ:": 340,
      "ent": 341,
      "Ġdas": 342,
      "Ġof": 343,
      "ur": 344,
      "Ġyou": 345,
      "et": 346,
      "ic": 347,
      "icht": 348,
      "ier": 349,
      "quot": 350,
      "ow": 351,
      "eh": 352,
      "ra": 353,
      "Ġsie": 354,
      "ies": 355,
      "ve": 356,
      "Ġwir": 357,
      "Ġit": 358,
      "Ġwe": 359,
      "am": 360,
      "Ã¶": 361,
      "we": 362,
      "ind": 363,
      "lich": 364,
      "Ġdie": 365,
      "Ġver": 366,
      "all": 367,
      "ach": 368,
      "Ġst": 369,
      "ke": 370,
      "ung": 371,
      "de": 372,
      "das": 373,
      "Ġre": 374,
      "um": 375,
      "Ġj": 376,
      "il": 377,
      "Ġwas": 378,
      "ter": 379,
      "Ġthat": 380,
      "em": 381,
      "Ġes": 382,
      "ol": 383,
      "sch": 384,
      "der": 385,
      "ge": 386,
      "Ġthis": 387,
      "im": 388,
      "Ġun": 389,
      "the": 390,
      "ten": 391,
      "Ġsch": 392,
      "Ġr": 393,
      "Ġnicht": 394,
      "ay": 395,
      "Ġdo": 396,
      "Ġha": 397,
      "Ġwh": 398,
      "Ġer": 399,
      "gen": 400,
      "Ġso": 401,
      "Ġau": 402,
      "ct": 403,
      "Ġle": 404,
      "Ġal": 405,
      "Ġder": 406,
      "au": 407,
      "ck": 408,
      "den": 409,
      "ver": 410,
      "ber": 411,
      "nen": 412,
      "Ġwar": 413,
      "ank": 414,
      "Ġon": 415,
      "Ġich": 416,
      "hr": 417,
      "Ġare": 418,
      "sie": 419,
      "Ġeine": 420,
      "wir": 421,
      "Ġall": 422,
      "id": 423,
      "Ġdies": 424,
      "Ġsind": 425,
      "Ã¼r": 426,
      "he": 427,
      "Ġhab": 428,
      "ess": 429,
      "Ġab": 430,
      "ation": 431,
      "out": 432,
      "ff": 433,
      "ht": 434,
      "Ġzu": 435,
      "ann": 436,
      "Ġwi": 437,
      "Ġne": 438,
      "Ġse": 439,
      "oo": 440,
      "Ġfor": 441,
      "ul": 442,
      "be": 443,
      "iel": 444,
      "ce": 445,
      "ist": 446,
      "Ġpro": 447,
      "ÃŁ": 448,
      "ally": 449,
      "ib": 450,
      "this": 451,
      "sen": 452,
      "op": 453,
      "ly": 454,
      "uch": 455,
      "Ġge": 456,
      "kt": 457,
      "Ġme": 458,
      "est": 459,
      "ome": 460,
      "Ġch": 461,
      "Ġhave": 462,
      "ag": 463,
      "Ġand": 464,
      "ld": 465,
      "Ġsp": 466,
      "Ġim": 467,
      "ust": 468,
      "ben": 469,
      "Ġund": 470,
      "Ġex": 471,
      "ant": 472,
      "ehr": 473,
      "Ġwhat": 474,
      "but": 475,
      "Ã¶n": 476,
      "Ġauf": 477,
      "Ġli": 478,
      "Ġmit": 479,
      "eine": 480,
      "Ġuns": 481,
      "now": 482,
      "Ġhaben": 483,
      "Ġnot": 484,
      "isch": 485,
      "Ġno": 486,
      "Ġhe": 487,
      "was": 488,
      "wh": 489,
      "men": 490,
      "Ã¼ber": 491,
      "se": 492,
      "ad": 493,
      "die": 494,
      "Ġden": 495,
      "Ġcan": 496,
      "our": 497,
      "aber": 498,
      "Ġhat": 499,
      "Ġmo": 500,
      "Ġsich": 501,
      "Ġaus": 502,
      "ah": 503,
      "they": 504,
      "ft": 505,
      "Ġalso": 506,
      "Ġgo": 507,
      "Ġvon": 508,
      "Ġih": 509,
      "ell": 510,
      "Ġwor": 511,
      "Ġges": 512,
      "Ġar": 513,
      "ehen": 514,
      "that": 515,
      "Ġ1": 516,
      "ill": 517,
      "Ġabout": 518,
      "ik": 519,
      "art": 520,
      "00": 521,
      "ight": 522,
      "up": 523,
      "ort": 524,
      "Ġthey": 525,
      "ther": 526,
      "Ġwie": 527,
      "ĠÃ¼ber": 528,
      "Ġwith": 529,
      "Ã¤n": 530,
      "ĠfÃ¼r": 531,
      "ould": 532,
      "Ġcom": 533,
      "ien": 534,
      "Ġman": 535,
      "Ġhier": 536,
      "Ġsh": 537,
      "Ġthere": 538,
      "thank": 539,
      "Ġmy": 540,
      "Ġtr": 541,
      "Ġvery": 542,
      "ese": 543,
      "dies": 544,
      "ive": 545,
      "Ġwer": 546,
      "Ġfr": 547,
      "ze": 548,
      "iv": 549,
      "Ġen": 550,
      "Ġte": 551,
      "iert": 552,
      "Ġy": 553,
      "Ġma": 554,
      "ĠkÃ¶n": 555,
      "og": 556,
      "ers": 557,
      "Ġcon": 558,
      "ute": 559,
      "ang": 560,
      "one": 561,
      "mer": 562,
      "Ġone": 563,
      "ne": 564,
      "Ġmach": 565,
      "Ġat": 566,
      "pen": 567,
      "oll": 568,
      "Ġ!": 569,
      "ass": 570,
      "Ġgr": 571,
      "Ġda": 572,
      "Ġsehr": 573,
      "aus": 574,
      "ine": 575,
      "ure": 576,
      "Ġjust": 577,
      "Ġhere": 578,
      "pl": 579,
      "Ġde": 580,
      "anke": 581,
      "Ġsome": 582,
      "Ġus": 583,
      "etz": 584,
      "ook": 585,
      "ahr": 586,
      "ibt": 587,
      "Ġpl": 588,
      "ple": 589,
      "Ġlike": 590,
      "ink": 591,
      "Ġdes": 592,
      "also": 593,
      "ast": 594,
      "ity": 595,
      "Ġher": 596,
      "thing": 597,
      "ate": 598,
      "man": 599,
      "Ġvor": 600,
      "Ġdiese": 601,
      "fe": 602,
      "Ġsa": 603,
      "Ġdi": 604,
      "Ġget": 605,
      "Ġpr": 606,
      "ick": 607,
      "ted": 608,
      "Ġgen": 609,
      "ok": 610,
      "Ġthing": 611,
      "sp": 612,
      "igen": 613,
      "ĠkÃ¶nnen": 614,
      "ite": 615,
      "Ġgl": 616,
      "per": 617,
      "Ġqu": 618,
      "ige": 619,
      "wie": 620,
      "Ġinter": 621,
      "ieren": 622,
      "ern": 623,
      "what": 624,
      "Ġmich": 625,
      "Ġreally": 626,
      "Ġgesch": 627,
      "Ġthem": 628,
      "Ġgibt": 629,
      "ain": 630,
      "ame": 631,
      "Ġgeh": 632,
      "Ġknow": 633,
      "Ġauch": 634,
      "ble": 635,
      "Ġpe": 636,
      "elt": 637,
      "there": 638,
      "Ġ2": 639,
      "ople": 640,
      "Ġgro": 641,
      "Ġze": 642,
      "Ġent": 643,
      "ild": 644,
      "chen": 645,
      "ielen": 646,
      "Ġihnen": 647,
      "Ġum": 648,
      "Ġdid": 649,
      "Ġhap": 650,
      "ood": 651,
      "for": 652,
      "Ġeinen": 653,
      "wo": 654,
      "very": 655,
      "Ġkom": 656,
      "Ġste": 657,
      "ste": 658,
      "iz": 659,
      "Ġnoch": 660,
      "Ġfrom": 661,
      "Ġwird": 662,
      "fach": 663,
      "Ġup": 664,
      "Ġour": 665,
      "hl": 666,
      "ide": 667,
      "Ġas": 668,
      "Ġmen": 669,
      "Ġhow": 670,
      "ard": 671,
      "Ġkann": 672,
      "Ġsein": 673,
      "ous": 674,
      "ack": 675,
      "mal": 676,
      "Ġor": 677,
      "Ġdem": 678,
      "Ġco": 679,
      "Ġam": 680,
      "Ġwerden": 681,
      "klich": 682,
      "Ġsee": 683,
      "are": 684,
      "Ã¼ck": 685,
      "ug": 686,
      "Ġmein": 687,
      "Ġet": 688,
      "etzt": 689,
      "Ġnur": 690,
      "ip": 691,
      "ungen": 692,
      "ia": 693,
      "Ġmus": 694,
      "Ġout": 695,
      "ose": 696,
      "oug": 697,
      "Ġwill": 698,
      "end": 699,
      "Ġbr": 700,
      "blem": 701,
      "Ġthese": 702,
      "Ġnach": 703,
      "keit": 704,
      "Ġpeople": 705,
      "od": 706,
      "Ġwirklich": 707,
      "Ġeinfach": 708,
      "Ġact": 709,
      "Ġyour": 710,
      "ak": 711,
      "Ã¤t": 712,
      "Ġgoing": 713,
      "wer": 714,
      "fen": 715,
      "Ġthink": 716,
      "scha": 717,
      "Ġwork": 718,
      "Ġlook": 719,
      "Ġhad": 720,
      "Ġye": 721,
      "Ġdon": 722,
      "Ġwere": 723,
      "Ġfe": 724,
      "reat": 725,
      "Ġ-": 726,
      "Ġwur": 727,
      "ars": 728,
      "Ġproblem": 729,
      "Ġhappen": 730,
      "danke": 731,
      "Ġro": 732,
      "du": 733,
      "pe": 734,
      "Ġdank": 735,
      "itt": 736,
      "Ġright": 737,
      "Ġhabe": 738,
      "ren": 739,
      "cht": 740,
      "Ġbra": 741,
      "hier": 742,
      "Ġhas": 743,
      "ans": 744,
      "anz": 745,
      "ise": 746,
      "schen": 747,
      "age": 748,
      "Ġdar": 749,
      "Ġbl": 750,
      "ue": 751,
      "ob": 752,
      "Ġetwas": 753,
      "pt": 754,
      "issen": 755,
      "ult": 756,
      "ĠgroÃŁ": 757,
      "Ġfa": 758,
      "if": 759,
      "Ġmore": 760,
      "ken": 761,
      "ial": 762,
      "ong": 763,
      "ub": 764,
      "Ġsehen": 765,
      "Ġzwe": 766,
      "olog": 767,
      "Ġfl": 768,
      "Ġgot": 769,
      "ually": 770,
      "Ġneed": 771,
      "Ġfra": 772,
      "Ġcall": 773,
      "war": 774,
      "ory": 775,
      "Ġunter": 776,
      "heit": 777,
      "let": 778,
      "ru": 779,
      "Ġdoes": 780,
      "sel": 781,
      "Ġbeg": 782,
      "Ġwould": 783,
      "Ġide": 784,
      "lle": 785,
      "Ġkon": 786,
      "Ġnow": 787,
      "Ġph": 788,
      "Ġihr": 789,
      "Ġwant": 790,
      "Ġpass": 791,
      "Ġkind": 792,
      "che": 793,
      "Ġsy": 794,
      "Ã¤nder": 795,
      "chn": 796,
      "Ġmuch": 797,
      "Ġgut": 798,
      "Ġper": 799,
      "Ġdiff": 800,
      "ry": 801,
      "mt": 802,
      "ater": 803,
      "Ġleben": 804,
      "..": 805,
      "Ã¼n": 806,
      "ische": 807,
      "ert": 808,
      "fr": 809,
      "Ġlet": 810,
      "ign": 811,
      "Ġag": 812,
      "Ġevery": 813,
      "Ġkeine": 814,
      "Ġvie": 815,
      "hn": 816,
      "ime": 817,
      "no": 818,
      "schaft": 819,
      "how": 820,
      "assen": 821,
      "liche": 822,
      "Ġra": 823,
      "ions": 824,
      "urch": 825,
      "Ġsc": 826,
      "con": 827,
      "Ġbes": 828,
      "Ã¼s": 829,
      "Ġalle": 830,
      "ost": 831,
      "ven": 832,
      "Ġals": 833,
      "zen": 834,
      "ĠmÃ¶": 835,
      "ac": 836,
      "ment": 837,
      "Ġactually": 838,
      "Ġmir": 839,
      "ore": 840,
      "Ġ...": 841,
      "ish": 842,
      "Ġmachen": 843,
      "Ġthings": 844,
      "je": 845,
      "Ġsel": 846,
      "Ġcl": 847,
      "Ġnew": 848,
      "me": 849,
      "iter": 850,
      "alk": 851,
      "Ġdass": 852,
      "hal": 853,
      "pr": 854,
      "Ġ--": 855,
      "Ġdr": 856,
      "Ġthen": 857,
      "Ġtun": 858,
      "Ġint": 859,
      "Ġdiffer": 860,
      "Ġmehr": 861,
      "Ã¶r": 862,
      "Ġwurde": 863,
      "Ġcomp": 864,
      "Ġgood": 865,
      "Ġtwo": 866,
      "well": 867,
      "ktion": 868,
      "Ġtra": 869,
      "Ġviel": 870,
      "Ġlie": 871,
      "ud": 872,
      "Ġwissen": 873,
      "able": 874,
      "ens": 875,
      "Ã¤ch": 876,
      "Ġby": 877,
      "stem": 878,
      "Ġfun": 879,
      "Ġpre": 880,
      "vielen": 881,
      "Ġnat": 882,
      "iÃŁ": 883,
      "nun": 884,
      "Ġmeine": 885,
      "Ġihre": 886,
      "Ġzur": 887,
      "ger": 888,
      "ree": 889,
      "fl": 890,
      "enn": 891,
      "ichtig": 892,
      "Ġgeht": 893,
      "ser": 894,
      "Ġtechn": 895,
      "inge": 896,
      "Ġander": 897,
      "ical": 898,
      "Ġsomething": 899,
      "ough": 900,
      "ake": 901,
      "Ġdurch": 902,
      "Ġmenschen": 903,
      "inn": 904,
      "Ġjetzt": 905,
      "diese": 906,
      "ody": 907,
      "chte": 908,
      "Ġeiner": 909,
      "Ġwaren": 910,
      "Ġdann": 911,
      "Ġkein": 912,
      "Ġany": 913,
      "Ġbin": 914,
      "Ġtime": 915,
      "Ġwelt": 916,
      "Ġmill": 917,
      "here": 918,
      "ice": 919,
      "Ġstar": 920,
      "bar": 921,
      "ty": 922,
      "ĠmÃ¼s": 923,
      "Ġsoll": 924,
      "Ġja": 925,
      "Ġthank": 926,
      "Ġlo": 927,
      "Ġres": 928,
      "ays": 929,
      "beit": 930,
      "Ġworld": 931,
      "Ġdu": 932,
      "rei": 933,
      "ichte": 934,
      "Ġung": 935,
      "ange": 936,
      "Ġimp": 937,
      "Ġalles": 938,
      "Ġhatte": 939,
      "000": 940,
      "da": 941,
      "rie": 942,
      "ace": 943,
      "Ġhand": 944,
      "irst": 945,
      "Ġbet": 946,
      "her": 947,
      "red": 948,
      "Ġbed": 949,
      "ause": 950,
      "gt": 951,
      "Ġzwei": 952,
      "other": 953,
      "Ġcould": 954,
      "Ġimmer": 955,
      "Ġunsere": 956,
      "form": 957,
      "Ġ3": 958,
      "Ġother": 959,
      "ient": 960,
      "Ġwoll": 961,
      "iem": 962,
      "Ġbeen": 963,
      "ĠmÃ¼ssen": 964,
      "isp": 965,
      "Ġzeit": 966,
      "ges": 967,
      "Ġkle": 968,
      "kom": 969,
      "Ġok": 970,
      "zu": 971,
      "Ġwhy": 972,
      "Ġdifferent": 973,
      "bst": 974,
      "ys": 975,
      "Ġgem": 976,
      "Ġbu": 977,
      "Ġeinem": 978,
      "Ġlitt": 979,
      "Ġspe": 980,
      "Ġ19": 981,
      "Ġmake": 982,
      "fÃ¼": 983,
      "aut": 984,
      "Ġger": 985,
      "ark": 986,
      "Ġtheir": 987,
      "ungs": 988,
      "ience": 989,
      "ale": 990,
      "Ġbo": 991,
      "Ġlot": 992,
      "acht": 993,
      "Ġlittle": 994,
      "erst": 995,
      "Ġdieser": 996,
      "gend": 997,
      "br": 998,
      "Ġind": 999,
      "okay": 1000,
      "aten": 1001,
      "ict": 1002,
      "off": 1003,
      "these": 1004,
      "auf": 1005,
      "ase": 1006,
      "Ġart": 1007,
      "Ġad": 1008,
      "Ġdis": 1009,
      "uchen": 1010,
      "oss": 1011,
      "ph": 1012,
      "sten": 1013,
      "stell": 1014,
      "Ġem": 1015,
      "ĠfÃ¼": 1016,
      "ful": 1017,
      "unt": 1018,
      "old": 1019,
      "Ġcalled": 1020,
      "Ġwo": 1021,
      "Ġganz": 1022,
      "Ġjahr": 1023,
      "Ġdieses": 1024,
      "von": 1025,
      "Ġvers": 1026,
      "ations": 1027,
      "Ġway": 1028,
      "Ġmal": 1029,
      "Ġjed": 1030,
      "Ġgel": 1031,
      "Ġpart": 1032,
      "Ġkl": 1033,
      "Ġsim": 1034,
      "Ġsag": 1035,
      "Ġback": 1036,
      "iger": 1037,
      "Ġdanke": 1038,
      "ischen": 1039,
      "Ġbeisp": 1040,
      "warum": 1041,
      "do": 1042,
      "Ġdinge": 1043,
      "Ġbig": 1044,
      "Ġtalk": 1045,
      "Ġstart": 1046,
      "Ġunser": 1047,
      "ath": 1048,
      "Ġgu": 1049,
      "Ġbec": 1050,
      "schie": 1051,
      "ious": 1052,
      "own": 1053,
      "Ġgreat": 1054,
      "Ã¤hr": 1055,
      "why": 1056,
      "Ġfind": 1057,
      "eln": 1058,
      "Ã¤r": 1059,
      "Ġreal": 1060,
      "Ġzum": 1061,
      "Ġstr": 1062,
      "ile": 1063,
      "cc": 1064,
      "Ġfirst": 1065,
      "als": 1066,
      "Ġexper": 1067,
      "ves": 1068,
      "lichen": 1069,
      "Ġgew": 1070,
      "Ġwieder": 1071,
      "ely": 1072,
      "ible": 1073,
      "ĠwÃ¼r": 1074,
      "ition": 1075,
      "igkeit": 1076,
      "Ġsystem": 1077,
      "act": 1078,
      "Ġbei": 1079,
      "Ġexam": 1080,
      "Ġover": 1081,
      "auen": 1082,
      "ated": 1083,
      "Ġshe": 1084,
      "ingen": 1085,
      "Ġverb": 1086,
      "Ġerf": 1087,
      "Ġtechnolog": 1088,
      "pro": 1089,
      "tra": 1090,
      "angen": 1091,
      "Ġandere": 1092,
      "Ġquest": 1093,
      "vie": 1094,
      "Ġele": 1095,
      "Ġpers": 1096,
      "vers": 1097,
      "Ġmacht": 1098,
      "body": 1099,
      "Ġstory": 1100,
      "gl": 1101,
      "Ġob": 1102,
      "Ġgeschichte": 1103,
      "leich": 1104,
      "Ġinc": 1105,
      "Ġarbeit": 1106,
      "ian": 1107,
      "Ġthose": 1108,
      "ary": 1109,
      "Ġschl": 1110,
      "Ġwho": 1111,
      "Ġmuss": 1112,
      "Ġagain": 1113,
      "Ġsm": 1114,
      "Ġap": 1115,
      "Ġshow": 1116,
      "itte": 1117,
      "ds": 1118,
      "mm": 1119,
      "Ġselbst": 1120,
      "gr": 1121,
      "net": 1122,
      "xt": 1123,
      "Ġpassiert": 1124,
      "Ġmed": 1125,
      "Ġhin": 1126,
      "ats": 1127,
      "ffen": 1128,
      "Ġfo": 1129,
      "Ġpol": 1130,
      "Ġschw": 1131,
      "Ġyears": 1132,
      "Ġsol": 1133,
      "arn": 1134,
      "ution": 1135,
      "erg": 1136,
      "Ġmon": 1137,
      "Ġweiter": 1138,
      "aub": 1139,
      "Ġdesign": 1140,
      "Ġviele": 1141,
      "Ġwr": 1142,
      "isten": 1143,
      "fÃ¼r": 1144,
      "ha": 1145,
      "hen": 1146,
      "ye": 1147,
      "round": 1148,
      "ehmen": 1149,
      "Ġleute": 1150,
      "Ġwell": 1151,
      "tern": 1152,
      "Ã¼rlich": 1153,
      "Ġben": 1154,
      "Ġdavon": 1155,
      "Ġpo": 1156,
      "unden": 1157,
      "Ġinto": 1158,
      "vol": 1159,
      "ents": 1160,
      "Ġwhere": 1161,
      "Ġfunktion": 1162,
      "Ġgeb": 1163,
      "Ġoder": 1164,
      "Ġant": 1165,
      "Ġdiesen": 1166,
      "les": 1167,
      "int": 1168,
      "Ġhel": 1169,
      "ord": 1170,
      "Ġpa": 1171,
      "Ġmean": 1172,
      "glich": 1173,
      "vor": 1174,
      "ics": 1175,
      "Ġlife": 1176,
      "Ġthree": 1177,
      "lleicht": 1178,
      "io": 1179,
      "nis": 1180,
      "ons": 1181,
      "Ġnie": 1182,
      "Ġkam": 1183,
      "she": 1184,
      "Ġsur": 1185,
      "Ġsay": 1186,
      "kommen": 1187,
      "nte": 1188,
      "wn": 1189,
      "Ġbeispiel": 1190,
      "cent": 1191,
      "ep": 1192,
      "Ġel": 1193,
      "ahl": 1194,
      "my": 1195,
      "Ġdown": 1196,
      "Ġir": 1197,
      "Ġglau": 1198,
      "day": 1199,
      "fer": 1200,
      "Ġsaid": 1201,
      "Ġmillion": 1202,
      "Ġ5": 1203,
      "ĠverÃ¤nder": 1204,
      "ction": 1205,
      "Ġprodu": 1206,
      "onder": 1207,
      "Ġschon": 1208,
      "az": 1209,
      "ierte": 1210,
      "Ġdam": 1211,
      "Ġmin": 1212,
      "itÃ¤t": 1213,
      "Ġmany": 1214,
      "iemlich": 1215,
      "att": 1216,
      "Ġkommt": 1217,
      "Ġhum": 1218,
      "Ġlang": 1219,
      "Ġcont": 1220,
      "ubl": 1221,
      "ler": 1222,
      "Ġnichts": 1223,
      "sam": 1224,
      "Ġnun": 1225,
      "ower": 1226,
      "cy": 1227,
      "cause": 1228,
      "Ġtake": 1229,
      "Ġfam": 1230,
      "Ġkr": 1231,
      "igh": 1232,
      "Ġzus": 1233,
      "Ġwahr": 1234,
      "Ġpar": 1235,
      "because": 1236,
      "Ġstarted": 1237,
      "Ġmom": 1238,
      "Ġrel": 1239,
      "ought": 1240,
      "ism": 1241,
      "iss": 1242,
      "igt": 1243,
      "Ã¤hl": 1244,
      "Ġziemlich": 1245,
      "ammen": 1246,
      "geb": 1247,
      "lassen": 1248,
      "âĢ": 1249,
      "Ġnor": 1250,
      "Ġoh": 1251,
      "Ġsieht": 1252,
      "Ġhis": 1253,
      "ĠschÃ¶n": 1254,
      "Ġdidn": 1255,
      "Ġbede": 1256,
      "ĠâĢ": 1257,
      "Ġaber": 1258,
      "Ġlearn": 1259,
      "dann": 1260,
      "ner": 1261,
      "Ġcour": 1262,
      "Ġinteress": 1263,
      "Ġklein": 1264,
      "ull": 1265,
      "ving": 1266,
      "ance": 1267,
      "Ġland": 1268,
      "Ġanother": 1269,
      "Ġteil": 1270,
      "Ġuse": 1271,
      "Ġexample": 1272,
      "oh": 1273,
      "ins": 1274,
      "Ġmag": 1275,
      "Ġbild": 1276,
      "Ġpat": 1277,
      "Ġtoo": 1278,
      "Ġstu": 1279,
      "ÃŁen": 1280,
      "Ġgef": 1281,
      "ahre": 1282,
      "Ġaround": 1283,
      "Ġneu": 1284,
      "Ġshould": 1285,
      "Ġquestion": 1286,
      "wor": 1287,
      "Ġcar": 1288,
      "Ġcome": 1289,
      "vel": 1290,
      "Ġsame": 1291,
      "Ġwichtig": 1292,
      "ĠzurÃ¼ck": 1293,
      "Ġimport": 1294,
      "ennen": 1295,
      "Ġbel": 1296,
      "ors": 1297,
      "tet": 1298,
      "its": 1299,
      "Ġdiesem": 1300,
      "Ġfrage": 1301,
      "Ġgemacht": 1302,
      "sehen": 1303,
      "Ġins": 1304,
      "under": 1305,
      "ade": 1306,
      "laub": 1307,
      "way": 1308,
      "Ġdrei": 1309,
      "Ġmor": 1310,
      "Ġreg": 1311,
      "Ġdoing": 1312,
      "Ġplay": 1313,
      "Ġsagen": 1314,
      "gan": 1315,
      "iden": 1316,
      "esen": 1317,
      "oren": 1318,
      "teil": 1319,
      "urn": 1320,
      "ucht": 1321,
      "Ġchange": 1322,
      "Ġsach": 1323,
      "ĠmÃ¶chte": 1324,
      "ire": 1325,
      "ja": 1326,
      "kl": 1327,
      "Ġgab": 1328,
      "aph": 1329,
      "ings": 1330,
      "ject": 1331,
      "Ġwen": 1332,
      "uss": 1333,
      "Ġonly": 1334,
      "Ġmak": 1335,
      "Ġgleich": 1336,
      "Ġtell": 1337,
      "omen": 1338,
      "Ġnever": 1339,
      "Ġzusammen": 1340,
      "ces": 1341,
      "sy": 1342,
      "ved": 1343,
      "zt": 1344,
      "ically": 1345,
      "ffe": 1346,
      "Ġfamil": 1347,
      "ock": 1348,
      "tty": 1349,
      "Ġ4": 1350,
      "Ġafr": 1351,
      "Ġthr": 1352,
      "Ġhim": 1353,
      "Ġfre": 1354,
      "abe": 1355,
      "Ġcourse": 1356,
      "Ġimportant": 1357,
      "ual": 1358,
      "Ġ10": 1359,
      "eter": 1360,
      "Ġuni": 1361,
      "Ġwerde": 1362,
      "bot": 1363,
      "ence": 1364,
      "Ġnum": 1365,
      "Ġchang": 1366,
      "Ġgenau": 1367,
      "Ġperson": 1368,
      "jetzt": 1369,
      "zent": 1370,
      "Ġke": 1371,
      "Ġfeel": 1372,
      "Ġidea": 1373,
      "Ġmar": 1374,
      "Ġgive": 1375,
      "llt": 1376,
      "Ġfin": 1377,
      "Ġinform": 1378,
      "Ã¤l": 1379,
      "Ġverst": 1380,
      "schl": 1381,
      "dig": 1382,
      "wick": 1383,
      "Ġeinmal": 1384,
      "sol": 1385,
      "ichten": 1386,
      "where": 1387,
      "self": 1388,
      "cond": 1389,
      "Ġbere": 1390,
      "Ġschn": 1391,
      "Ġpaar": 1392,
      "Ġsl": 1393,
      "Ġsup": 1394,
      "Ġdoesn": 1395,
      "Ġlove": 1396,
      "och": 1397,
      "Ġthan": 1398,
      "Ġeven": 1399,
      "Ġwarum": 1400,
      "Ġgrund": 1401,
      "Ã¤chlich": 1402,
      "dr": 1403,
      "Ġdone": 1404,
      "Ã¤re": 1405,
      "Ġbef": 1406,
      "Ġpretty": 1407,
      "ĠwÃ¼rde": 1408,
      "Ġwent": 1409,
      "Ġbre": 1410,
      "Ġans": 1411,
      "Ġstill": 1412,
      "Ġhatten": 1413,
      "Ġcomple": 1414,
      "some": 1415,
      "Ġvielen": 1416,
      "alt": 1417,
      "Ġoff": 1418,
      "weise": 1419,
      "Ġ20": 1420,
      "ĠnatÃ¼rlich": 1421,
      "Ġsagte": 1422,
      "entlich": 1423,
      "Ġbuild": 1424,
      "mun": 1425,
      "Ġaut": 1426,
      "ating": 1427,
      "llen": 1428,
      "Ġjahre": 1429,
      "Ġhappened": 1430,
      "Ġcomput": 1431,
      "atsÃ¤chlich": 1432,
      "gel": 1433,
      "sh": 1434,
      "vent": 1435,
      "Ġbest": 1436,
      "Ġvide": 1437,
      "Ġeinige": 1438,
      "Ġunglaub": 1439,
      "mit": 1440,
      "Ġcr": 1441,
      "Ġstud": 1442,
      "gra": 1443,
      "ina": 1444,
      "Ġsk": 1445,
      "co": 1446,
      "rechen": 1447,
      "Ã¼t": 1448,
      "Ġgegen": 1449,
      "Ġheraus": 1450,
      "Ġhal": 1451,
      "Ġpict": 1452,
      "Ġokay": 1453,
      "ĠâĢĵ": 1454,
      "Ġday": 1455,
      "Ġerst": 1456,
      "Ġtrans": 1457,
      "bo": 1458,
      "Ġsu": 1459,
      "Ġbas": 1460,
      "Ġtre": 1461,
      "ĠweiÃŁ": 1462,
      "Ġihn": 1463,
      "Ġmade": 1464,
      "Ġcount": 1465,
      "Ġwollen": 1466,
      "cl": 1467,
      "Ġgra": 1468,
      "Ġtoday": 1469,
      "Ġheute": 1470,
      "Ġplan": 1471,
      "Ġquite": 1472,
      "Ġkinder": 1473,
      "cial": 1474,
      "ps": 1475,
      "Ġser": 1476,
      "Ġeigen": 1477,
      "Ġpower": 1478,
      "uten": 1479,
      "Ġrem": 1480,
      "essen": 1481,
      "Ġmoment": 1482,
      "Ġaf": 1483,
      "Ġfil": 1484,
      "ica": 1485,
      "Ġchild": 1486,
      "ĠheiÃŁ": 1487,
      "Ġyeah": 1488,
      "Ġthrough": 1489,
      "nehmen": 1490,
      "ool": 1491,
      "atz": 1492,
      "Ġbis": 1493,
      "Ġfar": 1494,
      "Ã¶ÃŁ": 1495,
      "Ġenerg": 1496,
      "Ġorgan": 1497,
      "Ġexperim": 1498,
      "des": 1499,
      "ize": 1500,
      "ĠÃ¶": 1501,
      "Ġwater": 1502,
      "Ã¤h": 1503,
      "emand": 1504,
      "esting": 1505,
      "Ġdat": 1506,
      "Ġ200": 1507,
      "Ġbrauchen": 1508,
      "Ġfunktioniert": 1509,
      "ef": 1510,
      "ways": 1511,
      "yp": 1512,
      "Ġbi": 1513,
      "Ġcreat": 1514,
      "agen": 1515,
      "nten": 1516,
      "ts": 1517,
      "Ġwunder": 1518,
      "ative": 1519,
      "Ġbit": 1520,
      "Ã¤d": 1521,
      "Ã¤u": 1522,
      "ady": 1523,
      "ĠfÃ¼hr": 1524,
      "atch": 1525,
      "iten": 1526,
      "Ġter": 1527,
      "volution": 1528,
      "ting": 1529,
      "Ġmay": 1530,
      "Ġbro": 1531,
      "ingt": 1532,
      "Ġeinz": 1533,
      "Ġverl": 1534,
      "Ġdoll": 1535,
      "Ġend": 1536,
      "Ġkommen": 1537,
      "Ġglaube": 1538,
      "Ġhuman": 1539,
      "bl": 1540,
      "gar": 1541,
      "ness": 1542,
      "chten": 1543,
      "Ġdort": 1544,
      "Ġted": 1545,
      "Ġspiel": 1546,
      "Ġmost": 1547,
      "Ġprot": 1548,
      "Ġfact": 1549,
      "Ġpercent": 1550,
      "Ġsimple": 1551,
      "land": 1552,
      "ma": 1553,
      "Ġname": 1554,
      "Ã¤s": 1555,
      "Ġweg": 1556,
      "Ġglob": 1557,
      "jed": 1558,
      "oc": 1559,
      "Ġsit": 1560,
      "Ġlong": 1561,
      "Ġabsol": 1562,
      "uge": 1563,
      "zÃ¤hl": 1564,
      "Ġseine": 1565,
      "Ġdra": 1566,
      "Ġtag": 1567,
      "ird": 1568,
      "Ġrun": 1569,
      "ellen": 1570,
      "Ġrobot": 1571,
      "Ġinformation": 1572,
      "pp": 1573,
      "wort": 1574,
      "Ġamer": 1575,
      "Ġbad": 1576,
      "Ġput": 1577,
      "Ġbeh": 1578,
      "Ġstim": 1579,
      "Ġentwick": 1580,
      "stellen": 1581,
      "pf": 1582,
      "tr": 1583,
      "Ġnein": 1584,
      "Ġsicher": 1585,
      "Ã¶rt": 1586,
      "schieden": 1587,
      "uen": 1588,
      "cher": 1589,
      "Ġthought": 1590,
      "ets": 1591,
      "Ã¶s": 1592,
      "Ġwasser": 1593,
      "imes": 1594,
      "Ġtry": 1595,
      "dieses": 1596,
      "ĠgroÃŁe": 1597,
      "can": 1598,
      "ix": 1599,
      "kte": 1600,
      "most": 1601,
      "tre": 1602,
      "then": 1603,
      "inden": 1604,
      "Ġstop": 1605,
      "Ġschle": 1606,
      "Ġalways": 1607,
      "Ġsecond": 1608,
      "Ġincred": 1609,
      "Ġbelie": 1610,
      "Ġnumber": 1611,
      "every": 1612,
      "ms": 1613,
      "Ġacc": 1614,
      "Ġfol": 1615,
      "ander": 1616,
      "Ġschool": 1617,
      "Ġerste": 1618,
      "Ġschnell": 1619,
      "Ġvideo": 1620,
      "asch": 1621,
      "Ġbewe": 1622,
      "ĠglÃ¼ck": 1623,
      "Ġyear": 1624,
      "Ġirgend": 1625,
      "ied": 1626,
      "ond": 1627,
      "ates": 1628,
      "Ġged": 1629,
      "ities": 1630,
      "Ġtak": 1631,
      "Ġfall": 1632,
      "Ġbeing": 1633,
      "sche": 1634,
      "gether": 1635,
      "Ġchar": 1636,
      "Ġpolit": 1637,
      "Ġdamit": 1638,
      "fall": 1639,
      "los": 1640,
      "not": 1641,
      "Ġmet": 1642,
      "str": 1643,
      "Ġbill": 1644,
      "schw": 1645,
      "Ġgeben": 1646,
      "ĠdafÃ¼r": 1647,
      "Ġmensch": 1648,
      "Ġamaz": 1649,
      "Ġhappens": 1650,
      "ĠmÃ¶glich": 1651,
      "Ġanderen": 1652,
      "wa": 1653,
      "ĠhÃ¶": 1654,
      "Ġging": 1655,
      "Ġbess": 1656,
      "Ġkur": 1657,
      "ational": 1658,
      "Ġyes": 1659,
      "Ġinteresting": 1660,
      "Ġfound": 1661,
      "Ġsache": 1662,
      "cess": 1663,
      "na": 1664,
      "Ġbus": 1665,
      "ĠtatsÃ¤chlich": 1666,
      "Ġcle": 1667,
      "omet": 1668,
      "Ġexpl": 1669,
      "ogr": 1670,
      "Ġbesch": 1671,
      "dience": 1672,
      "ks": 1673,
      "ri": 1674,
      "ward": 1675,
      "atter": 1676,
      "Ġeines": 1677,
      "Ġang": 1678,
      "Ġdenke": 1679,
      "Ġgener": 1680,
      "halb": 1681,
      "Ġbetter": 1682,
      "ith": 1683,
      "kÃ¶n": 1684,
      "py": 1685,
      "iness": 1686,
      "anze": 1687,
      "Ġmust": 1688,
      "Ġfal": 1689,
      "Ġown": 1690,
      "ional": 1691,
      "aben": 1692,
      "Ġarch": 1693,
      "Ġ15": 1694,
      "ikum": 1695,
      "Ġcons": 1696,
      "Ġwurden": 1697,
      "anted": 1698,
      "Ġgehen": 1699,
      "ital": 1700,
      "Ġpra": 1701,
      "Ġcame": 1702,
      "Ġvis": 1703,
      "ilt": 1704,
      "ists": 1705,
      "iben": 1706,
      "ule": 1707,
      "Ġu": 1708,
      "innen": 1709,
      "schein": 1710,
      "Ġrichtig": 1711,
      "ĠgrÃ¶ÃŁ": 1712,
      "Ġidee": 1713,
      "Ġbedeute": 1714,
      "fin": 1715,
      "nung": 1716,
      "Ġwonder": 1717,
      "Ġmark": 1718,
      "Ġweit": 1719,
      "Ġnatur": 1720,
      "Ġpicture": 1721,
      "Ġdata": 1722,
      "ex": 1723,
      "gh": 1724,
      "ium": 1725,
      "uer": 1726,
      "zie": 1727,
      "Ġsub": 1728,
      "Ġhigh": 1729,
      "utz": 1730,
      "Ġjo": 1731,
      "ika": 1732,
      "oney": 1733,
      "ĠdarÃ¼ber": 1734,
      "Ġ;": 1735,
      "ĠwÃ¤re": 1736,
      "Ġhard": 1737,
      "Ġtogether": 1738,
      "Ġscha": 1739,
      "Ġgehir": 1740,
      "Ġbrain": 1741,
      "Ġwollte": 1742,
      "Ġunglaublich": 1743,
      "Ġamazing": 1744,
      "cted": 1745,
      "just": 1746,
      "nat": 1747,
      "Ġ7": 1748,
      "ernen": 1749,
      "any": 1750,
      "led": 1751,
      "ures": 1752,
      "Ġstand": 1753,
      "Ġcool": 1754,
      "ruck": 1755,
      "Ġdre": 1756,
      "Ġfour": 1757,
      "ope": 1758,
      "fÃ¼hl": 1759,
      "Ġtechnology": 1760,
      "of": 1761,
      "utzen": 1762,
      "Ġverw": 1763,
      "Ġverschieden": 1764,
      "schauen": 1765,
      "ids": 1766,
      "annt": 1767,
      "olle": 1768,
      "ĠheiÃŁt": 1769,
      "kr": 1770,
      "oder": 1771,
      "Ġwenn": 1772,
      "Ġwanted": 1773,
      "ster": 1774,
      "Ġear": 1775,
      "Ġlos": 1776,
      "igentlich": 1777,
      "Ġanf": 1778,
      "weil": 1779,
      "Ġzeigen": 1780,
      "Ġlooks": 1781,
      "Ġperfe": 1782,
      "Ġvielleicht": 1783,
      "halten": 1784,
      "ublikum": 1785,
      "aw": 1786,
      "mein": 1787,
      "Ġtot": 1788,
      "els": 1789,
      "Ġnext": 1790,
      "Ġchr": 1791,
      "Ġsollte": 1792,
      "Ġanswer": 1793,
      "bs": 1794,
      "ines": 1795,
      "Ġdaten": 1796,
      "ativ": 1797,
      "Ġgre": 1798,
      "Ġkre": 1799,
      "Ġbek": 1800,
      "ierung": 1801,
      "denn": 1802,
      "antast": 1803,
      "Ġsollten": 1804,
      "Ġwrong": 1805,
      "Ġbedeutet": 1806,
      "aun": 1807,
      "yes": 1808,
      "Ġfas": 1809,
      "Ġopen": 1810,
      "dem": 1811,
      "ility": 1812,
      "Ġwhen": 1813,
      "aufen": 1814,
      "Ġimag": 1815,
      "Ġengl": 1816,
      "Ġask": 1817,
      "Ġanderes": 1818,
      "schied": 1819,
      "vielleicht": 1820,
      "Ġcomputer": 1821,
      "ograph": 1822,
      "com": 1823,
      "jo": 1824,
      "mÃ¶": 1825,
      "ret": 1826,
      "reich": 1827,
      "ĠnÃ¤ch": 1828,
      "arch": 1829,
      "utter": 1830,
      "denken": 1831,
      "ischer": 1832,
      "Ġdenken": 1833,
      "duc": 1834,
      "Ġphys": 1835,
      "Ã¼nf": 1836,
      "Ġpoint": 1837,
      "Ġelse": 1838,
      "Ġpatient": 1839,
      "Ġur": 1840,
      "stand": 1841,
      "Ġcell": 1842,
      "Ġcare": 1843,
      "Ġlernen": 1844,
      "Ġisn": 1845,
      "Ġhaus": 1846,
      "ail": 1847,
      "cr": 1848,
      "ider": 1849,
      "to": 1850,
      "Ġsw": 1851,
      "Ġhar": 1852,
      "Ġeuch": 1853,
      "Ġprof": 1854,
      "ktiv": 1855,
      "Ġmove": 1856,
      "ĠkÃ¶nnte": 1857,
      "Ġbeginn": 1858,
      "Ġglobal": 1859,
      "fort": 1860,
      "meine": 1861,
      "nicht": 1862,
      "ĠÃ¤nder": 1863,
      "Ġble": 1864,
      "Ġturn": 1865,
      "Ġfast": 1866,
      "Ġinsp": 1867,
      "Ġlast": 1868,
      "Ġbeaut": 1869,
      "rop": 1870,
      "Ġform": 1871,
      "ular": 1872,
      "ktur": 1873,
      "Ġdec": 1874,
      "mals": 1875,
      "Ġgeld": 1876,
      "bab": 1877,
      "sw": 1878,
      "yn": 1879,
      "Ġ6": 1880,
      "Ġganze": 1881,
      "Ġeas": 1882,
      "Ġoffen": 1883,
      "ctr": 1884,
      "Ġlea": 1885,
      "Ġtrue": 1886,
      "Ġmeiner": 1887,
      "ĠgroÃŁart": 1888,
      "Ġeverything": 1889,
      "iemand": 1890,
      "Ġsmall": 1891,
      "Ġstuff": 1892,
      "fra": 1893,
      "get": 1894,
      "kun": 1895,
      "vid": 1896,
      "Ġbook": 1897,
      "Ġnennen": 1898,
      "Ġvoll": 1899,
      "alth": 1900,
      "Ġlight": 1901,
      "Ġgoes": 1902,
      "Ġletz": 1903,
      "jekt": 1904,
      "bt": 1905,
      "tschaft": 1906,
      "ane": 1907,
      "Ġgar": 1908,
      "Ġlu": 1909,
      "row": 1910,
      "alle": 1911,
      "geben": 1912,
      "Ġschul": 1913,
      "cept": 1914,
      "Ġprozent": 1915,
      "Ġunder": 1916,
      "Ġunderst": 1917,
      "Ġson": 1918,
      "Ġaway": 1919,
      "iele": 1920,
      "Ġhoch": 1921,
      "Ġgute": 1922,
      "Ġcam": 1923,
      "tell": 1924,
      "Ġverg": 1925,
      "cken": 1926,
      "Ġnothing": 1927,
      "plic": 1928,
      "people": 1929,
      "Ġwissenschaft": 1930,
      "Ġkeinen": 1931,
      "dar": 1932,
      "rat": 1933,
      "Ġwa": 1934,
      "Ġber": 1935,
      "Ġpap": 1936,
      "Ġsound": 1937,
      "ÃŁer": 1938,
      "Ġmod": 1939,
      "Ġteach": 1940,
      "Ġplace": 1941,
      "spr": 1942,
      "Ġworks": 1943,
      "Ġfew": 1944,
      "ific": 1945,
      "Ġjahren": 1946,
      "Ġhelp": 1947,
      "Ġmillionen": 1948,
      "Ġcomplete": 1949,
      "aur": 1950,
      "iar": 1951,
      "Ġhoff": 1952,
      "Ġbil": 1953,
      "Ġcent": 1954,
      "Ġkun": 1955,
      "Ġlassen": 1956,
      "amm": 1957,
      "Ġsogar": 1958,
      "audience": 1959,
      "Ġsprechen": 1960,
      "Ã¤ng": 1961,
      "Ġinternet": 1962,
      "ruct": 1963,
      "press": 1964,
      "Ġchildren": 1965,
      "Ġterr": 1966,
      "Ġbelieve": 1967,
      "Ġgehirn": 1968,
      "li": 1969,
      "vation": 1970,
      "wel": 1971,
      "ief": 1972,
      "Ġmoney": 1973,
      "Ġbab": 1974,
      "Ġbut": 1975,
      "raft": 1976,
      "licher": 1977,
      "Ġjob": 1978,
      "Ġjemand": 1979,
      "Ġneue": 1980,
      "Ġihren": 1981,
      "Ġ30": 1982,
      "ci": 1983,
      "mon": 1984,
      "Ġsen": 1985,
      "Ġanim": 1986,
      "Ġschre": 1987,
      "Ġsex": 1988,
      "Ġextre": 1989,
      "elle": 1990,
      "Ġunterschied": 1991,
      "abei": 1992,
      "par": 1993,
      "sicht": 1994,
      "Ġfut": 1995,
      "ott": 1996,
      "Ġinv": 1997,
      "Ġverk": 1998,
      "Ġcomes": 1999,
      "Ġeng": 2000,
      "Ġhappening": 2001,
      "Ġphot": 2002,
      "Ġarchite": 2003,
      "mar": 2004,
      "zlich": 2005,
      "Ġ9": 2006,
      "Ġmind": 2007,
      "Ġcor": 2008,
      "Ġvier": 2009,
      "ionen": 2010,
      "Ġspra": 2011,
      "Ġprin": 2012,
      "Ġliebe": 2013,
      "gesch": 2014,
      "Ġgerade": 2015,
      "Ġantwort": 2016,
      "af": 2017,
      "Ġeigentlich": 2018,
      "iges": 2019,
      "Ġrecht": 2020,
      "cts": 2021,
      "Ġleft": 2022,
      "ckt": 2023,
      "Ġenough": 2024,
      "Ġgott": 2025,
      "Ġresult": 2026,
      "fÃ¼hr": 2027,
      "Ġwhole": 2028,
      "yeah": 2029,
      "Ġbefore": 2030,
      "kunft": 2031,
      "Ġunderstand": 2032,
      "Ġkunst": 2033,
      "Ġfuture": 2034,
      "ries": 2035,
      "zwe": 2036,
      "Ġmight": 2037,
      "uns": 2038,
      "Ġhome": 2039,
      "Ã¤us": 2040,
      "Ã¤ren": 2041,
      "Ġstre": 2042,
      "ters": 2043,
      "Ġlive": 2044,
      "zeug": 2045,
      "Ġgrow": 2046,
      "ared": 2047,
      "Ġexperiment": 2048,
      "ogen": 2049,
      "Ġdach": 2050,
      "ont": 2051,
      "stoff": 2052,
      "itten": 2053,
      "Ġfantast": 2054,
      "ories": 2055,
      "Ġinno": 2056,
      "Ġless": 2057,
      "Ã¤m": 2058,
      "eten": 2059,
      "Ġits": 2060,
      "Ġstat": 2061,
      "olg": 2062,
      "Ġdoch": 2063,
      "Ġkomple": 2064,
      "Ġfinden": 2065,
      "Ġnormal": 2066,
      "Ã¤lt": 2067,
      "Ġafter": 2068,
      "Ġfilm": 2069,
      "lung": 2070,
      "son": 2071,
      "Ġmil": 2072,
      "Ġecon": 2073,
      "itive": 2074,
      "Ġnam": 2075,
      "Ġold": 2076,
      "Ġopt": 2077,
      "Ġlar": 2078,
      "Ġzahl": 2079,
      "Ġproject": 2080,
      "iful": 2081,
      "Ġtechnologie": 2082,
      "ente": 2083,
      "Ġsah": 2084,
      "Ġgest": 2085,
      "Ġfive": 2086,
      "Ġvir": 2087,
      "Ã¶t": 2088,
      "allen": 2089,
      "achen": 2090,
      "dern": 2091,
      "Ġaugen": 2092,
      "Ġzukunft": 2093,
      "Ġ100": 2094,
      "halt": 2095,
      "Ġbecome": 2096,
      "Ġbesser": 2097,
      "cle": 2098,
      "ihr": 2099,
      "uh": 2100,
      "Ġ8": 2101,
      "ansp": 2102,
      "Ġmem": 2103,
      "Ġeben": 2104,
      "tel": 2105,
      "gew": 2106,
      "Ġris": 2107,
      "Ġrest": 2108,
      "Ġleg": 2109,
      "Ġkonnte": 2110,
      "Ġmakes": 2111,
      "Ġwonderful": 2112,
      "line": 2113,
      "right": 2114,
      "enz": 2115,
      "ieÃŁ": 2116,
      "Ġmot": 2117,
      "unkt": 2118,
      "Ġbuch": 2119,
      "iting": 2120,
      "Ġpop": 2121,
      "Ġcur": 2122,
      "Ġvom": 2123,
      "ett": 2124,
      "Ġreas": 2125,
      "Ġread": 2126,
      "imm": 2127,
      "ĠerzÃ¤hl": 2128,
      "Ġexc": 2129,
      "who": 2130,
      "upt": 2131,
      "Ġcoming": 2132,
      "zeit": 2133,
      "Ġused": 2134,
      "ized": 2135,
      "Ġlebens": 2136,
      "Ġrad": 2137,
      "Ġunserer": 2138,
      "Ġschwier": 2139,
      "Ġ50": 2140,
      "gung": 2141,
      "ih": 2142,
      "may": 2143,
      "publikum": 2144,
      "voll": 2145,
      "Ġsign": 2146,
      "Ġif": 2147,
      "unter": 2148,
      "Ġhist": 2149,
      "Ġfood": 2150,
      "Ã¼h": 2151,
      "Ã¤ft": 2152,
      "ationen": 2153,
      "Ġseem": 2154,
      "Ġche": 2155,
      "Ġexact": 2156,
      "thanks": 2157,
      "dieser": 2158,
      "Ġmath": 2159,
      "Ġdire": 2160,
      "Ġkrank": 2161,
      "Ġunivers": 2162,
      "Ġeconom": 2163,
      "av": 2164,
      "ning": 2165,
      "chmal": 2166,
      "Ġdabei": 2167,
      "Ġstra": 2168,
      "Ġwasn": 2169,
      "Ġspr": 2170,
      "Ġcommun": 2171,
      "Ġconne": 2172,
      "Ġbegann": 2173,
      "doch": 2174,
      "Ġguy": 2175,
      "kÃ¶nnen": 2176,
      "bf": 2177,
      "ift": 2178,
      "vious": 2179,
      "Ġmiss": 2180,
      "ately": 2181,
      "Ġbitte": 2182,
      "irl": 2183,
      "Ġoper": 2184,
      "Ġbew": 2185,
      "Ġverschw": 2186,
      "Ġessen": 2187,
      "Ġern": 2188,
      "ister": 2189,
      "Ġspielen": 2190,
      "Ġquick": 2191,
      "Ġhappy": 2192,
      "Ġself": 2193,
      "ĠfÃ¼hl": 2194,
      "Ġwenig": 2195,
      "Ġkeep": 2196,
      "gle": 2197,
      "iff": 2198,
      "look": 2199,
      "port": 2200,
      "ritt": 2201,
      "sein": 2202,
      "Ġwel": 2203,
      "Ġmatter": 2204,
      "ited": 2205,
      "Ġcap": 2206,
      "Ġcol": 2207,
      "Ġsec": 2208,
      "ktr": 2209,
      "Ġhead": 2210,
      "Ġgod": 2211,
      "Ġdefin": 2212,
      "Ġanything": 2213,
      "ismus": 2214,
      "Ġbeautiful": 2215,
      "dh": 2216,
      "Ġair": 2217,
      "Ġeduc": 2218,
      "ĠfÃ¼nf": 2219,
      "orn": 2220,
      "ote": 2221,
      "Ġinst": 2222,
      "usst": 2223,
      "icult": 2224,
      "ehe": 2225,
      "Ġrec": 2226,
      "ulation": 2227,
      "Ġspace": 2228,
      "Ġexist": 2229,
      "ikan": 2230,
      "ĠgrÃ¼n": 2231,
      "ples": 2232,
      "Ġmenge": 2233,
      "Ġmeinen": 2234,
      "Ġbraucht": 2235,
      "aterial": 2236,
      "Ġbeste": 2237,
      "aces": 2238,
      "Ġgemein": 2239,
      "Ġverstehen": 2240,
      "wissen": 2241,
      "Ġsor": 2242,
      "stÃ¤n": 2243,
      "ator": 2244,
      "Ġopp": 2245,
      "unde": 2246,
      "Ã¶hn": 2247,
      "Ġfort": 2248,
      "Ġextra": 2249,
      "ĠkÃ¶nnten": 2250,
      "keiten": 2251,
      "Ġfragen": 2252,
      "Ġscience": 2253,
      "Ġnews": 2254,
      "Ġelectr": 2255,
      "Ġchanged": 2256,
      "scheinlich": 2257,
      "air": 2258,
      "ften": 2259,
      "nah": 2260,
      "ĠhÃ¤t": 2261,
      "Ġhuge": 2262,
      "arbeit": 2263,
      "Ġposs": 2264,
      "Ġcre": 2265,
      "Ġcra": 2266,
      "Ġkar": 2267,
      "Ġeins": 2268,
      "anden": 2269,
      "ommen": 2270,
      "bei": 2271,
      "Ġprocess": 2272,
      "Ġhealth": 2273,
      "Ġarm": 2274,
      "Ġ12": 2275,
      "Ġdazu": 2276,
      "etzen": 2277,
      "Ġherz": 2278,
      "Ġkleine": 2279,
      "Ġjeder": 2280,
      "Ġtalking": 2281,
      "Ġarbeiten": 2282,
      "Ġbuilding": 2283,
      "efÃ¤hr": 2284,
      "Ġabsolute": 2285,
      "Ġcompletely": 2286,
      "bare": 2287,
      "inter": 2288,
      "Ġsuch": 2289,
      "isen": 2290,
      "ĠkÃ¶r": 2291,
      "abor": 2292,
      "alles": 2293,
      "Ġschwer": 2294,
      "Ġmeans": 2295,
      "Ġmeisten": 2296,
      "ĠÃ¼berall": 2297,
      "Ġtrain": 2298,
      "Ġindust": 2299,
      "Ġmoral": 2300,
      "Ġexactly": 2301,
      "nein": 2302,
      "Ġdir": 2303,
      "Ġthird": 2304,
      "Ġever": 2305,
      "Ġple": 2306,
      "Ġkill": 2307,
      "rol": 2308,
      "enten": 2309,
      "Ã¶ren": 2310,
      "emat": 2311,
      "Ġerw": 2312,
      "ibly": 2313,
      "ives": 2314,
      "Ġworking": 2315,
      "ertain": 2316,
      "Ġresp": 2317,
      "Ġbiolog": 2318,
      "Ġbusiness": 2319,
      "ometimes": 2320,
      "gest": 2321,
      "gehen": 2322,
      "iere": 2323,
      "ĠÃ¼": 2324,
      "Ġwind": 2325,
      "Ġhor": 2326,
      "Ġcou": 2327,
      "Ġkost": 2328,
      "Ã¤hn": 2329,
      "Ġrevolution": 2330,
      "Ġgetting": 2331,
      "Ġmeinem": 2332,
      "ennt": 2333,
      "Ġemot": 2334,
      "ĠwÃ¼rden": 2335,
      "Ġerfolg": 2336,
      "Ã¤dchen": 2337,
      "jeder": 2338,
      "Ġfalsch": 2339,
      "Ġinspir": 2340,
      "Ġextrem": 2341,
      "maybe": 2342,
      "druck": 2343,
      "sc": 2344,
      "will": 2345,
      "Ġmann": 2346,
      "ash": 2347,
      "Ġ&#": 2348,
      "app": 2349,
      "Ġcal": 2350,
      "alten": 2351,
      "einander": 2352,
      "ember": 2353,
      "Ġries": 2354,
      "Ġsoz": 2355,
      "Ġlehr": 2356,
      "ahren": 2357,
      "Ġgenug": 2358,
      "Ġstellen": 2359,
      "selves": 2360,
      "Ġanders": 2361,
      "ĠungefÃ¤hr": 2362,
      "Ġohne": 2363,
      "system": 2364,
      "Ġverschiedene": 2365,
      "haben": 2366,
      "ior": 2367,
      "mo": 2368,
      "uf": 2369,
      "Ġhope": 2370,
      "Ġbar": 2371,
      "llig": 2372,
      "Ġpos": 2373,
      "Ġcult": 2374,
      "Ġkids": 2375,
      "Ġlicht": 2376,
      "Ã¤ter": 2377,
      "achsen": 2378,
      "ily": 2379,
      "ĠauÃŁer": 2380,
      "auch": 2381,
      "agt": 2382,
      "Ġsteht": 2383,
      "Ġdaran": 2384,
      "Ġversuch": 2385,
      "Ġjeden": 2386,
      "Ġguys": 2387,
      "ĠverÃ¤ndern": 2388,
      "velop": 2389,
      "Ġincredible": 2390,
      "Ġeasy": 2391,
      "cke": 2392,
      "go": 2393,
      "hau": 2394,
      "ende": 2395,
      "asst": 2396,
      "Ġeach": 2397,
      "Ġtyp": 2398,
      "Ġtook": 2399,
      "Ġverr": 2400,
      "gef": 2401,
      "Ġlooking": 2402,
      "Ġdarauf": 2403,
      "ruktur": 2404,
      "Ġeverybody": 2405,
      "Ġglauben": 2406,
      "gebnis": 2407,
      "Ġmaking": 2408,
      "Ġerstaun": 2409,
      "Ġangst": 2410,
      "dition": 2411,
      "ker": 2412,
      "ues": 2413,
      "enne": 2414,
      "Ġsing": 2415,
      "Ġdig": 2416,
      "Ġwon": 2417,
      "Ġhol": 2418,
      "Ġeing": 2419,
      "Ġtat": 2420,
      "Ġcase": 2421,
      "text": 2422,
      "Ġline": 2423,
      "Ã¤um": 2424,
      "amb": 2425,
      "liches": 2426,
      "verse": 2427,
      "Ġprogra": 2428,
      "Ġexp": 2429,
      "Ġmode": 2430,
      "Ġgesehen": 2431,
      "zeich": 2432,
      "Ġgeschichten": 2433,
      "Ġzeigt": 2434,
      "Ġcost": 2435,
      "Ġzweite": 2436,
      "Ġideas": 2437,
      "Ġexperience": 2438,
      "Ġafrica": 2439,
      "Ġdollar": 2440,
      "Ġbaby": 2441,
      "hin": 2442,
      "zess": 2443,
      "enden": 2444,
      "Ġsinn": 2445,
      "esch": 2446,
      "rel": 2447,
      "Ġeff": 2448,
      "Ġtest": 2449,
      "ape": 2450,
      "Ġpain": 2451,
      "einige": 2452,
      "ieso": 2453,
      "Ġtransp": 2454,
      "Ġklar": 2455,
      "Ġbecame": 2456,
      "viele": 2457,
      "Ġinteressant": 2458,
      "Ġenergy": 2459,
      "Ġdollars": 2460,
      "Ġschlecht": 2461,
      "natÃ¼rlich": 2462,
      "Ġsense": 2463,
      "ĠkÃ¶rper": 2464,
      "ced": 2465,
      "cies": 2466,
      "dan": 2467,
      "ek": 2468,
      "vir": 2469,
      "Ġsort": 2470,
      "Ġhil": 2471,
      "ready": 2472,
      "Ġeffe": 2473,
      "Ġtem": 2474,
      "Ġfeh": 2475,
      "ork": 2476,
      "bert": 2477,
      "ident": 2478,
      "Ġprobab": 2479,
      "Ġchina": 2480,
      "isches": 2481,
      "Ġihm": 2482,
      "ivid": 2483,
      "Ġdevelop": 2484,
      "Ġgehe": 2485,
      "Ġprobleme": 2486,
      "Ġface": 2487,
      "Ġkont": 2488,
      "david": 2489,
      "rieben": 2490,
      "ittel": 2491,
      "Ġhinter": 2492,
      "ĠverÃ¤ndert": 2493,
      "Ġinside": 2494,
      "Ġbisschen": 2495,
      "Ġkurz": 2496,
      "unsere": 2497,
      "by": 2498,
      "ying": 2499,
      "Ġdays": 2500,
      "esent": 2501,
      "ieht": 2502,
      "Ġmaterial": 2503,
      "Ġhund": 2504,
      "Ġeu": 2505,
      "Ġev": 2506,
      "Ġniemand": 2507,
      "leben": 2508,
      "ald": 2509,
      "ĠlÃ¤nder": 2510,
      "urs": 2511,
      "ierten": 2512,
      "Ġster": 2513,
      "unge": 2514,
      "Ġergebnis": 2515,
      "ctive": 2516,
      "Ġyet": 2517,
      "ernt": 2518,
      "ĠgehÃ¶rt": 2519,
      "Ġbring": 2520,
      "Ġsyn": 2521,
      "Ġbuilt": 2522,
      "Ġlangu": 2523,
      "Ġgleiche": 2524,
      "Ġinnovation": 2525,
      "fte": 2526,
      "his": 2527,
      "zy": 2528,
      "think": 2529,
      "Ġwalk": 2530,
      "Ġill": 2531,
      "iegen": 2532,
      "ony": 2533,
      "Ġcity": 2534,
      "Ġkennen": 2535,
      "Ġiss": 2536,
      "ention": 2537,
      "Ġret": 2538,
      "Ġstehen": 2539,
      "ization": 2540,
      "Ġbegan": 2541,
      "Ġclear": 2542,
      "Ġdachte": 2543,
      "Ġabsolutely": 2544,
      "akt": 2545,
      "cus": 2546,
      "vin": 2547,
      "Ġside": 2548,
      "Ġmass": 2549,
      "itz": 2550,
      "Ġnet": 2551,
      "Ġfot": 2552,
      "Ġpubl": 2553,
      "Ġval": 2554,
      "ĠvÃ¶": 2555,
      "Ġinde": 2556,
      "Ġlin": 2557,
      "Ġtoll": 2558,
      "Ġbekommen": 2559,
      "ement": 2560,
      "Ġteam": 2561,
      "ahrung": 2562,
      "icks": 2563,
      "igkeiten": 2564,
      "ordin": 2565,
      "Ġrelig": 2566,
      "Ġmaybe": 2567,
      "Ġgreen": 2568,
      "bra": 2569,
      "gut": 2570,
      "Ġwatch": 2571,
      "Ġmars": 2572,
      "Ġmult": 2573,
      "Ġmutter": 2574,
      "Ġhy": 2575,
      "Ġhall": 2576,
      "osp": 2577,
      "aps": 2578,
      "oud": 2579,
      "orm": 2580,
      "Ġkult": 2581,
      "Ġkrie": 2582,
      "ĠlÃ¶s": 2583,
      "einer": 2584,
      "Ġsocial": 2585,
      "Ġcho": 2586,
      "Ġlives": 2587,
      "Ġyork": 2588,
      "anger": 2589,
      "Ġsaw": 2590,
      "Ġideen": 2591,
      "Ġboth": 2592,
      "Ġbecause": 2593,
      "Ġcountries": 2594,
      "bed": 2595,
      "ians": 2596,
      "oung": 2597,
      "wenn": 2598,
      "ches": 2599,
      "Ġdan": 2600,
      "Ġdist": 2601,
      "atur": 2602,
      "legen": 2603,
      "Ġkor": 2604,
      "tellt": 2605,
      "andel": 2606,
      "your": 2607,
      "ush": 2608,
      "Ġverd": 2609,
      "Ġjour": 2610,
      "gefÃ¼hl": 2611,
      "aul": 2612,
      "oogle": 2613,
      "ĠÃ¼berr": 2614,
      "Ġende": 2615,
      "Ġatt": 2616,
      "spe": 2617,
      "Ġ25": 2618,
      "Ġthinking": 2619,
      "Ġrock": 2620,
      "Ã¼nst": 2621,
      "Ġago": 2622,
      "Ġwohl": 2623,
      "Ġlearned": 2624,
      "Ġfamily": 2625,
      "Ġbasically": 2626,
      "Ġenergie": 2627,
      "Ġearth": 2628,
      "Ġmathemat": 2629,
      "Ġeducation": 2630,
      "Ġcouple": 2631,
      "haupt": 2632,
      "gang": 2633,
      "kon": 2634,
      "min": 2635,
      "more": 2636,
      "nt": 2637,
      "pos": 2638,
      "Ġgame": 2639,
      "Ġlim": 2640,
      "Ġlisten": 2641,
      "Ġzw": 2642,
      "Ġbeein": 2643,
      "ican": 2644,
      "Ġstories": 2645,
      "imate": 2646,
      "Ġerkl": 2647,
      "Ġalt": 2648,
      "Ġseite": 2649,
      "Ġchallen": 2650,
      "Ġheard": 2651,
      "new": 2652,
      "Ġetwa": 2653,
      "Ġmusik": 2654,
      "Ġproblems": 2655,
      "Ġihrer": 2656,
      "Ġmilliar": 2657,
      "ccess": 2658,
      "Ġsurpr": 2659,
      "ĠÃ¶ff": 2660,
      "Ġsitu": 2661,
      "Ġstimmt": 2662,
      "Ġbillion": 2663,
      "Ġcreate": 2664,
      "cer": 2665,
      "car": 2666,
      "nur": 2667,
      "zus": 2668,
      "Ġdel": 2669,
      "Ġwus": 2670,
      "stra": 2671,
      "Ġfrei": 2672,
      "Ġkop": 2673,
      "ames": 2674,
      "Ã¶ff": 2675,
      "ders": 2676,
      "imens": 2677,
      "Ġricht": 2678,
      "idd": 2679,
      "heute": 2680,
      "istan": 2681,
      "ages": 2682,
      "Ġhear": 2683,
      "sequ": 2684,
      "ahn": 2685,
      "Ġword": 2686,
      "Ġarten": 2687,
      "ney": 2688,
      "Ġmachine": 2689,
      "assion": 2690,
      "Ġdev": 2691,
      "ateg": 2692,
      "Ġmusste": 2693,
      "Ġsagt": 2694,
      "Ġcontin": 2695,
      "Ġweniger": 2696,
      "sych": 2697,
      "Ġcountry": 2698,
      "Ġmarket": 2699,
      "Ġperfect": 2700,
      "ged": 2701,
      "iver": 2702,
      "Ġdich": 2703,
      "Ġdau": 2704,
      "Ġbody": 2705,
      "Ġner": 2706,
      "Ġnehmen": 2707,
      "ley": 2708,
      "ality": 2709,
      "Ġschein": 2710,
      "Ġalready": 2711,
      "istic": 2712,
      "Ġarg": 2713,
      "Ġwithout": 2714,
      "ollow": 2715,
      "Ġgrou": 2716,
      "Ġgetan": 2717,
      "ipp": 2718,
      "ĠgroÃŁen": 2719,
      "Ġfrau": 2720,
      "Ġraum": 2721,
      "Ġversuchen": 2722,
      "Ġobvious": 2723,
      "Ġmonth": 2724,
      "work": 2725,
      "Ġsuccess": 2726,
      "Ġbehind": 2727,
      "ĠnÃ¤chste": 2728,
      "Ġmodel": 2729,
      "Ġbilder": 2730,
      "Ġprobably": 2731,
      "aÃŁ": 2732,
      "don": 2733,
      "dent": 2734,
      "geh": 2735,
      "ole": 2736,
      "zin": 2737,
      "era": 2738,
      "chter": 2739,
      "Ġsil": 2740,
      "Ġmasch": 2741,
      "Ġhot": 2742,
      "Ġbauen": 2743,
      "Ġpie": 2744,
      "Ġkn": 2745,
      "ala": 2746,
      "usion": 2747,
      "Ġtop": 2748,
      "Ġwirtschaft": 2749,
      "Ġitself": 2750,
      "Ã¶l": 2751,
      "ument": 2752,
      "Ġneg": 2753,
      "Ġprojekt": 2754,
      "Ġliving": 2755,
      "Ġ18": 2756,
      "ĠÃ¼berhaupt": 2757,
      "pliz": 2758,
      "Ġpriv": 2759,
      "Ġentsche": 2760,
      "Ã¼ckt": 2761,
      "ments": 2762,
      "Ġsuper": 2763,
      "Ġincredibly": 2764,
      "Ġweitere": 2765,
      "Ġschaffen": 2766,
      "ĠÃ¤ndern": 2767,
      "bon": 2768,
      "come": 2769,
      "fol": 2770,
      "hol": 2771,
      "ling": 2772,
      "iet": 2773,
      "Ġbau": 2774,
      "Ġequ": 2775,
      "ari": 2776,
      "Ġfull": 2777,
      "Ġpsych": 2778,
      "Ġcoll": 2779,
      "undheit": 2780,
      "roll": 2781,
      "lichkeit": 2782,
      "Ġalmost": 2783,
      "Ġyoung": 2784,
      "Ġmachte": 2785,
      "forder": 2786,
      "Ġass": 2787,
      "schaften": 2788,
      "Ġpassierte": 2789,
      "Ġsym": 2790,
      "frast": 2791,
      "Ġdifference": 2792,
      "stellung": 2793,
      "Ġunseren": 2794,
      "Ġexamples": 2795,
      "Ġquestions": 2796,
      "Ġelektr": 2797,
      "Ġobject": 2798,
      "mmet": 2799,
      "year": 2800,
      "Ġminuten": 2801,
      "Ġwahrscheinlich": 2802,
      "Ġcomplex": 2803,
      "Ġnatural": 2804,
      "hÃ¶ren": 2805,
      "ron": 2806,
      "tod": 2807,
      "ĠsÃ¼": 2808,
      "Ġset": 2809,
      "Ġsens": 2810,
      "asse": 2811,
      "Ġeyes": 2812,
      "Ġtw": 2813,
      "Ġtut": 2814,
      "ales": 2815,
      "Ġintell": 2816,
      "Ã¤cht": 2817,
      "utes": 2818,
      "ural": 2819,
      "rag": 2820,
      "Ġverh": 2821,
      "Ġschule": 2822,
      "Ġerinn": 2823,
      "vern": 2824,
      "Ġonline": 2825,
      "adt": 2826,
      "merk": 2827,
      "Ġgenannt": 2828,
      "Ġentde": 2829,
      "Ġmusic": 2830,
      "Ġbringen": 2831,
      "Ġbrauch": 2832,
      "Ġblack": 2833,
      "Ġdifficult": 2834,
      "Ġview": 2835,
      "Ġliegt": 2836,
      "cover": 2837,
      "Ġroboter": 2838,
      "Ġletzte": 2839,
      "Ġengine": 2840,
      "did": 2841,
      "good": 2842,
      "ham": 2843,
      "hip": 2844,
      "jÃ¤hr": 2845,
      "lie": 2846,
      "wk": 2847,
      "ware": 2848,
      "chs": 2849,
      "unk": 2850,
      "Ġgirl": 2851,
      "reg": 2852,
      "ĠbÃ¼": 2853,
      "Ġbank": 2854,
      "Ġnennt": 2855,
      "ouse": 2856,
      "aren": 2857,
      "Ġfish": 2858,
      "Ġpot": 2859,
      "Ġcertain": 2860,
      "Ġlater": 2861,
      "Ġtool": 2862,
      "which": 2863,
      "Ġ16": 2864,
      "ienen": 2865,
      "Ġdiag": 2866,
      "Ġgets": 2867,
      "icken": 2868,
      "Ġgeschieht": 2869,
      "Ġnachr": 2870,
      "Ġfeed": 2871,
      "Ġroom": 2872,
      "Ġgerne": 2873,
      "Ġbox": 2874,
      "Ġlots": 2875,
      "Ġemp": 2876,
      "Ġbreak": 2877,
      "Ġabsolut": 2878,
      "Ġtrying": 2879,
      "Ġanfang": 2880,
      "ihre": 2881,
      "bere": 2882,
      "bel": 2883,
      "cing": 2884,
      "med": 2885,
      "zahl": 2886,
      "those": 2887,
      "ana": 2888,
      "ante": 2889,
      "Ġmess": 2890,
      "ĠhÃ¼": 2891,
      "ĠhÃ¤n": 2892,
      "Ġgol": 2893,
      "Ġecht": 2894,
      "Ġnenne": 2895,
      "Ġfu": 2896,
      "Ġfle": 2897,
      "Ġfing": 2898,
      "Ġfur": 2899,
      "Ġfollow": 2900,
      "Ġcy": 2901,
      "Ġcir": 2902,
      "ots": 2903,
      "Ġoil": 2904,
      "omes": 2905,
      "Ġzer": 2906,
      "utzt": 2907,
      "ices": 2908,
      "tend": 2909,
      "ctor": 2910,
      "Ġmeet": 2911,
      "Ġchem": 2912,
      "ĠspÃ¤ter": 2913,
      "Ġmother": 2914,
      "Ġgesagt": 2915,
      "iker": 2916,
      "Ã¤nger": 2917,
      "Ġmyself": 2918,
      "spiel": 2919,
      "Ġentire": 2920,
      "Ġord": 2921,
      "Ã¼cken": 2922,
      "Ġmussten": 2923,
      "Ġpassieren": 2924,
      "Ġeveryone": 2925,
      "Ġbenutzen": 2926,
      "Ġhelfen": 2927,
      "samkeit": 2928,
      "Ġbereit": 2929,
      "Ġfolgen": 2930,
      "Ġhistory": 2931,
      "Ġlanguage": 2932,
      "Ġsituation": 2933,
      "ather": 2934,
      "gem": 2935,
      "kann": 2936,
      "mus": 2937,
      "mittel": 2938,
      "ply": 2939,
      "welt": 2940,
      "wend": 2941,
      "enzen": 2942,
      "ested": 2943,
      "stein": 2944,
      "Ġball": 2945,
      "orie": 2946,
      "Ġcolle": 2947,
      "Ġko": 2948,
      "ĠkÃ¼": 2949,
      "eld": 2950,
      "Ġersten": 2951,
      "Ġseit": 2952,
      "iste": 2953,
      "ants": 2954,
      "Ġheart": 2955,
      "Ġplaces": 2956,
      "izin": 2957,
      "ousand": 2958,
      "Ġfrauen": 2959,
      "Ġunserem": 2960,
      "Ġguess": 2961,
      "Ġkleiner": 2962,
      "Ġ40": 2963,
      "ave": 2964,
      "ired": 2965,
      "mark": 2966,
      "pre": 2967,
      "ral": 2968,
      "zz": 2969,
      "ĠÃ¤hn": 2970,
      "Ġsays": 2971,
      "Ġac": 2972,
      "Ġevolution": 2973,
      "Ġtas": 2974,
      "osh": 2975,
      "Ġnah": 2976,
      "isiert": 2977,
      "Ġvater": 2978,
      "tem": 2979,
      "Ġinfrast": 2980,
      "anda": 2981,
      "ĠlÃ¶": 2982,
      "Ġliter": 2983,
      "que": 2984,
      "inder": 2985,
      "schn": 2986,
      "immt": 2987,
      "Ġschritt": 2988,
      "Ġrese": 2989,
      "Ġerde": 2990,
      "Ġleiden": 2991,
      "ooper": 2992,
      "Ġhey": 2993,
      "ogra": 2994,
      "Ġherum": 2995,
      "Ġstep": 2996,
      "Ġlooked": 2997,
      "Ġneeds": 2998,
      "Ġbeginnen": 2999,
      "Ġindivid": 3000,
      "Ġganzen": 3001,
      "Ġbeispiele": 3002,
      "Ġlearning": 3003,
      "Ġafrika": 3004,
      "Ġtransform": 3005,
      "Ġremember": 3006,
      "Ġtakes": 3007,
      "falls": 3008,
      "Ġbekam": 3009,
      "Ġcells": 3010,
      "ructure": 3011,
      "ĠerzÃ¤hlen": 3012,
      "Ġmilliarden": 3013,
      "93": 3014,
      "aden": 3015,
      "gs": 3016,
      "ount": 3017,
      "por": 3018,
      "zer": 3019,
      "zum": 3020,
      "Ġsometimes": 3021,
      "Ġav": 3022,
      "Ġwomen": 3023,
      "Ġmer": 3024,
      "Ġmic": 3025,
      "ones": 3026,
      "Ġfig": 3027,
      "Ġcann": 3028,
      "ĠkÃ¼nst": 3029,
      "Ġox": 3030,
      "Ġoben": 3031,
      "Ġlink": 3032,
      "Ġziel": 3033,
      "Ġreden": 3034,
      "schul": 3035,
      "Ġrot": 3036,
      "Ġseen": 3037,
      "ÃŁe": 3038,
      "Ġgrup": 3039,
      "pect": 3040,
      "Ġphil": 3041,
      "Ġindien": 3042,
      "Ġpartic": 3043,
      "Ġmedizin": 3044,
      "Ġchanges": 3045,
      "Ġhalf": 3046,
      "ĠhÃ¶ren": 3047,
      "Ġenglish": 3048,
      "Ġreason": 3049,
      "ĠhÃ¤tte": 3050,
      "ael": 3051,
      "bes": 3052,
      "bild": 3053,
      "first": 3054,
      "ging": 3055,
      "jemand": 3056,
      "win": 3057,
      "inen": 3058,
      "Ġsau": 3059,
      "Ġsure": 3060,
      "Ġak": 3061,
      "Ġthousand": 3062,
      "ieden": 3063,
      "Ġgoogle": 3064,
      "itet": 3065,
      "Ġnutzen": 3066,
      "Ġfir": 3067,
      "Ġlau": 3068,
      "oman": 3069,
      "ability": 3070,
      "ama": 3071,
      "Ġje": 3072,
      "Ġschwar": 3073,
      "Ġerken": 3074,
      "Ġaller": 3075,
      "Ġallen": 3076,
      "Ġneur": 3077,
      "Ġprozess": 3078,
      "Ġgovern": 3079,
      "Ġwort": 3080,
      "Ġgesundheit": 3081,
      "Ġfrien": 3082,
      "Ġmaj": 3083,
      "Ġgeschah": 3084,
      "Ġorig": 3085,
      "Ġspecies": 3086,
      "Ġneues": 3087,
      "Ġeinzel": 3088,
      "Ġprote": 3089,
      "mÃ¶glich": 3090,
      "Ġinvest": 3091,
      "Ġresearch": 3092,
      "91": 3093,
      "aum": 3094,
      "aff": 3095,
      "back": 3096,
      "ming": 3097,
      "po": 3098,
      "two": 3099,
      "wÃ¼r": 3100,
      "Ġsix": 3101,
      "Ġdah": 3102,
      "Ġwish": 3103,
      "ichard": 3104,
      "Ġvol": 3105,
      "Ã¤che": 3106,
      "ows": 3107,
      "genau": 3108,
      "ĠspaÃŁ": 3109,
      "Ġmole": 3110,
      "Ġ14": 3111,
      "iven": 3112,
      "ivity": 3113,
      "Ġprim": 3114,
      "Ġworked": 3115,
      "Ġdarum": 3116,
      "Ġfavor": 3117,
      "Ġbetra": 3118,
      "Ġindia": 3119,
      "Ġappro": 3120,
      "Ġminute": 3121,
      "Ġcontrol": 3122,
      "Ġsicherheit": 3123,
      "ĠmÃ¶glichkeiten": 3124,
      "Ġconsum": 3125,
      "ĠgroÃŁartig": 3126,
      "sichtlich": 3127,
      "Ġphotograph": 3128,
      "Ġbewusst": 3129,
      "Ġpossible": 3130,
      "Ġpublic": 3131,
      "ĠvÃ¶llig": 3132,
      "10": 3133,
      "ban": 3134,
      "cin": 3135,
      "det": 3136,
      "dam": 3137,
      "hh": 3138,
      "iol": 3139,
      "kb": 3140,
      "kten": 3141,
      "mel": 3142,
      "sum": 3143,
      "zip": 3144,
      "Ġsat": 3145,
      "Ġsqu": 3146,
      "Ġselt": 3147,
      "Ġacr": 3148,
      "Ġdise": 3149,
      "Ġmis": 3150,
      "ĠmÃ¤n": 3151,
      "ĠmÃ¤dchen": 3152,
      "Ġhour": 3153,
      "ature": 3154,
      "Ġbott": 3155,
      "Ġton": 3156,
      "Ġnice": 3157,
      "Ġfree": 3158,
      "ised": 3159,
      "Ġpen": 3160,
      "Ġpal": 3161,
      "Ġpost": 3162,
      "Ġcut": 3163,
      "ental": 3164,
      "ential": 3165,
      "urt": 3166,
      "indet": 3167,
      "Ġregen": 3168,
      "Ġschauen": 3169,
      "Ġalone": 3170,
      "anken": 3171,
      "ides": 3172,
      "Ġwider": 3173,
      "ktor": 3174,
      "Ġspre": 3175,
      "Ġarbe": 3176,
      "Ġmanchmal": 3177,
      "iving": 3178,
      "Ġtele": 3179,
      "ogn": 3180,
      "Ġgrand": 3181,
      "Ġdeal": 3182,
      "Ġbringt": 3183,
      "Ġunternehmen": 3184,
      "noch": 3185,
      "Ġnature": 3186,
      "Ġsollen": 3187,
      "Ġimpro": 3188,
      "Ġ197": 3189,
      "Ġ198": 3190,
      "Ġmorgen": 3191,
      "Ġsachen": 3192,
      "Ġuniverse": 3193,
      "Ġbereits": 3194,
      "Ġhalten": 3195,
      "Ġserious": 3196,
      "Ġcreated": 3197,
      "ĠglÃ¼cklich": 3198,
      "Ġpract": 3199,
      "Ġbeginnt": 3200,
      "ynam": 3201,
      "Ġterror": 3202,
      "like": 3203,
      "Ġzahlen": 3204,
      "Ġelectric": 3205,
      "Ġkopf": 3206,
      "ele": 3207,
      "hÃ¤ng": 3208,
      "mich": 3209,
      "mehr": 3210,
      "tt": 3211,
      "take": 3212,
      "ude": 3213,
      "viel": 3214,
      "Ġdor": 3215,
      "ieÃŁen": 3216,
      "Ġmos": 3217,
      "Ġhold": 3218,
      "Ġtimes": 3219,
      "apt": 3220,
      "Ġfly": 3221,
      "isieren": 3222,
      "Ġkil": 3223,
      "Ġstadt": 3224,
      "ilen": 3225,
      "immer": 3226,
      "Ġsoc": 3227,
      "Ġlevel": 3228,
      "oph": 3229,
      "Ġcancer": 3230,
      "Ġgesell": 3231,
      "Ġdeep": 3232,
      "iale": 3233,
      "Ġreality": 3234,
      "grund": 3235,
      "hav": 3236,
      "have": 3237,
      "Ġfamilie": 3238,
      "ĠfÃ¼hrt": 3239,
      "Ġentwickelt": 3240,
      "Ġjohn": 3241,
      "Ġtotally": 3242,
      "Ġoffensichtlich": 3243,
      "Ġarchitect": 3244,
      "Ġkomplex": 3245,
      "Ġplease": 3246,
      "Ġkosten": 3247,
      "merksamkeit": 3248,
      "dict": 3249,
      "hle": 3250,
      "less": 3251,
      "nor": 3252,
      "rupt": 3253,
      "zug": 3254,
      "char": 3255,
      "Ġsin": 3256,
      "Ġdein": 3257,
      "another": 3258,
      "Ġbir": 3259,
      "Ġtreat": 3260,
      "apan": 3261,
      "Ġpark": 3262,
      "Ġlost": 3263,
      "ehn": 3264,
      "Ġready": 3265,
      "Ġlead": 3266,
      "Ġallein": 3267,
      "ules": 3268,
      "Ġaufre": 3269,
      "menschen": 3270,
      "Ġaussehen": 3271,
      "Ġgesam": 3272,
      "ortun": 3273,
      "Ġwerk": 3274,
      "Ġconst": 3275,
      "Ġzeige": 3276,
      "Ġeverywhere": 3277,
      "Ġspeak": 3278,
      "gress": 3279,
      "Ġsolar": 3280,
      "Ġminutes": 3281,
      "Ġteilen": 3282,
      "idence": 3283,
      "Ġslow": 3284,
      "Ġafgh": 3285,
      "Ġchrist": 3286,
      "Ġbeginning": 3287,
      "Ġbleiben": 3288,
      "Ġopportun": 3289,
      "Ġextraordin": 3290,
      "Ġmodell": 3291,
      "viron": 3292,
      "Ġissue": 3293,
      "today": 3294,
      "Ġcannot": 3295,
      "Ġafghan": 3296,
      "ball": 3297,
      "ially": 3298,
      "ros": 3299,
      "ration": 3300,
      "Ġort": 3301,
      "ering": 3302,
      "Ġdna": 3303,
      "iety": 3304,
      "aster": 3305,
      "Ġhyp": 3306,
      "Ġborn": 3307,
      "icher": 3308,
      "Ġed": 3309,
      "ites": 3310,
      "Ġnight": 3311,
      "Ġfiel": 3312,
      "Ġfest": 3313,
      "tete": 3314,
      "aly": 3315,
      "ury": 3316,
      "Ġrepr": 3317,
      "Ġones": 3318,
      "zept": 3319,
      "Ġmache": 3320,
      "okrat": 3321,
      "endet": 3322,
      "Ġflu": 3323,
      "Ġcompany": 3324,
      "Ġcompassion": 3325,
      "Ġvielmals": 3326,
      "Ġhands": 3327,
      "Ġshows": 3328,
      "Ġkamen": 3329,
      "Ġparad": 3330,
      "Ġrelativ": 3331,
      "Ġkleinen": 3332,
      "Ġkleines": 3333,
      "Ġmagic": 3334,
      "ĠgrÃ¶ÃŁer": 3335,
      "zieh": 3336,
      "john": 3337,
      "welche": 3338,
      "Ġschwierig": 3339,
      "Ġcommunic": 3340,
      "Ġobviously": 3341,
      "Ġmajor": 3342,
      "aktion": 3343,
      "fle": 3344,
      "gibt": 3345,
      "kraft": 3346,
      "nach": 3347,
      "pol": 3348,
      "same": 3349,
      "wow": 3350,
      "Ġsehe": 3351,
      "Ġach": 3352,
      "Ġdanger": 3353,
      "Ġdynam": 3354,
      "Ġways": 3355,
      "asure": 3356,
      "Ġhung": 3357,
      "Ġbon": 3358,
      "Ġeight": 3359,
      "itions": 3360,
      "osaur": 3361,
      "Ġfert": 3362,
      "Ġpay": 3363,
      "Ġtheory": 3364,
      "Ġinner": 3365,
      "Ġlog": 3366,
      "Ġlern": 3367,
      "Ġlabor": 3368,
      "Ã¼gen": 3369,
      "oms": 3370,
      "ichter": 3371,
      "eht": 3372,
      "Ġess": 3373,
      "Ġrom": 3374,
      "hren": 3375,
      "head": 3376,
      "Ġseven": 3377,
      "Ġaufg": 3378,
      "Ġaufmerksamkeit": 3379,
      "ĠmitgefÃ¼hl": 3380,
      "Ġmob": 3381,
      "Ġ11": 3382,
      "Ġshort": 3383,
      "ived": 3384,
      "Ġusa": 3385,
      "Ġgene": 3386,
      "Ġglam": 3387,
      "ĠgeschÃ¤ft": 3388,
      "Ġkompliz": 3389,
      "Ġneeded": 3390,
      "acter": 3391,
      "Ġclass": 3392,
      "Ġihrem": 3393,
      "ried": 3394,
      "does": 3395,
      "Ġgewalt": 3396,
      "Ġagainst": 3397,
      "ĠgefÃ¤hr": 3398,
      "Ġherausforder": 3399,
      "Ġplanet": 3400,
      "ĠfÃ¼hren": 3401,
      "Ã¤sst": 3402,
      "Ġtotal": 3403,
      "Ġleave": 3404,
      "Ġpaper": 3405,
      "Ġquickly": 3406,
      "nahme": 3407,
      "Ġcrazy": 3408,
      "Ã¤ume": 3409,
      "Ġordnung": 3410,
      "30": 3411,
      "bte": 3412,
      "cal": 3413,
      "ike": 3414,
      "ky": 3415,
      "lg": 3416,
      "nob": 3417,
      "pat": 3418,
      "sehr": 3419,
      "side": 3420,
      "uck": 3421,
      "wieso": 3422,
      "enk": 3423,
      "Ġsou": 3424,
      "esten": 3425,
      "Ġgone": 3426,
      "Ġeat": 3427,
      "Ġtage": 3428,
      "appe": 3429,
      "arm": 3430,
      "Ġfund": 3431,
      "ison": 3432,
      "ising": 3433,
      "Ġpack": 3434,
      "Ġpunkt": 3435,
      "Ġkap": 3436,
      "Ġvo": 3437,
      "Ġvere": 3438,
      "Ġinse": 3439,
      "Ġlesen": 3440,
      "Ã¤llt": 3441,
      "Ġoften": 3442,
      "uring": 3443,
      "ram": 3444,
      "Ġweise": 3445,
      "Ġweek": 3446,
      "gegen": 3447,
      "imin": 3448,
      "cker": 3449,
      "wirtschaft": 3450,
      "Ġsei": 3451,
      "Ġsek": 3452,
      "Ġaren": 3453,
      "Ġenviron": 3454,
      "Ġherr": 3455,
      "Ġinterested": 3456,
      "anzen": 3457,
      "Ġfair": 3458,
      "heiten": 3459,
      "Ġpassion": 3460,
      "Ġsymmet": 3461,
      "ished": 3462,
      "Ġ300": 3463,
      "Ġjedes": 3464,
      "Ġstrateg": 3465,
      "Ġerfahrung": 3466,
      "Ġsmart": 3467,
      "Ġmedic": 3468,
      "Ġbedeut": 3469,
      "Ġeigene": 3470,
      "Ġeigenen": 3471,
      "deshalb": 3472,
      "Ġinformationen": 3473,
      "Ġirgendwie": 3474,
      "wards": 3475,
      "Ġfaszin": 3476,
      "reichen": 3477,
      "Ġmovement": 3478,
      "Ġstatist": 3479,
      "Ġprogramm": 3480,
      "Ġhundred": 3481,
      "Ġkultur": 3482,
      "ĠÃ¼berras": 3483,
      "Ġchallenge": 3484,
      "Ġdisease": 3485,
      "200": 3486,
      "ai": 3487,
      "bau": 3488,
      "dlich": 3489,
      "fig": 3490,
      "iant": 3491,
      "kre": 3492,
      "keine": 3493,
      "oes": 3494,
      "ound": 3495,
      "ped": 3496,
      "put": 3497,
      "res": 3498,
      "sind": 3499,
      "sive": 3500,
      "Ġult": 3501,
      "ences": 3502,
      "Ġage": 3503,
      "Ġaktiv": 3504,
      "Ġwahl": 3505,
      "Ġwoman": 3506,
      "Ġident": 3507,
      "esh": 3508,
      "Ġhouse": 3509,
      "Ġbist": 3510,
      "ĠtÃ¶": 3511,
      "Ġna": 3512,
      "Ġnon": 3513,
      "Ġnetz": 3514,
      "Ġvort": 3515,
      "Ġbeide": 3516,
      "utions": 3517,
      "Ġoft": 3518,
      "urg": 3519,
      "Ġweb": 3520,
      "ami": 3521,
      "Ġvertra": 3522,
      "ilar": 3523,
      "Ġrid": 3524,
      "Ġerre": 3525,
      "Ġalong": 3526,
      "aug": 3527,
      "Ġable": 3528,
      "ielt": 3529,
      "Ġwords": 3530,
      "Ġcomplic": 3531,
      "Ġenorm": 3532,
      "plan": 3533,
      "Ġgenet": 3534,
      "Ġintern": 3535,
      "Ġpeace": 3536,
      "Ġzeich": 3537,
      "Ġstellt": 3538,
      "ologie": 3539,
      "Ġflug": 3540,
      "selbe": 3541,
      "Ġclos": 3542,
      "Ġtradition": 3543,
      "Ġbigger": 3544,
      "athan": 3545,
      "Ġarbeits": 3546,
      "Ġfocus": 3547,
      "Ġniemals": 3548,
      "ully": 3549,
      "teilt": 3550,
      "Ġwunderbar": 3551,
      "Ġverloren": 3552,
      "ledge": 3553,
      "Ġdream": 3554,
      "Ġluft": 3555,
      "Ġfantastic": 3556,
      "Ġpopulation": 3557,
      "Ġfehl": 3558,
      "iddle": 3559,
      "Ġacross": 3560,
      "20": 3561,
      "iam": 3562,
      "ither": 3563,
      "kar": 3564,
      "machen": 3565,
      "ny": 3566,
      "neh": 3567,
      "sor": 3568,
      "thes": 3569,
      "Ġsal": 3570,
      "Ġsow": 3571,
      "Ġsold": 3572,
      "ester": 3573,
      "Ġmut": 3574,
      "Ġhit": 3575,
      "Ġeye": 3576,
      "iti": 3577,
      "Ġtaus": 3578,
      "Ġfern": 3579,
      "Ġfore": 3580,
      "ision": 3581,
      "Ġinvol": 3582,
      "Ġoce": 3583,
      "undert": 3584,
      "Ġbeob": 3585,
      "amp": 3586,
      "amin": 3587,
      "ween": 3588,
      "Ġverhalten": 3589,
      "ums": 3590,
      "Ġjapan": 3591,
      "immen": 3592,
      "Ġaltern": 3593,
      "Ġarea": 3594,
      "bew": 3595,
      "ager": 3596,
      "ustain": 3597,
      "Ġmittel": 3598,
      "Ġtried": 3599,
      "Ġdeut": 3600,
      "Ġusing": 3601,
      "Ġpress": 3602,
      "ierend": 3603,
      "Ġfear": 3604,
      "ĠgroÃŁes": 3605,
      "Ġscr": 3606,
      "Ġscient": 3607,
      "acy": 3608,
      "Ġlieben": 3609,
      "Ġcouldn": 3610,
      "Ġboy": 3611,
      "Ġgelernt": 3612,
      "iled": 3613,
      "view": 3614,
      "Ġfunktionieren": 3615,
      "Ġsurger": 3616,
      "Ġdamals": 3617,
      "Ġrelations": 3618,
      "Ġfinanz": 3619,
      "ĠÃ¶l": 3620,
      "Ġtaken": 3621,
      "Ġexplain": 3622,
      "Ġasked": 3623,
      "Ġprofess": 3624,
      "Ġlarge": 3625,
      "Ġexciting": 3626,
      "Ġseems": 3627,
      "Ġconnect": 3628,
      "ĠfÃ¼hlen": 3629,
      "Ġlehrer": 3630,
      "ĠverrÃ¼ckt": 3631,
      "Ġdigital": 3632,
      "Ġscheint": 3633,
      "Ġintelligen": 3634,
      "schnitt": 3635,
      "Ġleidenschaft": 3636,
      "ograf": 3637,
      "Ġgovernment": 3638,
      "face": 3639,
      "gu": 3640,
      "kehr": 3641,
      "lang": 3642,
      "rÃ¤n": 3643,
      "sj": 3644,
      "ugen": 3645,
      "with": 3646,
      "ination": 3647,
      "inosaur": 3648,
      "chan": 3649,
      "Ġsom": 3650,
      "Ġaw": 3651,
      "Ġdro": 3652,
      "Ġdet": 3653,
      "Ġdad": 3654,
      "stehen": 3655,
      "Ġhiv": 3656,
      "rew": 3657,
      "Ġeth": 3658,
      "itution": 3659,
      "isst": 3660,
      "Ġcop": 3661,
      "Ġknew": 3662,
      "Ġlange": 3663,
      "Ġlaw": 3664,
      "igung": 3665,
      "rad": 3666,
      "achten": 3667,
      "Ġstay": 3668,
      "Ġred": 3669,
      "Ġrequ": 3670,
      "Ġjunge": 3671,
      "schÃ¶n": 3672,
      "ided": 3673,
      "Ġshare": 3674,
      "zeuge": 3675,
      "ivil": 3676,
      "Ġmain": 3677,
      "manche": 3678,
      "Ġfeet": 3679,
      "Ġblind": 3680,
      "Ġbegin": 3681,
      "Ġkonnten": 3682,
      "Ġkinds": 3683,
      "Ġraus": 3684,
      "Ġbesonder": 3685,
      "fluss": 3686,
      "Ġanybody": 3687,
      "rieb": 3688,
      "Ġwollten": 3689,
      "gestellt": 3690,
      "Ġ196": 3691,
      "Ġ199": 3692,
      "Ġdiscover": 3693,
      "prochen": 3694,
      "ĠpersÃ¶n": 3695,
      "Ġincre": 3696,
      "ĠbenÃ¶t": 3697,
      "Ġpattern": 3698,
      "Ġgefunden": 3699,
      "Ġpersonal": 3700,
      "Ġkey": 3701,
      "Ã¤ude": 3702,
      "Ġlonger": 3703,
      "Ġnumbers": 3704,
      "everybody": 3705,
      "Ġanfangen": 3706,
      "Ġbooks": 3707,
      "Ġextremely": 3708,
      "Ġculture": 3709,
      "Ġzwischen": 3710,
      "Ġfurther": 3711,
      "Ġarbeite": 3712,
      "Ġenvironment": 3713,
      "19": 3714,
      "book": 3715,
      "fÃ¤h": 3716,
      "gte": 3717,
      "hand": 3718,
      "mp": 3719,
      "niemand": 3720,
      "pers": 3721,
      "setzen": 3722,
      "van": 3723,
      "wand": 3724,
      "Ġding": 3725,
      "Ġdest": 3726,
      "Ġmik": 3727,
      "onen": 3728,
      "unately": 3729,
      "ĠhÃ¶r": 3730,
      "Ġeinge": 3731,
      "Ġtough": 3732,
      "Ġtief": 3733,
      "Ġfight": 3734,
      "Ġpath": 3735,
      "Ġkraft": 3736,
      "Ġvari": 3737,
      "Ġinte": 3738,
      "abel": 3739,
      "Ġbekom": 3740,
      "Ġbehav": 3741,
      "Ġversch": 3742,
      "Ġstruktur": 3743,
      "ĠschÃ¼t": 3744,
      "Ġersch": 3745,
      "uchs": 3746,
      "Ġgeg": 3747,
      "antwort": 3748,
      "Ġnobody": 3749,
      "wasser": 3750,
      "Ġconc": 3751,
      "many": 3752,
      "Ġsage": 3753,
      "Ġourselves": 3754,
      "Ġbrought": 3755,
      "Ġeinfache": 3756,
      "pekt": 3757,
      "Ġphen": 3758,
      "Ġscale": 3759,
      "Ġintro": 3760,
      "Ġtechnik": 3761,
      "bringen": 3762,
      "Ġstrong": 3763,
      "Ġverbre": 3764,
      "Ġsurv": 3765,
      "Ġfreund": 3766,
      "zentr": 3767,
      "board": 3768,
      "Ġamerica": 3769,
      "Ġbewegung": 3770,
      "Ġvision": 3771,
      "Ġschreck": 3772,
      "Ġresults": 3773,
      "Ġmilit": 3774,
      "Ġindeed": 3775,
      "ĠlÃ¶sung": 3776,
      "Ġattention": 3777,
      "Ġoxy": 3778,
      "Ġextraordinary": 3779,
      "bas": 3780,
      "ew": 3781,
      "haus": 3782,
      "licht": 3783,
      "mat": 3784,
      "tag": 3785,
      "Ġsong": 3786,
      "Ġwicht": 3787,
      "Ġhosp": 3788,
      "reen": 3789,
      "Ġbal": 3790,
      "Ġbud": 3791,
      "itation": 3792,
      "Ġtit": 3793,
      "Ġpoll": 3794,
      "Ġcart": 3795,
      "irgend": 3796,
      "alen": 3797,
      "Ġinvent": 3798,
      "Ġop": 3799,
      "ĠlÃ¤sst": 3800,
      "omat": 3801,
      "Ġisland": 3802,
      "Ã¤ten": 3803,
      "Ġzent": 3804,
      "Ġbeim": 3805,
      "urity": 3806,
      "Ġstatt": 3807,
      "Ġrand": 3808,
      "Ġerh": 3809,
      "Ġsoft": 3810,
      "Ġsofort": 3811,
      "auft": 3812,
      "Ġsell": 3813,
      "Ġsequ": 3814,
      "see": 3815,
      "seit": 3816,
      "Ġdenn": 3817,
      "Ġmodern": 3818,
      "Ġwert": 3819,
      "Ġconvers": 3820,
      "Ġvorstellen": 3821,
      "Ġquad": 3822,
      "Ġgeschehen": 3823,
      "Ġ24": 3824,
      "Ġground": 3825,
      "Ġhapp": 3826,
      "Ġkommun": 3827,
      "Ġdemoc": 3828,
      "Ġdemokrat": 3829,
      "werk": 3830,
      "Ġfather": 3831,
      "Ġunters": 3832,
      "Ġdritte": 3833,
      "Ã¤chst": 3834,
      "Ġspecial": 3835,
      "Ġdisappe": 3836,
      "Ġstarts": 3837,
      "Ġbeiden": 3838,
      "Ġverbess": 3839,
      "Ġgeboren": 3840,
      "Ġmorning": 3841,
      "Ġchanging": 3842,
      "Ġmarkt": 3843,
      "Ġfinally": 3844,
      "Ġbereich": 3845,
      "Ġgrunde": 3846,
      "Ġstudy": 3847,
      "Ġdrau": 3848,
      "Ġbehand": 3849,
      "Ġtaking": 3850,
      "Ġmenschliche": 3851,
      "Ġchris": 3852,
      "Ġkrebs": 3853,
      "Ġimagine": 3854,
      "Ġhause": 3855,
      "Ġanimal": 3856,
      "Ġschreiben": 3857,
      "Ġsprache": 3858,
      "Ġkomplett": 3859,
      "Ġoptim": 3860,
      "gewÃ¶hn": 3861,
      "Ġreasons": 3862,
      "Ġeconomic": 3863,
      "Ġernst": 3864,
      "Ġcolor": 3865,
      "Ġemotional": 3866,
      "Ġerstaunlich": 3867,
      "Ġsingle": 3868,
      "Ġsterben": 3869,
      "Ġjourney": 3870,
      "Ġgesellschaft": 3871,
      "Ġafghanistan": 3872,
      "Ġphenomen": 3873,
      "ever": 3874,
      "even": 3875,
      "gal": 3876,
      "hundert": 3877,
      "kÃ¼": 3878,
      "kop": 3879,
      "mut": 3880,
      "nal": 3881,
      "tatsÃ¤chlich": 3882,
      "would": 3883,
      "Ġx": 3884,
      "chr": 3885,
      "chsel": 3886,
      "Ġsam": 3887,
      "Ġswe": 3888,
      "Ġdinosaur": 3889,
      "anten": 3890,
      "Ġmeter": 3891,
      "ases": 3892,
      "stÃ¼t": 3893,
      "Ġhom": 3894,
      "atten": 3895,
      "Ġgold": 3896,
      "Ġnu": 3897,
      "ouble": 3898,
      "arily": 3899,
      "Ġfelt": 3900,
      "orge": 3901,
      "Ġcooper": 3902,
      "Ġlow": 3903,
      "omas": 3904,
      "indung": 3905,
      "achst": 3906,
      "Ġsche": 3907,
      "Ġerle": 3908,
      "Ġsechs": 3909,
      "again": 3910,
      "Ġspan": 3911,
      "ource": 3912,
      "Ġ17": 3913,
      "Ã¤nomen": 3914,
      "Ã¤ndig": 3915,
      "spro": 3916,
      "Ġthema": 3917,
      "Ġthemselves": 3918,
      "Ġknows": 3919,
      "stead": 3920,
      "Ġblue": 3921,
      "ology": 3922,
      "Ġanyone": 3923,
      "Ġthanks": 3924,
      "Ġothers": 3925,
      "gendes": 3926,
      "Ġversion": 3927,
      "Ġsimilar": 3928,
      "ĠschlieÃŁ": 3929,
      "Ġweiteres": 3930,
      "ĠverÃ¤nderung": 3931,
      "Ġfeeling": 3932,
      "Ġpictures": 3933,
      "Ġpowerful": 3934,
      "Ġamerikan": 3935,
      "Ġbessere": 3936,
      "Ġprakt": 3937,
      "Ġimages": 3938,
      "Ġenglisch": 3939,
      "pression": 3940,
      "zwei": 3941,
      "Ġfantastisch": 3942,
      "Ġdirekt": 3943,
      "Ġrecord": 3944,
      "Ġbesteht": 3945,
      "Ġsorry": 3946,
      "eschÃ¶n": 3947,
      "Ġhilfe": 3948,
      "Ġgeheim": 3949,
      "Ġeuro": 3950,
      "Ġmonths": 3951,
      "Ġmaschine": 3952,
      "Ġpiece": 3953,
      "Ġentscheid": 3954,
      "Ġcirc": 3955,
      "Ġseltsam": 3956,
      "michael": 3957,
      "Ġerreicht": 3958,
      "aught": 3959,
      "Ġcomplicated": 3960,
      "ĠdrauÃŁen": 3961,
      "bet": 3962,
      "fre": 3963,
      "finden": 3964,
      "hi": 3965,
      "hy": 3966,
      "mung": 3967,
      "mann": 3968,
      "masch": 3969,
      "pfen": 3970,
      "punkt": 3971,
      "ric": 3972,
      "ube": 3973,
      "wind": 3974,
      "wÃ¤r": 3975,
      "ĠÂ": 3976,
      "erzÃ¤hl": 3977,
      "iny": 3978,
      "thet": 3979,
      "Ġsle": 3980,
      "Ġsand": 3981,
      "Ġsum": 3982,
      "Ġmad": 3983,
      "Ġhon": 3984,
      "Ġgave": 3985,
      "recht": 3986,
      "Ġemer": 3987,
      "itens": 3988,
      "llo": 3989,
      "Ġtier": 3990,
      "osph": 3991,
      "Ġnar": 3992,
      "Ġnational": 3993,
      "ouch": 3994,
      "Ġfine": 3995,
      "Ġfoss": 3996,
      "isierung": 3997,
      "Ġpu": 3998,
      "Ġport": 3999,
      "Ġker": 4000,
      "Ġken": 4001,
      "otz": 4002,
      "igent": 4003,
      "erei": 4004,
      "abhÃ¤ng": 4005,
      "Ġbemer": 4006,
      "entially": 4007,
      "wegen": 4008,
      "Ġverantwort": 4009,
      "Ġrepl": 4010,
      "Ġreise": 4011,
      "ĠunmÃ¶glich": 4012,
      "Ġwhite": 4013,
      "Ġerscha": 4014,
      "Ġcha": 4015,
      "aged": 4016,
      "ources": 4017,
      "ille": 4018,
      "ills": 4019,
      "Ġtrend": 4020,
      "Ġenc": 4021,
      "Ġdeath": 4022,
      "Ġplast": 4023,
      "Ġpres": 4024,
      "Ġknowledge": 4025,
      "izz": 4026,
      "Ġnochmal": 4027,
      "Ġcode": 4028,
      "wert": 4029,
      "ĠgroÃŁer": 4030,
      "ĠphÃ¤nomen": 4031,
      "Ġwants": 4032,
      "conds": 4033,
      "Ġclimate": 4034,
      "Ġintu": 4035,
      "Ġspez": 4036,
      "auten": 4037,
      "Ġsimply": 4038,
      "Ġpoor": 4039,
      "Ġlangsam": 4040,
      "Ġgegenteil": 4041,
      "Ġspielt": 4042,
      "Ġdraw": 4043,
      "Ġrunter": 4044,
      "Ġmetaph": 4045,
      "ĠgrÃ¶ÃŁte": 4046,
      "Ġbekannt": 4047,
      "ception": 4048,
      "Ġhoffnung": 4049,
      "Ġnamens": 4050,
      "Ġvirt": 4051,
      "Ġcheck": 4052,
      "Ġkrankheit": 4053,
      "Ġdefinition": 4054,
      "Ġmulti": 4055,
      "Ġwusste": 4056,
      "Ġempath": 4057,
      "Ġfigure": 4058,
      "Ġsociety": 4059,
      "Ġdangerous": 4060,
      "Ġglamour": 4061,
      "Ġherausforderung": 4062,
      "Ġsurgery": 4063,
      "Ġrelationship": 4064,
      "Ġbehavior": 4065,
      "ax": 4066,
      "afr": 4067,
      "cious": 4068,
      "eks": 4069,
      "ganz": 4070,
      "hall": 4071,
      "iot": 4072,
      "lin": 4073,
      "lam": 4074,
      "ox": 4075,
      "pa": 4076,
      "sÃ¤t": 4077,
      "tom": 4078,
      "vo": 4079,
      "zung": 4080,
      "Ġ%": 4081,
      "eren": 4082,
      "Ġsn": 4083,
      "Ġsustain": 4084,
      "Ġwall": 4085,
      "ĠwÃ¤hr": 4086,
      "ĠwÃ¤ren": 4087,
      "Ġig": 4088,
      "Ġmiddle": 4089,
      "onom": 4090,
      "onnen": 4091,
      "Ġho": 4092,
      "Ġgas": 4093,
      "Ġgingen": 4094,
      "Ġep": 4095,
      "Ġevol": 4096,
      "itter": 4097,
      "itiv": 4098,
      "Ġtro": 4099,
      "Ġfand": 4100,
      "Ġfahr": 4101,
      "Ġfangen": 4102,
      "ĠfÃ¤h": 4103,
      "orden": 4104,
      "lei": 4105,
      "Ġvill": 4106,
      "altet": 4107,
      "Ġlas": 4108,
      "Ã¼cke": 4109,
      "eden": 4110,
      "etwas": 4111,
      "racht": 4112,
      "Ġweil": 4113,
      "ĠstÃ¼ck": 4114,
      "Ġstates": 4115,
      "Ġrecy": 4116,
      "schung": 4117,
      "imp": 4118,
      "Ġru": 4119,
      "Ġros": 4120,
      "Ġauth": 4121,
      "Ġleid": 4122,
      "ops": 4123,
      "Ġgeist": 4124,
      "Ġimage": 4125,
      "ustr": 4126,
      "Ġmoving": 4127,
      "Ġmoved": 4128,
      "Ġausge": 4129,
      "Ġarab": 4130,
      "Ġcommon": 4131,
      "Ġmyth": 4132,
      "Ġfront": 4133,
      "Ġdead": 4134,
      "Ġhervor": 4135,
      "manchmal": 4136,
      "Ġinteract": 4137,
      "Ġstell": 4138,
      "hlen": 4139,
      "Ġcover": 4140,
      "Ġamb": 4141,
      "akter": 4142,
      "Ġdaraus": 4143,
      "Ġguten": 4144,
      "ĠmÃ¶gen": 4145,
      "Ġanyway": 4146,
      "Ġbetween": 4147,
      "Ġwoche": 4148,
      "Ġstrange": 4149,
      "Ġsystems": 4150,
      "haft": 4151,
      "ondern": 4152,
      "Ġinteressiert": 4153,
      "Ġbildung": 4154,
      "Ġneuen": 4155,
      "Ġtreffen": 4156,
      "Ġrunning": 4157,
      "Ġperfekt": 4158,
      "Ġpatienten": 4159,
      "Ġbleibt": 4160,
      "Ġhoffe": 4161,
      "Ġanimals": 4162,
      "Ġprinzip": 4163,
      "Ġgrowth": 4164,
      "clear": 4165,
      "Ġrisk": 4166,
      "Ġrestaur": 4167,
      "Ġsecret": 4168,
      "Ġsecurity": 4169,
      "Ġtraining": 4170,
      "ĠÃ¼br": 4171,
      "Ġevidence": 4172,
      "Ġgroup": 4173,
      "blich": 4174,
      "cen": 4175,
      "col": 4176,
      "dom": 4177,
      "eth": 4178,
      "fern": 4179,
      "gleich": 4180,
      "ios": 4181,
      "kung": 4182,
      "num": 4183,
      "uellen": 4184,
      "vant": 4185,
      "wood": 4186,
      "erweise": 4187,
      "Ġsent": 4188,
      "Ġacht": 4189,
      "Ġdimens": 4190,
      "anies": 4191,
      "Ġmine": 4192,
      "ators": 4193,
      "Ġbur": 4194,
      "Ġeher": 4195,
      "Ġtaten": 4196,
      "Ġnation": 4197,
      "Ġfire": 4198,
      "Ġcook": 4199,
      "Ġcars": 4200,
      "Ġkat": 4201,
      "Ġviol": 4202,
      "alitÃ¤t": 4203,
      "Ġbege": 4204,
      "Ġbezieh": 4205,
      "uren": 4206,
      "icole": 4207,
      "ray": 4208,
      "Ġsieben": 4209,
      "ĠverfÃ¼": 4210,
      "Ġsta": 4211,
      "Ġrep": 4212,
      "imeter": 4213,
      "ĠschÃ¼": 4214,
      "ĠrÃ¼ck": 4215,
      "Ġhaupt": 4216,
      "Ġleuten": 4217,
      "Ġsele": 4218,
      "Ġchin": 4219,
      "Ġmiteinander": 4220,
      "Ã¤ngt": 4221,
      "Ġgras": 4222,
      "Ġvorh": 4223,
      "igens": 4224,
      "Ġzeug": 4225,
      "Ġseeing": 4226,
      "Ġwirklichkeit": 4227,
      "Ġyourself": 4228,
      "Ġdark": 4229,
      "Ġblick": 4230,
      "ified": 4231,
      "ĠunterstÃ¼t": 4232,
      "Ġgutes": 4233,
      "Ġtrag": 4234,
      "Ġimpact": 4235,
      "Ġboden": 4236,
      "erstens": 4237,
      "phen": 4238,
      "phone": 4239,
      "Ġklim": 4240,
      "Ġbecomes": 4241,
      "Ġmedia": 4242,
      "Ġgebaut": 4243,
      "Ġeltern": 4244,
      "Ġregierung": 4245,
      "Ġplaying": 4246,
      "Ġnummer": 4247,
      "Ġauto": 4248,
      "Ġunglaubliche": 4249,
      "Ġremark": 4250,
      "Ġschneller": 4251,
      "ondon": 4252,
      "Ġgedanken": 4253,
      "Ġpolitical": 4254,
      "Ġgeneral": 4255,
      "Ġconscious": 4256,
      "Ġverwenden": 4257,
      "ailable": 4258,
      "ĠgroÃŁartige": 4259,
      "Ġluck": 4260,
      "fÃ¼hrt": 4261,
      "Ġvirus": 4262,
      "Ġsoziale": 4263,
      "Ġpositive": 4264,
      "zeichnet": 4265,
      "Ġcertainly": 4266,
      "Ġnachrichten": 4267,
      "Ġparticular": 4268,
      "Ġapproach": 4269,
      "otzdem": 4270,
      "18": 4271,
      "bitte": 4272,
      "dah": 4273,
      "fÃ¤": 4274,
      "gliche": 4275,
      "iate": 4276,
      "mir": 4277,
      "ya": 4278,
      "zogen": 4279,
      "Ġsize": 4280,
      "Ġwin": 4281,
      "Ġther": 4282,
      "ieg": 4283,
      "Ġmr": 4284,
      "Ġmap": 4285,
      "stru": 4286,
      "statt": 4287,
      "unch": 4288,
      "unser": 4289,
      "itzen": 4290,
      "Ġtable": 4291,
      "aring": 4292,
      "isis": 4293,
      "Ġpast": 4294,
      "Ġcru": 4295,
      "alog": 4296,
      "Ġinstr": 4297,
      "Ġober": 4298,
      "Ġlib": 4299,
      "elte": 4300,
      "eless": 4301,
      "eins": 4302,
      "racy": 4303,
      "ump": 4304,
      "scht": 4305,
      "ims": 4306,
      "Ġuner": 4307,
      "Ġschwe": 4308,
      "Ġhaving": 4309,
      "ctions": 4310,
      "annte": 4311,
      "annten": 4312,
      "Ġgebe": 4313,
      "Ġexpen": 4314,
      "Ġlif": 4315,
      "mend": 4316,
      "seite": 4317,
      "second": 4318,
      "ikation": 4319,
      "Ġtrust": 4320,
      "Ġfrank": 4321,
      "Ġcontext": 4322,
      "please": 4323,
      "Ġsafe": 4324,
      "Ġdiam": 4325,
      "Ġgenes": 4326,
      "Ġinterview": 4327,
      "Ġ21": 4328,
      "Ġkannst": 4329,
      "ips": 4330,
      "Ġoutside": 4331,
      "itting": 4332,
      "Ġblood": 4333,
      "Ġfliegen": 4334,
      "Ġkindern": 4335,
      "hnung": 4336,
      "ĠmÃ¶chten": 4337,
      "Ġclose": 4338,
      "Ġtrack": 4339,
      "Ġbuy": 4340,
      "Ġjedem": 4341,
      "Ġjedoch": 4342,
      "Ġsagten": 4343,
      "Ġstrom": 4344,
      "Ġfoot": 4345,
      "Ġmeaning": 4346,
      "Ġproducts": 4347,
      "Ġparents": 4348,
      "Ġinteressante": 4349,
      "Ġmagnet": 4350,
      "Ġsupport": 4351,
      "Ġsky": 4352,
      "everything": 4353,
      "krank": 4354,
      "ails": 4355,
      "Ġdecided": 4356,
      "licherweise": 4357,
      "Ġprinci": 4358,
      "Ġhistor": 4359,
      "Ġkranken": 4360,
      "stÃ¤ndig": 4361,
      "Ġoppos": 4362,
      "Ġsozial": 4363,
      "Ġeffic": 4364,
      "Ġtransport": 4365,
      "Ġeffect": 4366,
      "ĠerklÃ¤r": 4367,
      "Ġdevice": 4368,
      "Ġnerv": 4369,
      "Ġsymb": 4370,
      "ĠbÃ¼cher": 4371,
      "Ġfeedback": 4372,
      "Ġavailable": 4373,
      "Ġarchitecture": 4374,
      "Ġfertig": 4375,
      "Ġinternational": 4376,
      "Ġocean": 4377,
      "Ġsleep": 4378,
      "Ġvillage": 4379,
      "50": 4380,
      "bin": 4381,
      "bor": 4382,
      "beh": 4383,
      "dank": 4384,
      "fg": 4385,
      "fahr": 4386,
      "fangen": 4387,
      "glichen": 4388,
      "hat": 4389,
      "iber": 4390,
      "kle": 4391,
      "lo": 4392,
      "mod": 4393,
      "rib": 4394,
      "ton": 4395,
      "uell": 4396,
      "vÃ¶l": 4397,
      "wahr": 4398,
      "ystem": 4399,
      "zieren": 4400,
      "zellen": 4401,
      "Ã©": 4402,
      "ered": 4403,
      "Ġsun": 4404,
      "Ġsamm": 4405,
      "Ġdom": 4406,
      "Ġdruck": 4407,
      "ĠwÃ¼n": 4408,
      "Ġice": 4409,
      "ĠmÃ¼": 4410,
      "Ġmist": 4411,
      "ask": 4412,
      "Ġhid": 4413,
      "Ġhop": 4414,
      "Ġhast": 4415,
      "Ġgilt": 4416,
      "Ġgives": 4417,
      "Ġban": 4418,
      "Ġbor": 4419,
      "Ġeis": 4420,
      "Ġehr": 4421,
      "Ġty": 4422,
      "Ġtal": 4423,
      "Ġfanden": 4424,
      "Ġpil": 4425,
      "Ġca": 4426,
      "Ġkreat": 4427,
      "alter": 4428,
      "Ġlose": 4429,
      "Ġlondon": 4430,
      "Ġanges": 4431,
      "Ġtold": 4432,
      "Ġzehn": 4433,
      "Ã¶st": 4434,
      "Ġdied": 4435,
      "ache": 4436,
      "Ġreaktion": 4437,
      "Ġunited": 4438,
      "their": 4439,
      "Ġerhalten": 4440,
      "genommen": 4441,
      "veral": 4442,
      "Ġallow": 4443,
      "Ġnecess": 4444,
      "Ġformen": 4445,
      "Ġforward": 4446,
      "Ġgele": 4447,
      "ĠgefÃ¼hl": 4448,
      "Ġmeer": 4449,
      "Ġspend": 4450,
      "Ġmoder": 4451,
      "Ġworth": 4452,
      "Ġgesprochen": 4453,
      "iken": 4454,
      "Ã¤nd": 4455,
      "ĠfrÃ¼": 4456,
      "Ġmachines": 4457,
      "Ġsomebody": 4458,
      "Ġvorher": 4459,
      "Ġpresent": 4460,
      "Ġumwelt": 4461,
      "Ġseinem": 4462,
      "Ġamount": 4463,
      "Ġmeines": 4464,
      "Ġnachhalt": 4465,
      "werke": 4466,
      "pected": 4467,
      "Ġadd": 4468,
      "phil": 4469,
      "Ġempf": 4470,
      "Ġwochen": 4471,
      "Ġjahrhundert": 4472,
      "Ġparts": 4473,
      "Ġfindet": 4474,
      "Ġobjekt": 4475,
      "Ġwrote": 4476,
      "Ġbenutzt": 4477,
      "Ġantwor": 4478,
      "Ġstudie": 4479,
      "Ġfamiliar": 4480,
      "Ġoffice": 4481,
      "Ġautos": 4482,
      "Ã¤uft": 4483,
      "Ġschlechte": 4484,
      "Ġbewegen": 4485,
      "Ġclever": 4486,
      "riff": 4487,
      "Ġgeneration": 4488,
      "Ġvisual": 4489,
      "Ġ70": 4490,
      "Ġverschiedenen": 4491,
      "ĠnÃ¤chsten": 4492,
      "Ġurspr": 4493,
      "Ġebenfalls": 4494,
      "Ġmotiv": 4495,
      "Ġuniversum": 4496,
      "Ġrespons": 4497,
      "Ġinspiration": 4498,
      "ĠauÃŁergewÃ¶hn": 4499,
      "Ġfoto": 4500,
      "Ġvalue": 4501,
      "ĠerklÃ¤ren": 4502,
      "ĠkÃ¼nstler": 4503,
      "Ġspread": 4504,
      "nobody": 4505,
      "Ġsekunden": 4506,
      "Ġmedicine": 4507,
      "Ġvortrag": 4508,
      "Ġsoftware": 4509,
      "achstum": 4510,
      "Ġeurope": 4511,
      "bre": 4512,
      "band": 4513,
      "dro": 4514,
      "five": 4515,
      "har": 4516,
      "len": 4517,
      "met": 4518,
      "mart": 4519,
      "miss": 4520,
      "oon": 4521,
      "pose": 4522,
      "paul": 4523,
      "ror": 4524,
      "richard": 4525,
      "set": 4526,
      "setz": 4527,
      "erin": 4528,
      "Ġsug": 4529,
      "Ġast": 4530,
      "Ġaffe": 4531,
      "Ġdeine": 4532,
      "Ġwachsen": 4533,
      "Ġira": 4534,
      "Ġmah": 4535,
      "rem": 4536,
      "Ġbatter": 4537,
      "Ġtend": 4538,
      "Ġtouch": 4539,
      "osoph": 4540,
      "arbe": 4541,
      "Ġfab": 4542,
      "isa": 4543,
      "Ġpfl": 4544,
      "Ġpublikum": 4545,
      "Ġcaus": 4546,
      "Ġcard": 4547,
      "ingu": 4548,
      "Ġvent": 4549,
      "ĠlÃ¤nger": 4550,
      "Ã¼hr": 4551,
      "igte": 4552,
      "Ġange": 4553,
      "Ġzie": 4554,
      "Ġstol": 4555,
      "Ġreich": 4556,
      "Ġjungen": 4557,
      "schritt": 4558,
      "Ġunten": 4559,
      "theorie": 4560,
      "Ġrules": 4561,
      "Ġleicht": 4562,
      "verage": 4563,
      "verty": 4564,
      "Ġonce": 4565,
      "Ġsepar": 4566,
      "Ġseconds": 4567,
      "Ġproper": 4568,
      "Ġlik": 4569,
      "Ġgesicht": 4570,
      "iko": 4571,
      "Ġshape": 4572,
      "Ġtru": 4573,
      "zeugen": 4574,
      "Ġcond": 4575,
      "Ġgros": 4576,
      "Ġgrenzen": 4577,
      "plo": 4578,
      "platz": 4579,
      "Ġprom": 4580,
      "igend": 4581,
      "Ġseiner": 4582,
      "aret": 4583,
      "Ġdarwin": 4584,
      "Ġblau": 4585,
      "Ġflow": 4586,
      "Ġwouldn": 4587,
      "frieden": 4588,
      "udden": 4589,
      "flÃ¤che": 4590,
      "Ġweltwe": 4591,
      "Ġdisc": 4592,
      "ossible": 4593,
      "Ġstarting": 4594,
      "Ġgeworden": 4595,
      "Ġelement": 4596,
      "Ġmedical": 4597,
      "Ã¤hlen": 4598,
      "Ġregion": 4599,
      "boy": 4600,
      "Ġsuff": 4601,
      "Ġexperiments": 4602,
      "Ġbrown": 4603,
      "Ġaccess": 4604,
      "ĠbeschÃ¤ft": 4605,
      "Ġmuster": 4606,
      "Ġ150": 4607,
      "Ġstandard": 4608,
      "Ġverwand": 4609,
      "Ġearly": 4610,
      "fortunately": 4611,
      "Ġleader": 4612,
      "Ġvoller": 4613,
      "Ġsounds": 4614,
      "Ġarchitektur": 4615,
      "Ġsprach": 4616,
      "zweitens": 4617,
      "Ġnamen": 4618,
      "Ġcommunity": 4619,
      "Ġgemeinsam": 4620,
      "nahmen": 4621,
      "ĠhÃ¤tten": 4622,
      "Ġherzlichen": 4623,
      "Ġcalc": 4624,
      "Ġfehler": 4625,
      "Ġbegannen": 4626,
      "Ġkrieg": 4627,
      "Ġbeeinfl": 4628,
      "Ġgruppe": 4629,
      "bildung": 4630,
      "Ġfavorite": 4631,
      "Ġdorf": 4632,
      "ruption": 4633,
      "Ġopportunity": 4634,
      "Ġhypo": 4635,
      "Ġverein": 4636,
      "Ġbesonders": 4637,
      "Ġwichtige": 4638,
      "Ġhospital": 4639,
      "Ġhappiness": 4640,
      "hallo": 4641,
      "Ġremarkable": 4642,
      "Ġexpensive": 4643,
      "dankeschÃ¶n": 4644,
      "vÃ¶lker": 4645,
      "ao": 4646,
      "could": 4647,
      "dy": 4648,
      "dort": 4649,
      "haps": 4650,
      "kein": 4651,
      "kur": 4652,
      "mil": 4653,
      "mmer": 4654,
      "mÃ¤dchen": 4655,
      "rÃ¤": 4656,
      "seine": 4657,
      "vable": 4658,
      "vice": 4659,
      "yer": 4660,
      "zw": 4661,
      "ĠÃ¤r": 4662,
      "Ġsicht": 4663,
      "Ġske": 4664,
      "Ġah": 4665,
      "Ġaspe": 4666,
      "Ġdunk": 4667,
      "Ġwol": 4668,
      "este": 4669,
      "Ġmc": 4670,
      "Ġhig": 4671,
      "Ġgern": 4672,
      "Ġgames": 4673,
      "Ġbot": 4674,
      "itness": 4675,
      "Ġtar": 4676,
      "Ġtiere": 4677,
      "Ġfro": 4678,
      "Ġkid": 4679,
      "Ġkore": 4680,
      "techn": 4681,
      "andere": 4682,
      "Ġlaufen": 4683,
      "Ġangef": 4684,
      "ussen": 4685,
      "Ġbeat": 4686,
      "Ġbevor": 4687,
      "utage": 4688,
      "einen": 4689,
      "ently": 4690,
      "ette": 4691,
      "icy": 4692,
      "iers": 4693,
      "ierter": 4694,
      "Ġverlet": 4695,
      "Ġstate": 4696,
      "ĠstÃ¤r": 4697,
      "Ġstunden": 4698,
      "Ġjack": 4699,
      "ilities": 4700,
      "Ġunt": 4701,
      "Ġran": 4702,
      "Ġerreichen": 4703,
      "Ġalive": 4704,
      "auer": 4705,
      "Ġabend": 4706,
      "Ġzug": 4707,
      "Ġwik": 4708,
      "ulate": 4709,
      "Ġprop": 4710,
      "Ġprogress": 4711,
      "Ġmeth": 4712,
      "Ġmeasure": 4713,
      "Ġmechan": 4714,
      "Ġchicken": 4715,
      "Ġworden": 4716,
      "Ġ13": 4717,
      "ikal": 4718,
      "ĠÃ¼berleben": 4719,
      "Ġshared": 4720,
      "Ġconsequ": 4721,
      "plant": 4722,
      "Ġ22": 4723,
      "ford": 4724,
      "Ġorg": 4725,
      "Ġorte": 4726,
      "Ã¤tsel": 4727,
      "Ġroll": 4728,
      "Ġflo": 4729,
      "Ġphone": 4730,
      "nothing": 4731,
      "Ġcompet": 4732,
      "Ġtraum": 4733,
      "Ġpredict": 4734,
      "Ġanderer": 4735,
      "Ġhandelt": 4736,
      "Ġdisk": 4737,
      "Ġpartner": 4738,
      "ĠrealitÃ¤t": 4739,
      "Ġverbra": 4740,
      "Ġappl": 4741,
      "Ġdesigned": 4742,
      "Ġwriting": 4743,
      "ĠgebÃ¤ude": 4744,
      "Ġwahrheit": 4745,
      "Ġnorm": 4746,
      "Ġregeln": 4747,
      "schlag": 4748,
      "digung": 4749,
      "Ġtransl": 4750,
      "Ã¤dte": 4751,
      "Ġprotot": 4752,
      "Ġglobale": 4753,
      "Ġrobots": 4754,
      "Ġentwicklung": 4755,
      "Ġschools": 4756,
      "Ġcharles": 4757,
      "lossen": 4758,
      "rift": 4759,
      "Ġuhr": 4760,
      "utzutage": 4761,
      "Ġgrew": 4762,
      "Ġfaster": 4763,
      "comp": 4764,
      "Ġpatients": 4765,
      "frau": 4766,
      "Ġletzten": 4767,
      "Ġwait": 4768,
      "Ġbuchst": 4769,
      "Ġdirect": 4770,
      "Ġwelche": 4771,
      "Ġarmut": 4772,
      "Ġindustry": 4773,
      "Ġtemper": 4774,
      "Ġergebnisse": 4775,
      "Ġnetwork": 4776,
      "posed": 4777,
      "Ġlistening": 4778,
      "Ġbeeindruck": 4779,
      "Ġliterally": 4780,
      "Ġlaugh": 4781,
      "Ġschwarz": 4782,
      "Ġfriends": 4783,
      "Ġorigin": 4784,
      "Ġmolec": 4785,
      "ĠmÃ¤nner": 4786,
      "Ġhours": 4787,
      "Ġbirth": 4788,
      "Ġlernte": 4789,
      "Ġaufgabe": 4790,
      "patient": 4791,
      "Ġmikro": 4792,
      "Ġerschaffen": 4793,
      "Ġopposite": 4794,
      "cop": 4795,
      "each": 4796,
      "fore": 4797,
      "fÃ¼nf": 4798,
      "fully": 4799,
      "girl": 4800,
      "hre": 4801,
      "ilet": 4802,
      "lder": 4803,
      "lauf": 4804,
      "sm": 4805,
      "sometimes": 4806,
      "uelle": 4807,
      "vest": 4808,
      "wann": 4809,
      "Ġ/": 4810,
      "eras": 4811,
      "Ġsad": 4812,
      "Ġwest": 4813,
      "ieb": 4814,
      "ason": 4815,
      "ased": 4816,
      "unsch": 4817,
      "unkte": 4818,
      "Ġhart": 4819,
      "Ġeure": 4820,
      "itch": 4821,
      "itÃ¤ten": 4822,
      "Ġtie": 4823,
      "ĠnÃ¤": 4824,
      "Ġnut": 4825,
      "apes": 4826,
      "ara": 4827,
      "Ġfed": 4828,
      "Ġfisch": 4829,
      "isse": 4830,
      "organ": 4831,
      "leute": 4832,
      "Ġpf": 4833,
      "Ġpick": 4834,
      "Ġkan": 4835,
      "Ġvul": 4836,
      "Ġoze": 4837,
      "Ġocc": 4838,
      "use": 4839,
      "ables": 4840,
      "ĠbevÃ¶lker": 4841,
      "rolle": 4842,
      "robert": 4843,
      "ety": 4844,
      "icians": 4845,
      "Ġweeks": 4846,
      "weg": 4847,
      "indern": 4848,
      "Ġvern": 4849,
      "ĠverÃ¶ff": 4850,
      "Ġstructure": 4851,
      "ĠstÃ¤ndig": 4852,
      "Ġrei": 4853,
      "Ġrein": 4854,
      "Ġrele": 4855,
      "Ġreact": 4856,
      "Ġrecent": 4857,
      "Ġjung": 4858,
      "Ġwaste": 4859,
      "imag": 4860,
      "Ġunbe": 4861,
      "ĠrÃ¤tsel": 4862,
      "Ġwhich": 4863,
      "Ġerne": 4864,
      "Ġaudience": 4865,
      "berg": 4866,
      "wirklich": 4867,
      "Ġzuvor": 4868,
      "Ġsea": 4869,
      "Ġforce": 4870,
      "uly": 4871,
      "Ġmex": 4872,
      "Ġspir": 4873,
      "Ġimmun": 4874,
      "Ġimmed": 4875,
      "Ġexpect": 4876,
      "Ġaufge": 4877,
      "Ġmyster": 4878,
      "Ġenth": 4879,
      "Ġtext": 4880,
      "Ġconf": 4881,
      "Ġmachten": 4882,
      "Ġdagegen": 4883,
      "auso": 4884,
      "Ġplatz": 4885,
      "Ġgenommen": 4886,
      "sprechen": 4887,
      "Ġ23": 4888,
      "Ġumgeb": 4889,
      "Ġbrill": 4890,
      "Ġnacht": 4891,
      "Ã¤tze": 4892,
      "Ġblut": 4893,
      "Ġunterr": 4894,
      "Ġkonzentr": 4895,
      "jekte": 4896,
      "Ġcompanies": 4897,
      "Ġtravel": 4898,
      "Ġpreis": 4899,
      "inner": 4900,
      "Ġlocal": 4901,
      "ĠgerÃ¤t": 4902,
      "ĠfÃ¼hle": 4903,
      "Ġversucht": 4904,
      "Ġtalked": 4905,
      "Ġerfunden": 4906,
      "produ": 4907,
      "Ġmonate": 4908,
      "nisse": 4909,
      "Ġgleichen": 4910,
      "Ã¤lter": 4911,
      "Ġorganis": 4912,
      "Ã¤ss": 4913,
      "Ã¤sent": 4914,
      "Ġamerika": 4915,
      "Ġamerican": 4916,
      "Ġstimme": 4917,
      "Ġcharacter": 4918,
      "Ġclean": 4919,
      "Ġfascin": 4920,
      "Ġphysics": 4921,
      "Ġprofit": 4922,
      "Ġturned": 4923,
      "Ġschulen": 4924,
      "Ġcamera": 4925,
      "Ġcenter": 4926,
      "Ã¤usch": 4927,
      "Ġmotor": 4928,
      "ĠgrÃ¼nde": 4929,
      "Ġerwachsen": 4930,
      "Ġrespon": 4931,
      "Ġversuche": 4932,
      "Ġeurop": 4933,
      "Ġillusion": 4934,
      "Ġreligion": 4935,
      "Ġchoice": 4936,
      "Ġmathematik": 4937,
      "Ġwussten": 4938,
      "Ġsuccessful": 4939,
      "belie": 4940,
      "Ġzero": 4941,
      "Ġinfrastruktur": 4942,
      "Ġmicro": 4943,
      "Ġeinzelne": 4944,
      "Ġbewusstsein": 4945,
      "Ġfield": 4946,
      "Ġinnerhalb": 4947,
      "Ġbedeutung": 4948,
      "Ġbekommt": 4949,
      "Ġfossil": 4950,
      "ĠwÃ¤hrend": 4951,
      "Ġsymbol": 4952,
      "Ġtruth": 4953,
      "bi": 4954,
      "bast": 4955,
      "een": 4956,
      "gro": 4957,
      "ground": 4958,
      "has": 4959,
      "hel": 4960,
      "hum": 4961,
      "ju": 4962,
      "kungen": 4963,
      "mach": 4964,
      "oke": 4965,
      "oft": 4966,
      "pfe": 4967,
      "sup": 4968,
      "uel": 4969,
      "volle": 4970,
      "wart": 4971,
      "water": 4972,
      "yond": 4973,
      "zte": 4974,
      "Ġsend": 4975,
      "Ġakt": 4976,
      "Ġahead": 4977,
      "Ġdingen": 4978,
      "Ġwand": 4979,
      "Ġwow": 4980,
      "Ġthough": 4981,
      "Ġmatch": 4982,
      "Ġmental": 4983,
      "stud": 4984,
      "Ġhu": 4985,
      "ĠhÃ¤lt": 4986,
      "Ġgh": 4987,
      "rep": 4988,
      "Ġbost": 4989,
      "Ġeither": 4990,
      "itze": 4991,
      "Ġtur": 4992,
      "org": 4993,
      "Ġpage": 4994,
      "Ġcele": 4995,
      "Ġkaufen": 4996,
      "Ġvac": 4997,
      "Ġvict": 4998,
      "Ġeinigen": 4999,
      "Ġinven": 5000,
      "Ġinfl": 5001,
      "Ġlist": 5002,
      "Ġlag": 5003,
      "ĠlÃ¤ch": 5004,
      "Ġzerst": 5005,
      "Ġdasselbe": 5006,
      "weis": 5007,
      "Ġverste": 5008,
      "Ġstage": 5009,
      "Ġreach": 5010,
      "Ġrede": 5011,
      "Ġredu": 5012,
      "Ġwash": 5013,
      "Ġschmer": 5014,
      "Ġschne": 5015,
      "Ġrat": 5016,
      "Ġhaiti": 5017,
      "Ġerwar": 5018,
      "ctors": 5019,
      "Ġalter": 5020,
      "vert": 5021,
      "Ġseveral": 5022,
      "oop": 5023,
      "istisch": 5024,
      "ibility": 5025,
      "Ġmeist": 5026,
      "Ġmeant": 5027,
      "Ġliber": 5028,
      "Ġnotice": 5029,
      "ellow": 5030,
      "Ġgesp": 5031,
      "Ġarr": 5032,
      "ĠÃ¼berw": 5033,
      "Ġdepen": 5034,
      "Ġplant": 5035,
      "Ġglass": 5036,
      "Ġ2000": 5037,
      "woher": 5038,
      "izing": 5039,
      "Ġseinen": 5040,
      "ugier": 5041,
      "ippe": 5042,
      "Ġaction": 5043,
      "Ġrolle": 5044,
      "selbst": 5045,
      "Ġscen": 5046,
      "Ã¼ss": 5047,
      "Ġclim": 5048,
      "Ġdritten": 5049,
      "Ġresources": 5050,
      "ichtet": 5051,
      "Ġimpossible": 5052,
      "Ġfinde": 5053,
      "actually": 5054,
      "Ġverbunden": 5055,
      "Ġappe": 5056,
      "Ġhinzu": 5057,
      "Ġpoverty": 5058,
      "Ġcarbon": 5059,
      "Ġfamilien": 5060,
      "Ġslight": 5061,
      "Ġautonom": 5062,
      "ship": 5063,
      "Ġcrit": 5064,
      "Ġstudents": 5065,
      "Ġplaneten": 5066,
      "Ġexperimente": 5067,
      "Ġwunderbare": 5068,
      "ĠwunderschÃ¶n": 5069,
      "ington": 5070,
      "Ġeinzige": 5071,
      "jedes": 5072,
      "Ġentwickeln": 5073,
      "Ġfolgendes": 5074,
      "Ġpolitik": 5075,
      "Ġconsider": 5076,
      "Ġkreis": 5077,
      "Ġvergessen": 5078,
      "darum": 5079,
      "Ġpapier": 5080,
      "life": 5081,
      "Ġjobs": 5082,
      "after": 5083,
      "Ã¶tzlich": 5084,
      "Ġeconomy": 5085,
      "Ġstraight": 5086,
      "Ġspricht": 5087,
      "Ġmission": 5088,
      "ĠfÃ¼hlte": 5089,
      "Ġrecogn": 5090,
      "ĠgrÃ¼nden": 5091,
      "Ġerstaunliche": 5092,
      "Ġdeveloped": 5093,
      "Ġclearly": 5094,
      "Ġjournal": 5095,
      "Ġcontinu": 5096,
      "ĠsÃ¼ÃŁ": 5097,
      "Ġentdeckt": 5098,
      "Ġtools": 5099,
      "Ġerkennen": 5100,
      "Ġbottom": 5101,
      "charles": 5102,
      "Ġgesamte": 5103,
      "Ġachie": 5104,
      "ĠÃ¼berraschen": 5105,
      "Ġenormous": 5106,
      "Ġquadrat": 5107,
      "Ġdemokratie": 5108,
      "Ġpuzz": 5109,
      "Ġbemerken": 5110,
      "Ġmetaphor": 5111,
      "Ġresponse": 5112,
      "Ġcelebr": 5113,
      "Ġinvented": 5114,
      "ae": 5115,
      "bten": 5116,
      "best": 5117,
      "cam": 5118,
      "dp": 5119,
      "ev": 5120,
      "gor": 5121,
      "ivers": 5122,
      "jon": 5123,
      "la": 5124,
      "lar": 5125,
      "lungs": 5126,
      "lasst": 5127,
      "ov": 5128,
      "pm": 5129,
      "pass": 5130,
      "rb": 5131,
      "tes": 5132,
      "talk": 5133,
      "ufen": 5134,
      "three": 5135,
      "Ġaverage": 5136,
      "Ġdry": 5137,
      "Ġdance": 5138,
      "ĠwÃ¼": 5139,
      "Ġwesen": 5140,
      "Ġwandel": 5141,
      "ancy": 5142,
      "une": 5143,
      "Ġgates": 5144,
      "Ġband": 5145,
      "Ġbom": 5146,
      "Ġbib": 5147,
      "Ġbio": 5148,
      "Ġevent": 5149,
      "ossen": 5150,
      "Ġnine": 5151,
      "arten": 5152,
      "Ġfix": 5153,
      "Ġpur": 5154,
      "Ġpull": 5155,
      "oten": 5156,
      "Ġvan": 5157,
      "tele": 5158,
      "edia": 5159,
      "Ġisol": 5160,
      "Ġtoilet": 5161,
      "Ã¤chen": 5162,
      "Ġzellen": 5163,
      "key": 5164,
      "umm": 5165,
      "uments": 5166,
      "ĠunabhÃ¤ng": 5167,
      "Ġerschein": 5168,
      "Ġwarten": 5169,
      "Ġallem": 5170,
      "idge": 5171,
      "Ġnear": 5172,
      "Ġseiten": 5173,
      "ulpt": 5174,
      "Ġchir": 5175,
      "Ġlived": 5176,
      "Ġnotwend": 5177,
      "Ġhate": 5178,
      "artig": 5179,
      "Ã¤nge": 5180,
      "Ġmanip": 5181,
      "Ġtrick": 5182,
      "ĠfrÃ¼h": 5183,
      "Ġgraph": 5184,
      "ahrungs": 5185,
      "Ġvorbei": 5186,
      "Ġsaf": 5187,
      "Ġsave": 5188,
      "spra": 5189,
      "Ġkomp": 5190,
      "Ġstelle": 5191,
      "ipt": 5192,
      "Ġbrit": 5193,
      "Ġbrand": 5194,
      "werden": 5195,
      "rene": 5196,
      "Ġbrachte": 5197,
      "Ġblock": 5198,
      "Ġfail": 5199,
      "Ġzweiten": 5200,
      "Ġagr": 5201,
      "Ġrather": 5202,
      "Ġmehrere": 5203,
      "Ġfunction": 5204,
      "Ġdurchge": 5205,
      "Ġanymore": 5206,
      "Ġstarb": 5207,
      "Ġstark": 5208,
      "Ġungew": 5209,
      "Ġhandeln": 5210,
      "zuerst": 5211,
      "iction": 5212,
      "Ġadult": 5213,
      "Ġadapt": 5214,
      "Ġjede": 5215,
      "Ġgewesen": 5216,
      "Ġsolche": 5217,
      "Ġsolution": 5218,
      "Ġsolutions": 5219,
      "Ġbenef": 5220,
      "Ġkampf": 5221,
      "Ġsaying": 5222,
      "Ġirre": 5223,
      "Ġlandwirtschaft": 5224,
      "Ġcarry": 5225,
      "ussion": 5226,
      "Ġafrikan": 5227,
      "Ġslide": 5228,
      "Ġsupposed": 5229,
      "Ġstudio": 5230,
      "Ġskin": 5231,
      "Ã¼tter": 5232,
      "Ġremain": 5233,
      "Ġbroad": 5234,
      "Ġverlieren": 5235,
      "jede": 5236,
      "Ġmenschlichen": 5237,
      "Ġsubject": 5238,
      "Ġschaff": 5239,
      "joy": 5240,
      "ĠÃ¤ndert": 5241,
      "Ġ60": 5242,
      "Ġsmaller": 5243,
      "frauen": 5244,
      "Ġsonst": 5245,
      "Ġcentury": 5246,
      "Ġstreet": 5247,
      "Ġreading": 5248,
      "ifft": 5249,
      "wissenschaft": 5250,
      "Ġsorgen": 5251,
      "Ġindustr": 5252,
      "Ġkilled": 5253,
      "Ġerfolgreich": 5254,
      "Ġriesige": 5255,
      "mode": 5256,
      "Ġposition": 5257,
      "onym": 5258,
      "Ġsurprise": 5259,
      "Ġgroups": 5260,
      "Ġentscheiden": 5261,
      "jÃ¤hrige": 5262,
      "Ġnachricht": 5263,
      "Ġphilosoph": 5264,
      "afft": 5265,
      "damit": 5266,
      "Ġsquare": 5267,
      "Ġregener": 5268,
      "Ġelectricity": 5269,
      "Ġalternative": 5270,
      "ĠhÃ¶rte": 5271,
      "Ġdemocracy": 5272,
      "Ġchaos": 5273,
      "Ġboston": 5274,
      "gorith": 5275,
      "bung": 5276,
      "ding": 5277,
      "drei": 5278,
      "ey": 5279,
      "fon": 5280,
      "got": 5281,
      "jh": 5282,
      "ka": 5283,
      "kan": 5284,
      "lad": 5285,
      "mi": 5286,
      "mic": 5287,
      "nicole": 5288,
      "ober": 5289,
      "pack": 5290,
      "peter": 5291,
      "pret": 5292,
      "rt": 5293,
      "rsw": 5294,
      "sur": 5295,
      "sinn": 5296,
      "sondern": 5297,
      "tim": 5298,
      "time": 5299,
      "toc": 5300,
      "ua": 5301,
      "uert": 5302,
      "vide": 5303,
      "wen": 5304,
      "wur": 5305,
      "women": 5306,
      "zi": 5307,
      "ĠÃ¤": 5308,
      "Ġug": 5309,
      "Ġaff": 5310,
      "Ġahnung": 5311,
      "Ġduring": 5312,
      "Ġwieso": 5313,
      "iell": 5314,
      "ieten": 5315,
      "stes": 5316,
      "ĠhÃ¶rt": 5317,
      "atory": 5318,
      "Ġgala": 5319,
      "Ġbald": 5320,
      "Ġtanz": 5321,
      "Ġnan": 5322,
      "Ġnone": 5323,
      "Ġnord": 5324,
      "aria": 5325,
      "Ġfahren": 5326,
      "Ġpan": 5327,
      "Ġpush": 5328,
      "Ġcivil": 5329,
      "ingungen": 5330,
      "irm": 5331,
      "Ġkern": 5332,
      "Ġkno": 5333,
      "Ġinfe": 5334,
      "Ġlat": 5335,
      "Ġlaun": 5336,
      "ometer": 5337,
      "elten": 5338,
      "Ã¤ÃŁ": 5339,
      "Ã¤fte": 5340,
      "Ġbeyond": 5341,
      "icans": 5342,
      "raum": 5343,
      "rage": 5344,
      "Ã¶se": 5345,
      "Ġverm": 5346,
      "Ġstick": 5347,
      "dass": 5348,
      "iles": 5349,
      "Ġren": 5350,
      "Ġrich": 5351,
      "Ġrise": 5352,
      "Ġrational": 5353,
      "Ġdog": 5354,
      "Ġhaut": 5355,
      "Ġhaven": 5356,
      "Ġsohn": 5357,
      "Ġzustand": 5358,
      "Ġneugier": 5359,
      "Ġgek": 5360,
      "Ġheil": 5361,
      "when": 5362,
      "sebast": 5363,
      "illed": 5364,
      "Ġwithin": 5365,
      "Ġtrotzdem": 5366,
      "Ġdipl": 5367,
      "Ġglaub": 5368,
      "wieder": 5369,
      "Ġgeschafft": 5370,
      "Ġentst": 5371,
      "Ġdemon": 5372,
      "Ġdemand": 5373,
      "Ġrob": 5374,
      "Ġroad": 5375,
      "Ġdarin": 5376,
      "Ġfailed": 5377,
      "ĠflÃ¼": 5378,
      "Ġkonsequ": 5379,
      "Ã¤ndert": 5380,
      "Ġbesten": 5381,
      "Ã¼ssel": 5382,
      "oret": 5383,
      "Ġcloud": 5384,
      "meister": 5385,
      "Ġintr": 5386,
      "Ġcompon": 5387,
      "Ġlied": 5388,
      "Ġspeed": 5389,
      "brit": 5390,
      "Ġtechnologies": 5391,
      "Ġincl": 5392,
      "grÃ¼n": 5393,
      "Ġhinaus": 5394,
      "Ġmonat": 5395,
      "Ġwrite": 5396,
      "Ġ500": 5397,
      "Ġproduct": 5398,
      "Ġproduce": 5399,
      "Ġprodukt": 5400,
      "ighten": 5401,
      "Ġnorth": 5402,
      "Ġmagaz": 5403,
      "Ġzusammenarbeit": 5404,
      "schluss": 5405,
      "schlieÃŁ": 5406,
      "Ġfarm": 5407,
      "Ġwundervoll": 5408,
      "Ġended": 5409,
      "everyone": 5410,
      "Ġexplor": 5411,
      "Ġphysical": 5412,
      "ynman": 5413,
      "Ġverkaufen": 5414,
      "zeugt": 5415,
      "Ġ80": 5416,
      "ĠstraÃŁen": 5417,
      "Ġverschwinden": 5418,
      "Ġgemeinschaft": 5419,
      "Ġkarte": 5420,
      "Ġprogram": 5421,
      "Ġkontroll": 5422,
      "Ġprivate": 5423,
      "Ġcollabor": 5424,
      "Ġentdeck": 5425,
      "Ġbrauchte": 5426,
      "Ġpotential": 5427,
      "ĠÃ¤hnlich": 5428,
      "ĠlÃ¶sen": 5429,
      "schuldigung": 5430,
      "Ġthousands": 5431,
      "Ġfriend": 5432,
      "Ġessentially": 5433,
      "Ġinvolved": 5434,
      "Ġintegr": 5435,
      "Ġconversation": 5436,
      "ĠÂ«": 5437,
      "Ġempathy": 5438,
      "Ġrestaurant": 5439,
      "ĠschÃ¼ler": 5440,
      "Ġconsciousness": 5441,
      "daher": 5442,
      "Ġtherap": 5443,
      "wahrscheinlich": 5444,
      "Ġhidden": 5445,
      "Ġconditions": 5446,
      "uddenly": 5447,
      "Ġangefangen": 5448,
      "Ġozean": 5449,
      "Ġslightly": 5450,
      "tocin": 5451,
      "Ġgalax": 5452,
      "bis": 5453,
      "bess": 5454,
      "bru": 5455,
      "dige": 5456,
      "dessen": 5457,
      "fun": 5458,
      "fish": 5459,
      "iately": 5460,
      "kam": 5461,
      "kind": 5462,
      "kinder": 5463,
      "lagen": 5464,
      "mber": 5465,
      "over": 5466,
      "rate": 5467,
      "richtig": 5468,
      "sa": 5469,
      "sus": 5470,
      "uff": 5471,
      "uals": 5472,
      "val": 5473,
      "woll": 5474,
      "wise": 5475,
      "wesen": 5476,
      "yle": 5477,
      "zig": 5478,
      "zur": 5479,
      "zust": 5480,
      "Ġingen": 5481,
      "ery": 5482,
      "ined": 5483,
      "child": 5484,
      "Ġwal": 5485,
      "Ġwil": 5486,
      "estern": 5487,
      "asen": 5488,
      "stre": 5489,
      "unÃ¤chst": 5490,
      "atoren": 5491,
      "Ġgent": 5492,
      "reiben": 5493,
      "Ġbase": 5494,
      "Ġec": 5495,
      "Ġtau": 5496,
      "osystem": 5497,
      "Ġnahrungs": 5498,
      "Ġfein": 5499,
      "Ġfem": 5500,
      "orgen": 5501,
      "leun": 5502,
      "Ġtheorie": 5503,
      "Ġcat": 5504,
      "Ġcrow": 5505,
      "ĠkÃ¤": 5506,
      "Ġinn": 5507,
      "Ġinten": 5508,
      "Ġlab": 5509,
      "ĠlÃ¤uft": 5510,
      "Ã¼ben": 5511,
      "Ġtod": 5512,
      "Ġtown": 5513,
      "eline": 5514,
      "entlichen": 5515,
      "entwick": 5516,
      "ehow": 5517,
      "ramm": 5518,
      "Ġveran": 5519,
      "Ġstock": 5520,
      "Ġstamm": 5521,
      "Ġrefle": 5522,
      "umb": 5523,
      "Ġju": 5524,
      "schr": 5525,
      "schte": 5526,
      "ĠschÃ¤t": 5527,
      "Ġrate": 5528,
      "Ġrhy": 5529,
      "Ġerd": 5530,
      "Ġerfor": 5531,
      "Ġergibt": 5532,
      "gener": 5533,
      "gende": 5534,
      "Ġauge": 5535,
      "cks": 5536,
      "bers": 5537,
      "Ġabstra": 5538,
      "Ġneun": 5539,
      "Ġforest": 5540,
      "Ġforget": 5541,
      "ulous": 5542,
      "ulations": 5543,
      "cell": 5544,
      "ceived": 5545,
      "opath": 5546,
      "agieren": 5547,
      "agement": 5548,
      "Ġsport": 5549,
      "antas": 5550,
      "antly": 5551,
      "Ġgoal": 5552,
      "Ġgesetz": 5553,
      "Ġshot": 5554,
      "Ġshake": 5555,
      "Ġtruly": 5556,
      "Ġmale": 5557,
      "ĠkÃ¶nig": 5558,
      "nete": 5559,
      "Ġgross": 5560,
      "Ġdavid": 5561,
      "Ġsomeone": 5562,
      "Ġsomewhere": 5563,
      "Ġqual": 5564,
      "Ġumf": 5565,
      "Ġkomme": 5566,
      "izieren": 5567,
      "Ġbrains": 5568,
      "Ġdarf": 5569,
      "Ġfragte": 5570,
      "Ġbegins": 5571,
      "Ġkontext": 5572,
      "prÃ¼": 5573,
      "Ġdrin": 5574,
      "Ġdrive": 5575,
      "Ġdurchschnitt": 5576,
      "Ġkeiner": 5577,
      "baren": 5578,
      "Ġspezie": 5579,
      "Ġexperien": 5580,
      "problem": 5581,
      "progra": 5582,
      "Ġapart": 5583,
      "Ġmedien": 5584,
      "Ġdesigner": 5585,
      "Ġfunktionierte": 5586,
      "Ġprodukte": 5587,
      "Ġcontain": 5588,
      "Ġkrit": 5589,
      "Ã¤hlt": 5590,
      "Ġnorden": 5591,
      "ĠschÃ¶ne": 5592,
      "ohne": 5593,
      "Ġafrican": 5594,
      "Ġunique": 5595,
      "Ġkept": 5596,
      "Ġfinal": 5597,
      "Ã¤lfte": 5598,
      "something": 5599,
      "altung": 5600,
      "Ġautom": 5601,
      "Ġbased": 5602,
      "Ġgedanke": 5603,
      "Ġkurze": 5604,
      "ziehen": 5605,
      "Ġimagination": 5606,
      "Ġasking": 5607,
      "Ġphysik": 5608,
      "nichts": 5609,
      "Ġbeauty": 5610,
      "Ġteachers": 5611,
      "Ġ90": 5612,
      "Ġsprachen": 5613,
      "fÃ¼hren": 5614,
      "stoffe": 5615,
      "Ġlesson": 5616,
      "Ġmiles": 5617,
      "Ġlegs": 5618,
      "Ġinstitution": 5619,
      "Ġexistiert": 5620,
      "arbeitet": 5621,
      "Ġeinges": 5622,
      "ĠlÃ¤ndern": 5623,
      "Ġindepen": 5624,
      "Ġdanach": 5625,
      "zusch": 5626,
      "Ġmarketing": 5627,
      "Ġdaugh": 5628,
      "Ġmaschinen": 5629,
      "holen": 5630,
      "Ġgirls": 5631,
      "arency": 5632,
      "ĠkÃ¼mmer": 5633,
      "Ġinfrastructure": 5634,
      "Ġgruppen": 5635,
      "Ġverbreitet": 5636,
      "Ġoxytocin": 5637,
      "sÃ¤tzlich": 5638,
      "mendous": 5639,
      "Ġkreativ": 5640,
      "Ġantworten": 5641,
      "Ġgrosse": 5642,
      "Ġrecently": 5643,
      "Ġbemerkens": 5644,
      "Ġgentle": 5645,
      "500": 5646,
      "bil": 5647,
      "di": 5648,
      "eigentlich": 5649,
      "fel": 5650,
      "fast": 5651,
      "ius": 5652,
      "lu": 5653,
      "lungen": 5654,
      "lage": 5655,
      "nm": 5656,
      "nam": 5657,
      "oot": 5658,
      "ove": 5659,
      "ping": 5660,
      "pfl": 5661,
      "sk": 5662,
      "sim": 5663,
      "tin": 5664,
      "uern": 5665,
      "vis": 5666,
      "erf": 5667,
      "erte": 5668,
      "Ġsitting": 5669,
      "Ġagen": 5670,
      "Ġaid": 5671,
      "Ġwis": 5672,
      "Ġwunsch": 5673,
      "anth": 5674,
      "Ġmessen": 5675,
      "Ġmention": 5676,
      "aste": 5677,
      "stop": 5678,
      "Ġham": 5679,
      "Ġgere": 5680,
      "Ġgps": 5681,
      "ĠbÃ¼r": 5682,
      "Ġbub": 5683,
      "Ġbatt": 5684,
      "Ġburn": 5685,
      "Ġechte": 5686,
      "ĠtÃ¼r": 5687,
      "Ġtiny": 5688,
      "Ġniger": 5689,
      "Ġfer": 5690,
      "ĠfÃ¤": 5691,
      "ĠfÃ¤llt": 5692,
      "ĠfÃ¤ngt": 5693,
      "ores": 5694,
      "Ġpizz": 5695,
      "Ġtheater": 5696,
      "Ġcatch": 5697,
      "Ġcities": 5698,
      "Ġking": 5699,
      "Ġkong": 5700,
      "Ġoly": 5701,
      "Ġlay": 5702,
      "Ġlust": 5703,
      "igten": 5704,
      "oming": 5705,
      "Ġislam": 5706,
      "erek": 5707,
      "Ġbell": 5708,
      "einfach": 5709,
      "ickt": 5710,
      "raham": 5711,
      "amer": 5712,
      "weiÃŁ": 5713,
      "kevin": 5714,
      "iler": 5715,
      "ola": 5716,
      "Ġrio": 5717,
      "Ġrichard": 5718,
      "Ġdoor": 5719,
      "Ġwhe": 5720,
      "Ġalgorith": 5721,
      "auber": 5722,
      "auern": 5723,
      "auÃŁer": 5724,
      "Ġwife": 5725,
      "ulian": 5726,
      "beg": 5727,
      "ielten": 5728,
      "istert": 5729,
      "Ġgegeben": 5730,
      "ĠgeÃ¤ndert": 5731,
      "Ġimm": 5732,
      "antwor": 5733,
      "Ġdenk": 5734,
      "ourcen": 5735,
      "Ġmovie": 5736,
      "Ġauss": 5737,
      "elly": 5738,
      "Ġshark": 5739,
      "Ġshock": 5740,
      "Ġtricks": 5741,
      "Ġtrifft": 5742,
      "ival": 5743,
      "Ġteile": 5744,
      "Ġcontra": 5745,
      "Ġattra": 5746,
      "play": 5747,
      "inken": 5748,
      "Ġhero": 5749,
      "Ġvorstell": 5750,
      "Ġsaving": 5751,
      "spielen": 5752,
      "Ġgeschrieben": 5753,
      "Ġ28": 5754,
      "formen": 5755,
      "ipedia": 5756,
      "Ġactive": 5757,
      "akes": 5758,
      "akistan": 5759,
      "Ġfeynman": 5760,
      "Ġkonsum": 5761,
      "Ã¼nft": 5762,
      "Ġrain": 5763,
      "Ã¶rter": 5764,
      "Ġliebl": 5765,
      "ĠnatÃ¼r": 5766,
      "flict": 5767,
      "serv": 5768,
      "Ġ194": 5769,
      "olds": 5770,
      "Ġverbinden": 5771,
      "glÃ¼ck": 5772,
      "Ġpolio": 5773,
      "ergie": 5774,
      "Ġhelden": 5775,
      "Ġuseful": 5776,
      "Ġregel": 5777,
      "Ġtelling": 5778,
      "Ġfreed": 5779,
      "Ġmarg": 5780,
      "Ġverstanden": 5781,
      "Ġbestand": 5782,
      "Ġcrisis": 5783,
      "Ġeigenschaften": 5784,
      "design": 5785,
      "Ġ2004": 5786,
      "ĠfÃ¼hrte": 5787,
      "Ġbrother": 5788,
      "Ġeinzig": 5789,
      "Ġverlang": 5790,
      "Ġstimmen": 5791,
      "Ġaccount": 5792,
      "Ġbewegt": 5793,
      "Ġpolitics": 5794,
      "ĠhÃ¶ch": 5795,
      "ativen": 5796,
      "Ġurban": 5797,
      "Ġprofound": 5798,
      "Ġsonnen": 5799,
      "Ġvergangen": 5800,
      "Ġvergleich": 5801,
      "plications": 5802,
      "Ġteacher": 5803,
      "Ġteaching": 5804,
      "Ġcentral": 5805,
      "ructures": 5806,
      "Ġunterschiedliche": 5807,
      "Ġgrowing": 5808,
      "Ġinnov": 5809,
      "Ġradio": 5810,
      "Ġconnected": 5811,
      "Ġcapt": 5812,
      "Ġkiller": 5813,
      "Ġkostet": 5814,
      "Ġpaint": 5815,
      "Ġtranspar": 5816,
      "Ġfacebook": 5817,
      "Ġissues": 5818,
      "Ġlinie": 5819,
      "Ġhallo": 5820,
      "ĠÃ¼berrasch": 5821,
      "Ġsurprising": 5822,
      "Ã¶ffnet": 5823,
      "imensional": 5824,
      "Ġobjects": 5825,
      "jÃ¤hriger": 5826,
      "ĠhÃ¤nde": 5827,
      "Ġnahm": 5828,
      "Ġlinks": 5829,
      "Ġprotect": 5830,
      "ĠmÃ¤nn": 5831,
      "Ġaufregend": 5832,
      "Ġrepresent": 5833,
      "ĠgefÃ¤hrlich": 5834,
      "Ġsouth": 5835,
      "Ġfundam": 5836,
      "Ġvoice": 5837,
      "Ġvertrauen": 5838,
      "Ġflugzeug": 5839,
      "Ġdiscovered": 5840,
      "ĠbenÃ¶tigt": 5841,
      "Ġkommunikation": 5842,
      "ĠschlieÃŁlich": 5843,
      "maschine": 5844,
      "Ġintuition": 5845,
      "Ġsustainable": 5846,
      "Ġstellte": 5847,
      "Ġvorhers": 5848,
      "Ġkrankenhaus": 5849,
      "arbeiter": 5850,
      "Ġstolz": 5851,
      "Ġwikipedia": 5852,
      "ĠnÃ¤her": 5853,
      "Ġreihe": 5854,
      "Ġspirit": 5855,
      "believable": 5856,
      "Ġschmerz": 5857,
      "Ġindustrial": 5858,
      "sebastian": 5859,
      "Ġdemonstr": 5860,
      "Ġolymp": 5861,
      "bÃ¼": 5862,
      "fly": 5863,
      "gre": 5864,
      "give": 5865,
      "hib": 5866,
      "ias": 5867,
      "ikt": 5868,
      "laufen": 5869,
      "pft": 5870,
      "rass": 5871,
      "vity": 5872,
      "yl": 5873,
      "erve": 5874,
      "china": 5875,
      "ĠsÃ¤": 5876,
      "Ġsick": 5877,
      "Ġwahre": 5878,
      "Ġwuchs": 5879,
      "Ġiphone": 5880,
      "Ġthomas": 5881,
      "iegt": 5882,
      "ĠmÃ¤cht": 5883,
      "Ġmama": 5884,
      "asing": 5885,
      "ĠhÃ¤lfte": 5886,
      "really": 5887,
      "Ġberg": 5888,
      "itung": 5889,
      "Ġtu": 5890,
      "Ġtv": 5891,
      "Ġten": 5892,
      "Ġnull": 5893,
      "apher": 5894,
      "arian": 5895,
      "Ġfeld": 5896,
      "legt": 5897,
      "Ġcow": 5898,
      "ĠkÃ¤m": 5899,
      "teten": 5900,
      "teile": 5901,
      "alys": 5902,
      "Ġeinfluss": 5903,
      "Ġla": 5904,
      "Ġlies": 5905,
      "Ġlower": 5906,
      "edy": 5907,
      "Ġanonym": 5908,
      "eler": 5909,
      "ably": 5910,
      "Ã¤gt": 5911,
      "Ġzwar": 5912,
      "room": 5913,
      "roffen": 5914,
      "Ġoffer": 5915,
      "vember": 5916,
      "Ġwirst": 5917,
      "Ġwear": 5918,
      "Ġwegen": 5919,
      "Ġwechsel": 5920,
      "inde": 5921,
      "Ġstir": 5922,
      "Ġrefer": 5923,
      "Ġjem": 5924,
      "ilien": 5925,
      "scher": 5926,
      "schule": 5927,
      "Ġunex": 5928,
      "Ġschr": 5929,
      "Ġschock": 5930,
      "Ġschrieb": 5931,
      "Ġross": 5932,
      "Ġerlaub": 5933,
      "Ġlebt": 5934,
      "Ġalte": 5935,
      "cking": 5936,
      "Ġonto": 5937,
      "Ġallgem": 5938,
      "Ġdiesel": 5939,
      "hey": 5940,
      "essed": 5941,
      "anne": 5942,
      "annien": 5943,
      "Ġneben": 5944,
      "ulieren": 5945,
      "istent": 5946,
      "ĠgefÃ¼": 5947,
      "Ġchance": 5948,
      "ĠaufhÃ¶ren": 5949,
      "Ġunsicht": 5950,
      "Ġauswir": 5951,
      "Ġworten": 5952,
      "Ġworry": 5953,
      "ikam": 5954,
      "artige": 5955,
      "Ġcomm": 5956,
      "iency": 5957,
      "Ġshut": 5958,
      "Ġenjoy": 5959,
      "erson": 5960,
      "Ġconcept": 5961,
      "ĠgrÃ¼": 5962,
      "ured": 5963,
      "Ġdepress": 5964,
      "Ġproud": 5965,
      "Ġgenom": 5966,
      "Ġinterest": 5967,
      "Ġentstand": 5968,
      "wohl": 5969,
      "wohn": 5970,
      "stephen": 5971,
      "Ġamong": 5972,
      "ugs": 5973,
      "Ġbrust": 5974,
      "Ġnachdenken": 5975,
      "Ġeinfacher": 5976,
      "aker": 5977,
      "Ġfeuer": 5978,
      "Ġkonstru": 5979,
      "Ġguter": 5980,
      "Ġperfor": 5981,
      "front": 5982,
      "Ġscreen": 5983,
      "ored": 5984,
      "ishing": 5985,
      "Ġselten": 5986,
      "Ġselber": 5987,
      "ĠdrÃ¼ben": 5988,
      "Ġintim": 5989,
      "ktionen": 5990,
      "Ġliegen": 5991,
      "barrass": 5992,
      "reifen": 5993,
      "dafÃ¼r": 5994,
      "Ġbetr": 5995,
      "Ġspec": 5996,
      "stellt": 5997,
      "Ġwohn": 5998,
      "Ġmalaria": 5999,
      "Ġunseres": 6000,
      "ĠgewÃ¶hn": 6001,
      "trag": 6002,
      "Ġschlag": 6003,
      "grÃ¶ÃŁ": 6004,
      "Ġsolve": 6005,
      "hai": 6006,
      "Ġgeburt": 6007,
      "Ġanti": 6008,
      "Ġkamera": 6009,
      "Ġproduzieren": 6010,
      "ĠschÃ¶nheit": 6011,
      "Ġbedeuten": 6012,
      "Ġwichtiger": 6013,
      "Ġplayed": 6014,
      "Ġzusammenh": 6015,
      "ffee": 6016,
      "Ġfreunde": 6017,
      "Ġfinished": 6018,
      "Ġsuperst": 6019,
      "Ġbrea": 6020,
      "Ġcomputers": 6021,
      "vention": 6022,
      "Ġbestimmt": 6023,
      "Ġbasic": 6024,
      "Ġtremendous": 6025,
      "Ġeigenes": 6026,
      "ĠÃ¶k": 6027,
      "Ġcreates": 6028,
      "blick": 6029,
      "Ġirgendwo": 6030,
      "Ġfallen": 6031,
      "Ġmenschheit": 6032,
      "ĠmÃ¶glichkeit": 6033,
      "kÃ¶nnten": 6034,
      "ĠgrÃ¶ÃŁe": 6035,
      "ĠnÃ¤chstes": 6036,
      "duced": 6037,
      "Ġturns": 6038,
      "Ġleaders": 6039,
      "darÃ¼ber": 6040,
      "Ġphoto": 6041,
      "Ġoption": 6042,
      "Ġsignific": 6043,
      "Ġseemed": 6044,
      "Ġverschwunden": 6045,
      "ĠernÃ¤hr": 6046,
      "Ġwelcome": 6047,
      "Ġmatters": 6048,
      "Ġindustrie": 6049,
      "Ġbiology": 6050,
      "Ġeffort": 6051,
      "Ġeffiz": 6052,
      "danach": 6053,
      "Ġfotograf": 6054,
      "Ġdistrib": 6055,
      "konom": 6056,
      "Ġrichtung": 6057,
      "Ġargument": 6058,
      "Ġnegativ": 6059,
      "folgen": 6060,
      "Ġtwitter": 6061,
      "ĠbÃ¼ro": 6062,
      "ĠhÃ¤ngt": 6063,
      "Ġgolf": 6064,
      "Ġindividual": 6065,
      "Ġbetrachten": 6066,
      "Ġpengu": 6067,
      "Ġflying": 6068,
      "Ġleads": 6069,
      "Ġwerkzeuge": 6070,
      "Ġcommunication": 6071,
      "Ġmobile": 6072,
      "Ġbeobach": 6073,
      "Ġdeutlich": 6074,
      "Ġprofessional": 6075,
      "Ġrequire": 6076,
      "Ġpatterns": 6077,
      "ĠschÃ¼tzen": 6078,
      "Ġsurvive": 6079,
      "Ġmilitary": 6080,
      "windigkeit": 6081,
      "Ġepide": 6082,
      "Ġrecycl": 6083,
      "ĠÃ¼brigens": 6084,
      "Ġbegeistert": 6085,
      "Ġinstrument": 6086,
      "Ġunerwar": 6087,
      "Ġallowed": 6088,
      "Ġziehen": 6089,
      "Ġconsequences": 6090,
      "imagine": 6091,
      "reprene": 6092,
      "Ġagricult": 6093,
      "ĠungewÃ¶hn": 6094,
      "Ġlaunch": 6095,
      "Ġrhyth": 6096,
      "Ġpizza": 6097,
      "15": 6098,
      "affen": 6099,
      "aktiv": 6100,
      "cce": 6101,
      "dis": 6102,
      "fan": 6103,
      "gy": 6104,
      "guten": 6105,
      "gaben": 6106,
      "han": 6107,
      "hab": 6108,
      "ife": 6109,
      "jan": 6110,
      "jim": 6111,
      "kit": 6112,
      "krie": 6113,
      "lass": 6114,
      "mos": 6115,
      "mill": 6116,
      "mother": 6117,
      "mutter": 6118,
      "nie": 6119,
      "rory": 6120,
      "ties": 6121,
      "yves": 6122,
      "zÃ¤h": 6123,
      "erung": 6124,
      "inc": 6125,
      "ini": 6126,
      "Ġsus": 6127,
      "Ġsource": 6128,
      "Ġdick": 6129,
      "Ġdouble": 6130,
      "Ġwesent": 6131,
      "ĠwÃ¶rter": 6132,
      "Ġthreat": 6133,
      "Ġmcc": 6134,
      "onie": 6135,
      "atic": 6136,
      "Ġbang": 6137,
      "Ġbaum": 6138,
      "Ġew": 6139,
      "itely": 6140,
      "Ġtom": 6141,
      "Ġtab": 6142,
      "Ġtick": 6143,
      "Ġnutz": 6144,
      "arf": 6145,
      "Ġfan": 6146,
      "Ġfat": 6147,
      "Ġfach": 6148,
      "isn": 6149,
      "isions": 6150,
      "orben": 6151,
      "Ġpakistan": 6152,
      "Ġcit": 6153,
      "Ġkaum": 6154,
      "tech": 6155,
      "Ġinstead": 6156,
      "ĠlÃ¼gen": 6157,
      "Ġangeb": 6158,
      "quid": 6159,
      "Ġtolle": 6160,
      "eles": 6161,
      "Ġbeweise": 6162,
      "enty": 6163,
      "icious": 6164,
      "Ġweib": 6165,
      "Ġweird": 6166,
      "indust": 6167,
      "Ġverf": 6168,
      "Ġstars": 6169,
      "george": 6170,
      "Ġschau": 6171,
      "Ġrap": 6172,
      "Ġring": 6173,
      "Ġruh": 6174,
      "Ġerl": 6175,
      "Ġleist": 6176,
      "Ġalten": 6177,
      "cked": 6178,
      "heim": 6179,
      "Ġhabt": 6180,
      "essourcen": 6181,
      "ĠzuhÃ¶ren": 6182,
      "uchten": 6183,
      "ktoren": 6184,
      "uster": 6185,
      "Ġliquid": 6186,
      "Ġnote": 6187,
      "Ġheim": 6188,
      "sex": 6189,
      "adel": 6190,
      "Ġshift": 6191,
      "Ġshapes": 6192,
      "Ġtrial": 6193,
      "Ġfrieden": 6194,
      "Ġfrighten": 6195,
      "ively": 6196,
      "ogel": 6197,
      "Ġconcl": 6198,
      "Ġconflict": 6199,
      "Ġdete": 6200,
      "Ġplat": 6201,
      "mance": 6202,
      "Ġvoraus": 6203,
      "Ġprior": 6204,
      "Ġprison": 6205,
      "spap": 6206,
      "spir": 6207,
      "Ġinterface": 6208,
      "Ġinterpret": 6209,
      "Ġkomm": 6210,
      "iziert": 6211,
      "izitÃ¤t": 6212,
      "Ġmuse": 6213,
      "osex": 6214,
      "Ġactual": 6215,
      "Ġactivity": 6216,
      "aking": 6217,
      "Ġblog": 6218,
      "obvious": 6219,
      "Ġflight": 6220,
      "waren": 6221,
      "ruction": 6222,
      "Ġphosph": 6223,
      "Ã¤ndern": 6224,
      "Ġletzt": 6225,
      "Ġbesche": 6226,
      "jection": 6227,
      "Ġdrink": 6228,
      "Ġloved": 6229,
      "ungskraft": 6230,
      "aled": 6231,
      "bruch": 6232,
      "Ġembarrass": 6233,
      "Ġparty": 6234,
      "Ġstring": 6235,
      "Ġtechnologien": 6236,
      "Ġschlaf": 6237,
      "Ġschlimm": 6238,
      "Ġsmell": 6239,
      "Ġhinein": 6240,
      "Ġbenutz": 6241,
      "ĠverÃ¤nderungen": 6242,
      "Ġhumans": 6243,
      "worfen": 6244,
      "works": 6245,
      "Ġgaben": 6246,
      "Ġfrem": 6247,
      "Ġschnitt": 6248,
      "Ġbefinden": 6249,
      "Ġbefindet": 6250,
      "Ġstudenten": 6251,
      "covery": 6252,
      "Ġerstes": 6253,
      "Ġtransition": 6254,
      "Ġsucce": 6255,
      "Ġtrees": 6256,
      "Ġfarben": 6257,
      "Ġbroke": 6258,
      "Ġbroken": 6259,
      "Ġeinzigen": 6260,
      "maÃŁen": 6261,
      "ocol": 6262,
      "Ġtages": 6263,
      "transp": 6264,
      "Ġirgendjemand": 6265,
      "ondere": 6266,
      "Ġgedacht": 6267,
      "fallen": 6268,
      "Ġbush": 6269,
      "nature": 6270,
      "anybody": 6271,
      "Ġverwendet": 6272,
      "Ġswim": 6273,
      "fortable": 6274,
      "Ġeasier": 6275,
      "ĠvollstÃ¤ndig": 6276,
      "Ġcamp": 6277,
      "Ġjemanden": 6278,
      "Ġunterschiedlich": 6279,
      "Ġstreit": 6280,
      "Ġlessons": 6281,
      "Ã¤mlich": 6282,
      "Ġmeme": 6283,
      "Ġmemory": 6284,
      "Ġebene": 6285,
      "Ġexcited": 6286,
      "Ġkeeps": 6287,
      "Ġfortschritt": 6288,
      "Ġbiologie": 6289,
      "Ġhorr": 6290,
      "Ġcultural": 6291,
      "Ġexpand": 6292,
      "Ġcosts": 6293,
      "Ġdevelopment": 6294,
      "Ġkontrolle": 6295,
      "Ġmaterials": 6296,
      "Ġmassive": 6297,
      "Ġwatching": 6298,
      "Ġhyper": 6299,
      "Ġhydro": 6300,
      "ĠlÃ¶sungen": 6301,
      "Ġfreiheit": 6302,
      "Ġsilence": 6303,
      "Ġfishing": 6304,
      "Ġgolden": 6305,
      "Ġentirely": 6306,
      "Ġcollege": 6307,
      "oshua": 6308,
      "Ġtransformation": 6309,
      "Ġfirmen": 6310,
      "Ġgesundheits": 6311,
      "Ġorigami": 6312,
      "wÃ¼rden": 6313,
      "Ġbetrachte": 6314,
      "Ġpractical": 6315,
      "Ġparadox": 6316,
      "Ġdynamic": 6317,
      "Ġromant": 6318,
      "Ġmobil": 6319,
      "Ġkompliziert": 6320,
      "Ġsymmetry": 6321,
      "nehmer": 6322,
      "Ġpressure": 6323,
      "Ġintelligence": 6324,
      "Ġsomehow": 6325,
      "Ġ1960": 6326,
      "Ġconcern": 6327,
      "Ġcartoon": 6328,
      "Ġverbessern": 6329,
      "Ġpraktisch": 6330,
      "Ġplastic": 6331,
      "Ġspezies": 6332,
      "number": 6333,
      "ĠverfÃ¼g": 6334,
      "Ġstaaten": 6335,
      "Ġlucky": 6336,
      "ĠmÃ¼ll": 6337,
      "Ġehrlich": 6338,
      "ĠursprÃ¼n": 6339,
      "ĠbuchstÃ¤": 6340,
      "ĠbevÃ¶lkerung": 6341,
      "Ġimmediately": 6342,
      "Ġumgebung": 6343,
      "Ġbrilliant": 6344,
      "Ġeuropa": 6345,
      "Ġsafety": 6346,
      "Ġkompon": 6347,
      "britannien": 6348,
      "Ġfreedom": 6349,
      "ĠÃ¼berraschung": 6350,
      "Ġsuperstar": 6351,
      "industrie": 6352,
      "Ġsucceed": 6353,
      "bu": 6354,
      "bie": 6355,
      "bill": 6356,
      "biert": 6357,
      "brechen": 6358,
      "cor": 6359,
      "cel": 6360,
      "cut": 6361,
      "cope": 6362,
      "dog": 6363,
      "durch": 6364,
      "down": 6365,
      "effe": 6366,
      "falt": 6367,
      "fantast": 6368,
      "fair": 6369,
      "feld": 6370,
      "gth": 6371,
      "hnen": 6372,
      "iop": 6373,
      "jay": 6374,
      "james": 6375,
      "jamin": 6376,
      "kel": 6377,
      "mte": 6378,
      "mess": 6379,
      "make": 6380,
      "mutz": 6381,
      "ode": 6382,
      "oÃŁ": 6383,
      "pet": 6384,
      "sth": 6385,
      "sichtig": 6386,
      "tm": 6387,
      "taus": 6388,
      "vas": 6389,
      "vision": 6390,
      "ym": 6391,
      "zÃ¼": 6392,
      "zel": 6393,
      "ziert": 6394,
      "zimmer": 6395,
      "Ġ0": 6396,
      "ĠÃ¤lter": 6397,
      "eric": 6398,
      "instead": 6399,
      "Ġsar": 6400,
      "Ġsir": 6401,
      "Ġdeter": 6402,
      "Ġdessen": 6403,
      "Ġdrop": 6404,
      "Ġwet": 6405,
      "ĠwÃ¤r": 6406,
      "Ġwitz": 6407,
      "anter": 6408,
      "ielle": 6409,
      "Ġmel": 6410,
      "Ġment": 6411,
      "only": 6412,
      "untern": 6413,
      "Ġhur": 6414,
      "Ġhill": 6415,
      "Ġhang": 6416,
      "Ġhoney": 6417,
      "Ġhuh": 6418,
      "Ġhipp": 6419,
      "ata": 6420,
      "Ġgun": 6421,
      "Ġgall": 6422,
      "Ġgay": 6423,
      "Ġgiving": 6424,
      "Ġgiant": 6425,
      "rect": 6426,
      "Ġbul": 6427,
      "Ġbauten": 6428,
      "Ġbakter": 6429,
      "Ġtum": 6430,
      "Ġtax": 6431,
      "Ġneh": 6432,
      "Ġnels": 6433,
      "Ġnav": 6434,
      "Ġnimmt": 6435,
      "ĠnÃ¤mlich": 6436,
      "outh": 6437,
      "arth": 6438,
      "Ġfett": 6439,
      "Ġfantas": 6440,
      "ora": 6441,
      "orien": 6442,
      "Ġpum": 6443,
      "Ġpingu": 6444,
      "Ġpunkte": 6445,
      "Ġcro": 6446,
      "Ġcause": 6447,
      "Ġcaught": 6448,
      "Ġka": 6449,
      "Ġkol": 6450,
      "Ġkennt": 6451,
      "Ġkenne": 6452,
      "aling": 6453,
      "Ġod": 6454,
      "Ġlady": 6455,
      "Ġlachen": 6456,
      "unds": 6457,
      "igu": 6458,
      "igation": 6459,
      "Ġanc": 6460,
      "Ġansehen": 6461,
      "Ġangel": 6462,
      "quit": 6463,
      "abet": 6464,
      "Ġziele": 6465,
      "Ġbein": 6466,
      "Ġbeings": 6467,
      "rooms": 6468,
      "eines": 6469,
      "etze": 6470,
      "ichtlich": 6471,
      "ragen": 6472,
      "iesen": 6473,
      "vey": 6474,
      "amie": 6475,
      "Ã¶nen": 6476,
      "Ġverschl": 6477,
      "Ġverurs": 6478,
      "Ġstructures": 6479,
      "Ġreicht": 6480,
      "Ġrecon": 6481,
      "Ġreform": 6482,
      "Ġjump": 6483,
      "iling": 6484,
      "olas": 6485,
      "olit": 6486,
      "dert": 6487,
      "Ġunbelievable": 6488,
      "Ġschu": 6489,
      "Ġschaut": 6490,
      "Ġruss": 6491,
      "Ġhair": 6492,
      "Ġerr": 6493,
      "ĠermÃ¶": 6494,
      "Ġsoon": 6495,
      "Ġled": 6496,
      "sieht": 6497,
      "wird": 6498,
      "Ġalleine": 6499,
      "Ġzufrieden": 6500,
      "Ġsearch": 6501,
      "Ġforschung": 6502,
      "ulen": 6503,
      "bewer": 6504,
      "Ġgekommen": 6505,
      "Ġgeomet": 6506,
      "Ġspiele": 6507,
      "Ġexhib": 6508,
      "Ġnov": 6509,
      "Ġnovember": 6510,
      "mente": 6511,
      "ades": 6512,
      "Ġworte": 6513,
      "uppen": 6514,
      "ienst": 6515,
      "Ġshar": 6516,
      "Ġshop": 6517,
      "Ġtri": 6518,
      "Ġtrill": 6519,
      "Ġtrouble": 6520,
      "Ġfrustr": 6521,
      "Ġens": 6522,
      "Ġenor": 6523,
      "Ġteuf": 6524,
      "Ġconvent": 6525,
      "Ġgrass": 6526,
      "Ġdef": 6527,
      "Ġdep": 6528,
      "Ġuses": 6529,
      "Ġusually": 6530,
      "Ġdesert": 6531,
      "perfe": 6532,
      "Ġquality": 6533,
      "Ġentf": 6534,
      "Ġentreprene": 6535,
      "izes": 6536,
      "Ġorten": 6537,
      "Ġeinfaches": 6538,
      "aks": 6539,
      "Ġblieb": 6540,
      "obs": 6541,
      "ifer": 6542,
      "chnung": 6543,
      "...": 6544,
      "Ġraised": 6545,
      "Ġclip": 6546,
      "Ġnewspap": 6547,
      "half": 6548,
      "Ġtraf": 6549,
      "Ġtrade": 6550,
      "Ġtragen": 6551,
      "Ġlief": 6552,
      "Ġprem": 6553,
      "gerÃ¤t": 6554,
      "Ġtechni": 6555,
      "Ġlov": 6556,
      "Ġrespect": 6557,
      "Ġrespekt": 6558,
      "Ġbetre": 6559,
      "Ġdisor": 6560,
      "Ġklang": 6561,
      "Ġbecoming": 6562,
      "Ġstress": 6563,
      "Ġgewinnen": 6564,
      "Ġverbindung": 6565,
      "Ġerfahren": 6566,
      "Ġmedikam": 6567,
      "Ġpolar": 6568,
      "Ġpolicy": 6569,
      "Ġsolchen": 6570,
      "Ġmont": 6571,
      "Ġpoem": 6572,
      "Ġproduction": 6573,
      "Ġcontent": 6574,
      "Ġparis": 6575,
      "Ġneuigkeiten": 6576,
      "underte": 6577,
      "Ġtells": 6578,
      "Ġverstand": 6579,
      "schlieÃŁen": 6580,
      "somebody": 6581,
      "Ġ2010": 6582,
      "Ġcross": 6583,
      "Ġstudent": 6584,
      "Ġgrad": 6585,
      "Ġgradu": 6586,
      "Ġ2005": 6587,
      "Ġcreative": 6588,
      "Ã¤ufig": 6589,
      "Ġhumanity": 6590,
      "Ġmostly": 6591,
      "Ġdramat": 6592,
      "Ġacceler": 6593,
      "Ġbeschleun": 6594,
      "Ġhighly": 6595,
      "Ġengland": 6596,
      "mÃ¶gen": 6597,
      "Ġpoints": 6598,
      "Ġdecision": 6599,
      "Ġschuld": 6600,
      "Ġwissenschaftliche": 6601,
      "spricht": 6602,
      "Ġextreme": 6603,
      "Ġunderstanding": 6604,
      "Ġdachten": 6605,
      "Ġlarger": 6606,
      "Ġsahen": 6607,
      "ĠerzÃ¤hlt": 6608,
      "Ġconnection": 6609,
      "Ġmissing": 6610,
      "Ġrespond": 6611,
      "Ġversuchte": 6612,
      "Ġtests": 6613,
      "Ġsorts": 6614,
      "Ġkontin": 6615,
      "Ġwalking": 6616,
      "Ġnetworks": 6617,
      "Ġkulture": 6618,
      "Ġrocket": 6619,
      "ĠÃ¶ffnen": 6620,
      "ĠÃ¶ffentlich": 6621,
      "Ġhotel": 6622,
      "Ġmessage": 6623,
      "Ġfuel": 6624,
      "Ġakzept": 6625,
      "Ġfirma": 6626,
      "Ġerkennt": 6627,
      "point": 6628,
      "Ġdahin": 6629,
      "Ġwerkzeug": 6630,
      "Ġopportunities": 6631,
      "Ġrelatively": 6632,
      "polit": 6633,
      "Ġinsekten": 6634,
      "Ġhundreds": 6635,
      "sorry": 6636,
      "Ġforever": 6637,
      "Ġbeobachten": 6638,
      "bewusst": 6639,
      "rÃ¤nkt": 6640,
      "Ġenvironmental": 6641,
      "Ġstrukturen": 6642,
      "Ġphenomenon": 6643,
      "chris": 6644,
      "Ġnuclear": 6645,
      "Ġgeheimnis": 6646,
      "Ġentscheidung": 6647,
      "wÃ¤rts": 6648,
      "Ġkerl": 6649,
      "Ġpresident": 6650,
      "afrika": 6651,
      "ĠfÃ¤higkeit": 6652,
      "Ġchinese": 6653,
      "ĠoberflÃ¤che": 6654,
      "Ġsammeln": 6655,
      "Ġstudied": 6656,
      "Ġsuggest": 6657,
      "zwischen": 6658,
      "Ġdunkel": 6659,
      "Ġfloor": 6660,
      "Ġnormale": 6661,
      "Ġdirectly": 6662,
      "Ġcritical": 6663,
      "Ġrecognize": 6664,
      "Ġknochen": 6665,
      "Ġentsteht": 6666,
      "Ġingenie": 6667,
      "children": 6668,
      "Ġbaseball": 6669,
      "ĠkreativitÃ¤t": 6670,
      "auÃŁerdem": 6671,
      "beginnen": 6672,
      "Ġlieblings": 6673,
      "Ġunexpected": 6674,
      "Ġperformance": 6675,
      "ĠbuchstÃ¤blich": 6676,
      "Ġnelson": 6677,
      "bp": 6678,
      "bing": 6679,
      "cra": 6680,
      "ded": 6681,
      "eben": 6682,
      "fs": 6683,
      "gn": 6684,
      "ifor": 6685,
      "keiner": 6686,
      "light": 6687,
      "mor": 6688,
      "matt": 6689,
      "moud": 6690,
      "nÃ¼": 6691,
      "oben": 6692,
      "oons": 6693,
      "pel": 6694,
      "piel": 6695,
      "richt": 6696,
      "rik": 6697,
      "rary": 6698,
      "ss": 6699,
      "show": 6700,
      "sweise": 6701,
      "six": 6702,
      "uit": 6703,
      "yet": 6704,
      "zra": 6705,
      "Ġ$": 6706,
      "erungen": 6707,
      "erinn": 6708,
      "enken": 6709,
      "ining": 6710,
      "thomas": 6711,
      "Ġsan": 6712,
      "Ġsetz": 6713,
      "Ġsuchen": 6714,
      "ĠdÃ¼r": 6715,
      "Ġdying": 6716,
      "Ġwoo": 6717,
      "Ġwild": 6718,
      "anc": 6719,
      "Ġmull": 6720,
      "Ġmix": 6721,
      "asche": 6722,
      "onic": 6723,
      "onds": 6724,
      "Ġhamb": 6725,
      "Ġgand": 6726,
      "Ġbay": 6727,
      "Ġbish": 6728,
      "Ġbaut": 6729,
      "Ġbienen": 6730,
      "icholas": 6731,
      "Ġtue": 6732,
      "Ġtaught": 6733,
      "Ġteles": 6734,
      "osen": 6735,
      "Ġnest": 6736,
      "ĠnÃ¼t": 6737,
      "arr": 6738,
      "aries": 6739,
      "ario": 6740,
      "Ġfok": 6741,
      "ĠfÃ¶r": 6742,
      "ises": 6743,
      "Ġpink": 6744,
      "Ġpassen": 6745,
      "Ġtheoret": 6746,
      "Ġcold": 6747,
      "ira": 6748,
      "ires": 6749,
      "Ġkick": 6750,
      "Ġve": 6751,
      "Ġeinstein": 6752,
      "Ġlate": 6753,
      "Ġlage": 6754,
      "Ġlaut": 6755,
      "Ġliste": 6756,
      "Ã¼st": 6757,
      "omos": 6758,
      "Ġanat": 6759,
      "used": 6760,
      "soll": 6761,
      "sogar": 6762,
      "absol": 6763,
      "Ã¤ge": 6764,
      "Ġzog": 6765,
      "Ġzivil": 6766,
      "Ġzauber": 6767,
      "Ġbele": 6768,
      "Ġbeine": 6769,
      "rob": 6770,
      "rod": 6771,
      "robot": 6772,
      "einstein": 6773,
      "ura": 6774,
      "urm": 6775,
      "iced": 6776,
      "iern": 6777,
      "ierungen": 6778,
      "Ġwebs": 6779,
      "weiter": 6780,
      "wechsel": 6781,
      "indien": 6782,
      "aller": 6783,
      "ĠstÃ¤dte": 6784,
      "deut": 6785,
      "Ġrechen": 6786,
      "Ġrechte": 6787,
      "umente": 6788,
      "ilfe": 6789,
      "imal": 6790,
      "Ġunver": 6791,
      "Ġunbed": 6792,
      "Ġscher": 6793,
      "Ġschatten": 6794,
      "Ġrou": 6795,
      "Ġdoc": 6796,
      "Ġdopp": 6797,
      "Ġerzeugt": 6798,
      "Ġlee": 6799,
      "Ġlegen": 6800,
      "Ġleast": 6801,
      "Ġlebte": 6802,
      "hello": 6803,
      "Ġabraham": 6804,
      "Ġzugang": 6805,
      "Ġseg": 6806,
      "ulus": 6807,
      "being": 6808,
      "Ġgeteilt": 6809,
      "Ġchocol": 6810,
      "Ġspot": 6811,
      "ischt": 6812,
      "Ġnoise": 6813,
      "Ġheut": 6814,
      "Ġheisst": 6815,
      "Ġdenkt": 6816,
      "Ġauseinander": 6817,
      "Ġarme": 6818,
      "Ġcommit": 6819,
      "Ġmanche": 6820,
      "Ġtrib": 6821,
      "Ġfranz": 6822,
      "Ġfresh": 6823,
      "zeigen": 6824,
      "Ġteuer": 6825,
      "Ġyellow": 6826,
      "ĠkÃ¶nnt": 6827,
      "Ġcondu": 6828,
      "next": 6829,
      "Ġgren": 6830,
      "plin": 6831,
      "plane": 6832,
      "Ġdeshalb": 6833,
      "Ġvorstellung": 6834,
      "Ġdivers": 6835,
      "ĠprÃ¤": 6836,
      "Ġprint": 6837,
      "Ġgenome": 6838,
      "Ġgenauso": 6839,
      "okol": 6840,
      "spre": 6841,
      "perhaps": 6842,
      "Ġqueen": 6843,
      "Ġknown": 6844,
      "Ġumge": 6845,
      "forward": 6846,
      "Ġsteve": 6847,
      "Ġsteckt": 6848,
      "steven": 6849,
      "stefan": 6850,
      "Ġcoun": 6851,
      "Ġwillkommen": 6852,
      "Ġbru": 6853,
      "Ġyours": 6854,
      "werfen": 6855,
      "Ġworkers": 6856,
      "ption": 6857,
      "Ġfaces": 6858,
      "ifying": 6859,
      "Ġflor": 6860,
      "Ġfluss": 6861,
      "Ġunterhalt": 6862,
      "Ġbegonnen": 6863,
      "Ġbegriff": 6864,
      "Ġkonzept": 6865,
      "Ġperception": 6866,
      "Ġbesondere": 6867,
      "Ġdran": 6868,
      "Ġtraur": 6869,
      "udes": 6870,
      "Ġprep": 6871,
      "barkeit": 6872,
      "Ġungehe": 6873,
      "Ġhandy": 6874,
      "Ġ36": 6875,
      "Ġzeiten": 6876,
      "Ġdifferently": 6877,
      "Ġ1900": 6878,
      "Ġemplo": 6879,
      "untain": 6880,
      "Ġversus": 6881,
      "Ġgewinn": 6882,
      "Ġgewonnen": 6883,
      "Ġsheep": 6884,
      "versuchen": 6885,
      "Ġincome": 6886,
      "Ġschluss": 6887,
      "ĠschlÃ¼ssel": 6888,
      "lesen": 6889,
      "Ġniedr": 6890,
      "Ġfamous": 6891,
      "Ġinteresse": 6892,
      "ĠgefÃ¤ng": 6893,
      "teilung": 6894,
      "Ġwenige": 6895,
      "abeth": 6896,
      "Ġfinan": 6897,
      "Ġbread": 6898,
      "ĠgegenÃ¼ber": 6899,
      "Ġgraf": 6900,
      "Ġseries": 6901,
      "Ġservice": 6902,
      "ĠÃ¶konom": 6903,
      "Ġcreativity": 6904,
      "Ġfactor": 6905,
      "Ġsitzen": 6906,
      "Ġstopped": 6907,
      "Ġaccident": 6908,
      "Ġmetapher": 6909,
      "Ġfoundation": 6910,
      "Ġuh": 6911,
      "ĠgrÃ¶ÃŁere": 6912,
      "Ġgehirne": 6913,
      "Ġ75": 6914,
      "Ġdreht": 6915,
      "Ġinspired": 6916,
      "Ġdecisions": 6917,
      "Ġlights": 6918,
      "Ġgarden": 6919,
      "darauf": 6920,
      "ĠberÃ¼h": 6921,
      "Ġmodels": 6922,
      "Ġterrible": 6923,
      "Ġsexy": 6924,
      "Ġsexual": 6925,
      "Ġinvis": 6926,
      "Ġverkauft": 6927,
      "Ġminds": 6928,
      "fÃ¼hrer": 6929,
      "Ã¤user": 6930,
      "Ġnormalerweise": 6931,
      "Ġpopular": 6932,
      "Ġcurr": 6933,
      "Ġcurious": 6934,
      "ettbewer": 6935,
      "Ġschwieriger": 6936,
      "Ġuniversal": 6937,
      "Ġoperation": 6938,
      "Ġcapital": 6939,
      "Ġinstit": 6940,
      "Ġbestehen": 6941,
      "airs": 6942,
      "Ġ120": 6943,
      "Ġlehren": 6944,
      "Ġtypes": 6945,
      "gefunden": 6946,
      "Ġdigit": 6947,
      "Ġexpon": 6948,
      "ĠgeschichtenerzÃ¤hl": 6949,
      "aktor": 6950,
      "Ġhallu": 6951,
      "legenheit": 6952,
      "Ġ250": 6953,
      "Ġsurprised": 6954,
      "zusehen": 6955,
      "geht": 6956,
      "Ġnegot": 6957,
      "Ġnegative": 6958,
      "holt": 6959,
      "Ġpsychopath": 6960,
      "Ġtwice": 6961,
      "Ġbrauchten": 6962,
      "Ġdiagn": 6963,
      "Ġcollect": 6964,
      "Ġtask": 6965,
      "Ġnahmen": 6966,
      "tempt": 6967,
      "zero": 6968,
      "Ġmerk": 6969,
      "Ġsauber": 6970,
      "Ġdahinter": 6971,
      "Ġspreche": 6972,
      "Ġimprov": 6973,
      "Ġ1970": 6974,
      "Ġpractice": 6975,
      "Ġdeinen": 6976,
      "Ġslowly": 6977,
      "alyz": 6978,
      "Ġparadig": 6979,
      "ĠgeschÃ¤fts": 6980,
      "Ġfaszinierend": 6981,
      "figur": 6982,
      "Ġclosed": 6983,
      "Ġsowas": 6984,
      "Ġscientific": 6985,
      "Ġawful": 6986,
      "Ġ1990": 6987,
      "fÃ¤higkeit": 6988,
      "Ġgegangen": 6989,
      "Ġbudget": 6990,
      "Ġopin": 6991,
      "Ġuntersuchen": 6992,
      "Ġbehandlung": 6993,
      "Ġverantwortung": 6994,
      "Ġevolved": 6995,
      "Ġtrocken": 6996,
      "Ġauthent": 6997,
      "hlenstoff": 6998,
      "Ġviolence": 6999,
      "Ġbeziehung": 7000,
      "Ġrepubl": 7001,
      "Ġprinciples": 7002,
      "Ġnervous": 7003,
      "Ġorgans": 7004,
      "Ġvulner": 7005,
      "Ġfascinating": 7006,
      "jonathan": 7007,
      "sprache": 7008,
      "ĠdurchgefÃ¼hrt": 7009,
      "wissenschaftler": 7010,
      "Ġkonsequenzen": 7011,
      "Ġcomponents": 7012,
      "susan": 7013,
      "programm": 7014,
      "Ġdaughter": 7015,
      "Ġwisdom": 7016,
      "Ġwheel": 7017,
      "ĠnatÃ¼rliche": 7018,
      "Ġagriculture": 7019,
      "obviously": 7020,
      "Ġphosphor": 7021,
      "iforn": 7022,
      "11": 7023,
      "24": 7024,
      "80": 7025,
      "aim": 7026,
      "bat": 7027,
      "bit": 7028,
      "bir": 7029,
      "cers": 7030,
      "cles": 7031,
      "certain": 7032,
      "del": 7033,
      "dire": 7034,
      "dings": 7035,
      "eight": 7036,
      "ext": 7037,
      "fold": 7038,
      "hop": 7039,
      "hause": 7040,
      "jab": 7041,
      "jose": 7042,
      "kor": 7043,
      "kol": 7044,
      "lÃ¼": 7045,
      "lose": 7046,
      "lÃ¶s": 7047,
      "macht": 7048,
      "math": 7049,
      "mÃ¤ÃŁ": 7050,
      "none": 7051,
      "nungen": 7052,
      "nungs": 7053,
      "pam": 7054,
      "pop": 7055,
      "ring": 7056,
      "rick": 7057,
      "ses": 7058,
      "sing": 7059,
      "such": 7060,
      "vÃ¶": 7061,
      "via": 7062,
      "wan": 7063,
      "wers": 7064,
      "xic": 7065,
      "ĠÃ¤u": 7066,
      "ench": 7067,
      "iner": 7068,
      "thr": 7069,
      "Ġsetzt": 7070,
      "Ġsetzen": 7071,
      "Ġaffen": 7072,
      "Ġwing": 7073,
      "Ġwach": 7074,
      "Ġwann": 7075,
      "Ġwitness": 7076,
      "ani": 7077,
      "ances": 7078,
      "Ġthrow": 7079,
      "Ġmas": 7080,
      "Ġmort": 7081,
      "asa": 7082,
      "stitution": 7083,
      "Ġhir": 7084,
      "Ġgam": 7085,
      "Ġbought": 7086,
      "Ġbacter": 7087,
      "Ġeast": 7088,
      "Ġegal": 7089,
      "Ġeigent": 7090,
      "itel": 7091,
      "itude": 7092,
      "Ġtap": 7093,
      "Ġtwe": 7094,
      "Ġtim": 7095,
      "Ġtree": 7096,
      "osion": 7097,
      "isation": 7098,
      "orous": 7099,
      "orgt": 7100,
      "lee": 7101,
      "Ġpill": 7102,
      "Ġpfe": 7103,
      "Ġpfer": 7104,
      "Ġcust": 7105,
      "ingend": 7106,
      "Ġkal": 7107,
      "Ġkart": 7108,
      "Ġkoll": 7109,
      "Ġkolle": 7110,
      "Ġvierte": 7111,
      "Ġvogel": 7112,
      "teen": 7113,
      "teach": 7114,
      "Ġeinsch": 7115,
      "Ġolder": 7116,
      "anders": 7117,
      "Ġles": 7118,
      "Ġlad": 7119,
      "Ġlob": 7120,
      "Ġlake": 7121,
      "Ġlernt": 7122,
      "eder": 7123,
      "Ġanzahl": 7124,
      "Ġanalog": 7125,
      "Ġanpass": 7126,
      "Ġtochter": 7127,
      "ĠzÃ¤h": 7128,
      "Ġzahn": 7129,
      "ĠzÃ¤hlen": 7130,
      "Ġbezahl": 7131,
      "icle": 7132,
      "icke": 7133,
      "rael": 7134,
      "Ġwirkung": 7135,
      "indungen": 7136,
      "india": 7137,
      "Ġstab": 7138,
      "Ġstone": 7139,
      "keep": 7140,
      "Ġreport": 7141,
      "umen": 7142,
      "Ġjan": 7143,
      "Ġjac": 7144,
      "Ġjud": 7145,
      "schirm": 7146,
      "theit": 7147,
      "Ġschutz": 7148,
      "Ġrule": 7149,
      "Ġressourcen": 7150,
      "Ġdok": 7151,
      "Ġhawk": 7152,
      "Ġerk": 7153,
      "Ġerzeugen": 7154,
      "Ġleichter": 7155,
      "auben": 7156,
      "ckend": 7157,
      "verstÃ¤n": 7158,
      "Ġareas": 7159,
      "ida": 7160,
      "ffic": 7161,
      "Ġzuerst": 7162,
      "Ġwirel": 7163,
      "Ġneigh": 7164,
      "ula": 7165,
      "bewe": 7166,
      "ibilities": 7167,
      "Ġgearbeitet": 7168,
      "Ġchart": 7169,
      "Ġexisten": 7170,
      "Ġmittag": 7171,
      "Ġheutzutage": 7172,
      "whel": 7173,
      "Ġausgel": 7174,
      "Ġausdruck": 7175,
      "Ġausbildung": 7176,
      "Ġworried": 7177,
      "Ġgespr": 7178,
      "Ġgestellt": 7179,
      "ĠÃ¼berle": 7180,
      "Ġcommer": 7181,
      "Ġshou": 7182,
      "Ġshir": 7183,
      "Ġshall": 7184,
      "Ġshoes": 7185,
      "Ġfrench": 7186,
      "Ġteeth": 7187,
      "Ġconcent": 7188,
      "Ġcondition": 7189,
      "Ġatm": 7190,
      "Ġdepression": 7191,
      "ahrungen": 7192,
      "Ġplants": 7193,
      "ĠplÃ¶tzlich": 7194,
      "Ġdescr": 7195,
      "Ġherren": 7196,
      "Ġdialog": 7197,
      "Ġprice": 7198,
      "ĠprÃ¤s": 7199,
      "itete": 7200,
      "Ġglas": 7201,
      "Ġmichael": 7202,
      "Ġgeschlossen": 7203,
      "ained": 7204,
      "Ġentschuldigung": 7205,
      "wohin": 7206,
      "Ġstem": 7207,
      "Ġsteuern": 7208,
      "izations": 7209,
      "ardo": 7210,
      "uggle": 7211,
      "Ġmeinung": 7212,
      "Ġmush": 7213,
      "Ġbrut": 7214,
      "Ġbrings": 7215,
      "Ġbrief": 7216,
      "Ġbridge": 7217,
      "Ġeinfachheit": 7218,
      "Ġactiv": 7219,
      "Ġfac": 7220,
      "Ġfake": 7221,
      "ifik": 7222,
      "ologists": 7223,
      "Ġflies": 7224,
      "Ġkonfl": 7225,
      "frien": 7226,
      "nost": 7227,
      "Ġrare": 7228,
      "Ġsculpt": 7229,
      "Ġclub": 7230,
      "print": 7231,
      "Ġmillions": 7232,
      "Ġreser": 7233,
      "dazu": 7234,
      "redit": 7235,
      "ients": 7236,
      "Ġbull": 7237,
      "Ġadop": 7238,
      "Ġadvent": 7239,
      "phin": 7240,
      "Ġklingt": 7241,
      "Ġklasse": 7242,
      "Ġsimpl": 7243,
      "Ġsimplic": 7244,
      "Ġbackground": 7245,
      "Ġbiggest": 7246,
      "athon": 7247,
      "Ġgreatest": 7248,
      "Ġoverwhel": 7249,
      "Ġerfindung": 7250,
      "Ġerfahrungen": 7251,
      "Ġstorytell": 7252,
      "Ġobser": 7253,
      "Ġincent": 7254,
      "Ġarbeitet": 7255,
      "ĠschlieÃŁen": 7256,
      "Ġfoie": 7257,
      "Ġpoly": 7258,
      "Ġschwester": 7259,
      "Ġwritten": 7260,
      "Ġgebiet": 7261,
      "Ġgebracht": 7262,
      "Ġsurface": 7263,
      "Ġdamen": 7264,
      "Ġcontroll": 7265,
      "ĠâĢĶ": 7266,
      "Ġcourt": 7267,
      "Ġmagie": 7268,
      "Ġshouldn": 7269,
      "Ġhimself": 7270,
      "Ġhimmel": 7271,
      "Ġbreath": 7272,
      "Ġbuildings": 7273,
      "Ġbestimm": 7274,
      "Ġskills": 7275,
      "Ġorganic": 7276,
      "Ġbiom": 7277,
      "Ġcreating": 7278,
      "Ġcreature": 7279,
      "Ġprotein": 7280,
      "lands": 7281,
      "Ġentwicklungs": 7282,
      "Ġschlechten": 7283,
      "Ġfolgt": 7284,
      "ĠhÃ¶he": 7285,
      "naja": 7286,
      "Ġfalsche": 7287,
      "Ġchromos": 7288,
      "ography": 7289,
      "rett": 7290,
      "Ġharm": 7291,
      "Ġharder": 7292,
      "Ġvollkommen": 7293,
      "spruch": 7294,
      "Ġbilden": 7295,
      "pressive": 7296,
      "cially": 7297,
      "Ġverkehr": 7298,
      "Ġcorrect": 7299,
      "geschichte": 7300,
      "zweif": 7301,
      "Ġnamed": 7302,
      "Ġlargest": 7303,
      "Ġradi": 7304,
      "Ġradical": 7305,
      "Ã¼hne": 7306,
      "ĠstraÃŁe": 7307,
      "Ġcapac": 7308,
      "Ġairplane": 7309,
      "Ġexistieren": 7310,
      "Ġerwart": 7311,
      "Ġhoriz": 7312,
      "Ġemotion": 7313,
      "william": 7314,
      "apping": 7315,
      "ĠverrÃ¼ck": 7316,
      "Ġtransparency": 7317,
      "Ġhintergrund": 7318,
      "Ġsterne": 7319,
      "Ġretten": 7320,
      "Ġvalues": 7321,
      "Ġteams": 7322,
      "Ġmathematics": 7323,
      "minister": 7324,
      "Ġlimited": 7325,
      "Ġfreiwill": 7326,
      "Ġrichtigen": 7327,
      "Ġcontinue": 7328,
      "Ġdauert": 7329,
      "Ġpieces": 7330,
      "Ġprivat": 7331,
      "Ġprivile": 7332,
      "Ġelektron": 7333,
      "Ġelektrische": 7334,
      "Ġintelligent": 7335,
      "Ġverhand": 7336,
      "ĠverhÃ¤lt": 7337,
      "Ġerinnere": 7338,
      "Ġerinnern": 7339,
      "Ġengineering": 7340,
      "Ġdiagramm": 7341,
      "bereich": 7342,
      "Ġfinger": 7343,
      "Ġcircle": 7344,
      "tended": 7345,
      "Ġchemical": 7346,
      "market": 7347,
      "oshop": 7348,
      "Ġmicros": 7349,
      "Ġmoskit": 7350,
      "Ġsinne": 7351,
      "Ġconstantly": 7352,
      "Ġfairly": 7353,
      "ĠÃ¼berrascht": 7354,
      "Ġultr": 7355,
      "nehmung": 7356,
      "Ġfernsehen": 7357,
      "Ġcopy": 7358,
      "ĠpersÃ¶nlich": 7359,
      "Ġintelle": 7360,
      "pektive": 7361,
      "Ġschrecklich": 7362,
      "Ġoxygen": 7363,
      "Ġopfer": 7364,
      "Ġdisappeared": 7365,
      "Ġdinosaurs": 7366,
      "Ġdinosaurier": 7367,
      "thetic": 7368,
      "Ġencou": 7369,
      "ĠfÃ¤higkeiten": 7370,
      "iosity": 7371,
      "Ġbeziehungen": 7372,
      "Ġklima": 7373,
      "Ġprinciple": 7374,
      "Ġefficiency": 7375,
      "Ġdomin": 7376,
      "asking": 7377,
      "Ġnecessary": 7378,
      "Ġmoderne": 7379,
      "Ġmotivation": 7380,
      "ĠauÃŁergewÃ¶hnlich": 7381,
      "mission": 7382,
      "Ġpflanzen": 7383,
      "Ġproperties": 7384,
      "Ġleadership": 7385,
      "Ġbotschaft": 7386,
      "Ġverbrauch": 7387,
      "Ġtemperature": 7388,
      "Ġmystery": 7389,
      "Ġerwachsene": 7390,
      "Ġmeistens": 7391,
      "Ġdepends": 7392,
      "Ġcontinued": 7393,
      "Ġchirurg": 7394,
      "Ġmanipul": 7395,
      "Ġafford": 7396,
      "schlieÃŁlich": 7397,
      "wollen": 7398,
      "Ġinnere": 7399,
      "Ġstammzellen": 7400,
      "cellent": 7401,
      "Ġnigeria": 7402,
      "Ġlustig": 7403,
      "bÃ¼cher": 7404,
      "Ġzusammenhang": 7405,
      "Ġsignificant": 7406,
      "Ġconventional": 7407,
      "Ġlovely": 7408,
      "Ġbisher": 7409,
      "Ġgrenze": 7410,
      "Ġinvisible": 7411,
      "Ġwireless": 7412,
      "Ġsimplicity": 7413,
      "25": 7414,
      "86": 7415,
      "big": 7416,
      "bur": 7417,
      "bye": 7418,
      "bnis": 7419,
      "ca": 7420,
      "dor": 7421,
      "dra": 7422,
      "dimensional": 7423,
      "ete": 7424,
      "fil": 7425,
      "four": 7426,
      "fÃ¶r": 7427,
      "fahren": 7428,
      "father": 7429,
      "gas": 7430,
      "google": 7431,
      "hans": 7432,
      "hmm": 7433,
      "iffen": 7434,
      "jack": 7435,
      "jamie": 7436,
      "ki": 7437,
      "kw": 7438,
      "lier": 7439,
      "lio": 7440,
      "nathan": 7441,
      "nicholas": 7442,
      "power": 7443,
      "rd": 7444,
      "raten": 7445,
      "satz": 7446,
      "test": 7447,
      "try": 7448,
      "tube": 7449,
      "tbp": 7450,
      "uz": 7451,
      "ville": 7452,
      "xis": 7453,
      "zub": 7454,
      "invest": 7455,
      "chel": 7456,
      "change": 7457,
      "chtern": 7458,
      "chron": 7459,
      "thin": 7460,
      "Ġseh": 7461,
      "Ġszen": 7462,
      "Ġsister": 7463,
      "Ġapr": 7464,
      "Ġdiv": 7465,
      "Ġdisp": 7466,
      "Ġdivid": 7467,
      "Ġderek": 7468,
      "Ġwagen": 7469,
      "Ġwinter": 7470,
      "Ġwachstum": 7471,
      "Ġicon": 7472,
      "anor": 7473,
      "Ġmig": 7474,
      "Ġmur": 7475,
      "Ġmoo": 7476,
      "Ġmassen": 7477,
      "asion": 7478,
      "unehmen": 7479,
      "Ġhem": 7480,
      "Ġhielt": 7481,
      "Ġgal": 7482,
      "Ġgift": 7483,
      "Ġbag": 7484,
      "Ġbamb": 7485,
      "ĠbÃ¤ume": 7486,
      "Ġezra": 7487,
      "itzt": 7488,
      "ĠtÃ¤": 7489,
      "Ġtats": 7490,
      "Ġtony": 7491,
      "oskop": 7492,
      "ĠnÃ¶t": 7493,
      "Ġnahrung": 7494,
      "Ġnutzt": 7495,
      "apse": 7496,
      "Ġfell": 7497,
      "leist": 7498,
      "leider": 7499,
      "Ġpic": 7500,
      "Ġpac": 7501,
      "Ġpages": 7502,
      "Ġcry": 7503,
      "Ġkh": 7504,
      "ĠkÃ¼r": 7505,
      "Ġkup": 7506,
      "Ġkunden": 7507,
      "Ġkooper": 7508,
      "Ġven": 7509,
      "Ġvit": 7510,
      "Ġvar": 7511,
      "tex": 7512,
      "Ġeinander": 7513,
      "Ġinf": 7514,
      "Ġinher": 7515,
      "Ġost": 7516,
      "andrew": 7517,
      "Ġlam": 7518,
      "Ġlok": 7519,
      "Ġlack": 7520,
      "Ġlasst": 7521,
      "Ġlapt": 7522,
      "Ġlunch": 7523,
      "Ġanre": 7524,
      "Ġanger": 7525,
      "Ġanteil": 7526,
      "Ġanwend": 7527,
      "Ġanalys": 7528,
      "usive": 7529,
      "Ġtowards": 7530,
      "Ġzut": 7531,
      "Ġzip": 7532,
      "Ġbeantwor": 7533,
      "rok": 7534,
      "rock": 7535,
      "utan": 7536,
      "etr": 7537,
      "icity": 7538,
      "icated": 7539,
      "rale": 7540,
      "vement": 7541,
      "Ġweap": 7542,
      "Ã¶ten": 7543,
      "webe": 7544,
      "Ġvert": 7545,
      "Ġverme": 7546,
      "Ġverlassen": 7547,
      "allel": 7548,
      "allow": 7549,
      "Ġstan": 7550,
      "dete": 7551,
      "dasselbe": 7552,
      "Ġref": 7553,
      "Ġrechten": 7554,
      "Ġreplic": 7555,
      "Ġreceived": 7556,
      "ĠjÃ¼n": 7557,
      "tert": 7558,
      "Ġesc": 7559,
      "schild": 7560,
      "schutz": 7561,
      "schrift": 7562,
      "gegeben": 7563,
      "Ġunl": 7564,
      "Ġunrecht": 7565,
      "Ġschokol": 7566,
      "Ġrit": 7567,
      "Ġriver": 7568,
      "Ġwhist": 7569,
      "Ġerhe": 7570,
      "ĠerzÃ¤h": 7571,
      "Ġsoil": 7572,
      "Ġaust": 7573,
      "ĠauÃŁen": 7574,
      "Ġledig": 7575,
      "Ġderen": 7576,
      "verstehen": 7577,
      "bern": 7578,
      "idung": 7579,
      "Ġabove": 7580,
      "ffer": 7581,
      "Ġzufall": 7582,
      "ĠzufÃ¤": 7583,
      "anna": 7584,
      "bell": 7585,
      "Ġprovin": 7586,
      "ibiot": 7587,
      "ago": 7588,
      "Ġexcept": 7589,
      "antom": 7590,
      "Ġnoten": 7591,
      "Ġhell": 7592,
      "Ġhello": 7593,
      "Ã¼berall": 7594,
      "ada": 7595,
      "Ġdenen": 7596,
      "Ġmoon": 7597,
      "Ġausl": 7598,
      "Ġgoals": 7599,
      "Ġgesichter": 7600,
      "thern": 7601,
      "Ã¤nde": 7602,
      "ĠfÃ¼rs": 7603,
      "ienz": 7604,
      "Ġtrip": 7605,
      "ĠtrÃ¤gt": 7606,
      "ĠmaÃŁ": 7607,
      "Ġconfer": 7608,
      "angers": 7609,
      "anghai": 7610,
      "assung": 7611,
      "Ġdegre": 7612,
      "Ġuser": 7613,
      "Ġplann": 7614,
      "Ġdeswegen": 7615,
      "astrop": 7616,
      "Ġherstellen": 7617,
      "Ġherunter": 7618,
      "Ġheroes": 7619,
      "manuel": 7620,
      "Ġpros": 7621,
      "Ġgeschaffen": 7622,
      "Ġgrown": 7623,
      "Ġentschieden": 7624,
      "Ġentstehen": 7625,
      "Ġentspricht": 7626,
      "Ġstein": 7627,
      "Ġsteigen": 7628,
      "Ġupon": 7629,
      "Ġash": 7630,
      "Ġasso": 7631,
      "ards": 7632,
      "Ġcounter": 7633,
      "ippen": 7634,
      "ipment": 7635,
      "Ġbrot": 7636,
      "Ġeinfachen": 7637,
      "Ġroh": 7638,
      "pective": 7639,
      "Ġbrachten": 7640,
      "Ġhasn": 7641,
      "ĠgroÃŁbritannien": 7642,
      "ological": 7643,
      "Ġfrag": 7644,
      "Ġuntersche": 7645,
      "Ġunternehmer": 7646,
      "ruh": 7647,
      "selben": 7648,
      "Ġideal": 7649,
      "Ġkonkur": 7650,
      "Ġphantom": 7651,
      "Ġeveryday": 7652,
      "however": 7653,
      "Ġscann": 7654,
      "consc": 7655,
      "Ġbesitzen": 7656,
      "osten": 7657,
      "aced": 7658,
      "isha": 7659,
      "Ġclo": 7660,
      "ĠdrÃ¼ber": 7661,
      "Ġmehreren": 7662,
      "ĠlieÃŁ": 7663,
      "Ġfunny": 7664,
      "Ġprevent": 7665,
      "iÃŁen": 7666,
      "Ġanywhere": 7667,
      "Ġhandle": 7668,
      "herz": 7669,
      "ĠbedÃ¼r": 7670,
      "Ġbedingungen": 7671,
      "Ġ37": 7672,
      "ungsver": 7673,
      "ungssystem": 7674,
      "achtung": 7675,
      "erstoff": 7676,
      "Ġindian": 7677,
      "offens": 7678,
      "Ġartist": 7679,
      "Ġadmin": 7680,
      "Ġdisaster": 7681,
      "phia": 7682,
      "Ġgelang": 7683,
      "Ġklass": 7684,
      "Ġsimulation": 7685,
      "schiede": 7686,
      "Ã¤rkte": 7687,
      "Ġapple": 7688,
      "Ġshowed": 7689,
      "Ġmedium": 7690,
      "Ġschweden": 7691,
      "Ġweiterer": 7692,
      "Ġgebra": 7693,
      "Ġantibiot": 7694,
      "ordnung": 7695,
      "Ġnieder": 7696,
      "Ġsurge": 7697,
      "Ġiran": 7698,
      "Ġlangweil": 7699,
      "Ġwahrnehmung": 7700,
      "Ġparalyz": 7701,
      "gebaut": 7702,
      "Ġinteressanter": 7703,
      "Ġstuck": 7704,
      "Ġgefahr": 7705,
      "ĠgefÃ¤llt": 7706,
      "Ġfamilies": 7707,
      "Ġfrequ": 7708,
      "Ġfinish": 7709,
      "Ġverstehe": 7710,
      "Ġbreast": 7711,
      "Ġanswers": 7712,
      "Ġstille": 7713,
      "Ġvideos": 7714,
      "mitgefÃ¼hl": 7715,
      "Ġbasiert": 7716,
      "Ġfilme": 7717,
      "Ġfilms": 7718,
      "deswegen": 7719,
      "Ġ2008": 7720,
      "Ġterms": 7721,
      "Ġendlich": 7722,
      "Ġprotest": 7723,
      "Ġsitz": 7724,
      "Ġsitzt": 7725,
      "Ġdraht": 7726,
      "Ġruns": 7727,
      "Ġaccom": 7728,
      "Ġaccur": 7729,
      "Ġbeweis": 7730,
      "Ġgedicht": 7731,
      "Ġfalls": 7732,
      "Ġpolitischen": 7733,
      "Ġexplan": 7734,
      "Ġexplod": 7735,
      "riere": 7736,
      "kÃ¶nnte": 7737,
      "Ġfalten": 7738,
      "Ġsubst": 7739,
      "anyone": 7740,
      "anyway": 7741,
      "Ġlosing": 7742,
      "Ġsweden": 7743,
      "Ġswitch": 7744,
      "Ġturning": 7745,
      "Ġoffene": 7746,
      "Ġcameras": 7747,
      "Ġwaffen": 7748,
      "ification": 7749,
      "Ã¤ngst": 7750,
      "Ġgehirns": 7751,
      "ciate": 7752,
      "Ġphotoshop": 7753,
      "Ġcoral": 7754,
      "Ġcorpor": 7755,
      "Ġrechts": 7756,
      "Ġbesseres": 7757,
      "teln": 7758,
      "Ġcuriosity": 7759,
      "Ġschwierige": 7760,
      "Ġcheap": 7761,
      "Ġpossibilities": 7762,
      "Ġhealthy": 7763,
      "Ġbiological": 7764,
      "moor": 7765,
      "Ġtypical": 7766,
      "Ġsinging": 7767,
      "Ã¤umen": 7768,
      "Ġexped": 7769,
      "zeichen": 7770,
      "relig": 7771,
      "daniel": 7772,
      "Ġsynchron": 7773,
      "Ġlanguages": 7774,
      "Ġfotos": 7775,
      "Ġtolles": 7776,
      "Ġreligions": 7777,
      "osphere": 7778,
      "Ġverdienen": 7779,
      "Ġattack": 7780,
      "ahnsinn": 7781,
      "Ġnerven": 7782,
      "Ġequipment": 7783,
      "Ġsympt": 7784,
      "Ġverhindern": 7785,
      "Ġmeeting": 7786,
      "spieler": 7787,
      "Ġfolgende": 7788,
      "gemein": 7789,
      "Ġaccept": 7790,
      "Ġroten": 7791,
      "Ġsauerstoff": 7792,
      "Ġneurons": 7793,
      "Ġneuronen": 7794,
      "Ġprotection": 7795,
      "Ġdaher": 7796,
      "ĠmolekÃ¼": 7797,
      "Ġsicherheits": 7798,
      "Ġconsumer": 7799,
      "Ġbottle": 7800,
      "Ġtelefon": 7801,
      "ognitive": 7802,
      "Ġdorthin": 7803,
      "Ġholding": 7804,
      "normal": 7805,
      "Ġbirds": 7806,
      "Ġtreatment": 7807,
      "Ġinsects": 7808,
      "Ġnahe": 7809,
      "Ġgenetic": 7810,
      "Ġzeichen": 7811,
      "thesis": 7812,
      "Ġtausende": 7813,
      "Ġscientists": 7814,
      "Ġconnectome": 7815,
      "Ġintelligenz": 7816,
      "ografie": 7817,
      "Ġinvention": 7818,
      "Ġrandom": 7819,
      "Ġphenomenal": 7820,
      "Ġsweet": 7821,
      "Ġspannen": 7822,
      "Ġamerikaner": 7823,
      "Ġentscheidungen": 7824,
      "Ġhonor": 7825,
      "Ġemergen": 7826,
      "osphÃ¤re": 7827,
      "Ġrelationships": 7828,
      "Ġignor": 7829,
      "Ġlaser": 7830,
      "Ġrosling": 7831,
      "coln": 7832,
      "ĠunterstÃ¼tzung": 7833,
      "Ġefficient": 7834,
      "ĠerklÃ¤rt": 7835,
      "load": 7836,
      "Ġnecessarily": 7837,
      "Ġresponsible": 7838,
      "Ġirak": 7839,
      "Ġiraq": 7840,
      "remember": 7841,
      "Ġcauses": 7842,
      "Ã¼hrt": 7843,
      "Ġweltweit": 7844,
      "ĠÃ¤rzte": 7845,
      "Ġskelet": 7846,
      "Ġhighl": 7847,
      "Ġkorea": 7848,
      "Ġuntil": 7849,
      "Ġpropag": 7850,
      "Ġcompetition": 7851,
      "compassion": 7852,
      "Ġbeeindruckend": 7853,
      "Ġoriginal": 7854,
      "Ġnutr": 7855,
      "ĠverÃ¶ffent": 7856,
      "Ġrelevant": 7857,
      "Ġkonzentrieren": 7858,
      "Ã¤uschung": 7859,
      "human": 7860,
      "Ġvacc": 7861,
      "Ġwashington": 7862,
      "Ġpuzzle": 7863,
      "larry": 7864,
      "Ġbroadmoor": 7865,
      "Ġcivilization": 7866,
      "Ġintrins": 7867,
      "Ġmagazine": 7868,
      "funktion": 7869,
      "Ġgentlemen": 7870,
      "ĠbÃ¼rger": 7871,
      "Ġvergangenheit": 7872,
      "Ġfundamental": 7873,
      "Ġerlaubt": 7874,
      "ĠgefÃ¼hle": 7875,
      "Ġwesentlichen": 7876,
      "Ġcitiz": 7877,
      "Ġletztes": 7878,
      "ĠverfÃ¼gbar": 7879,
      "Ġkomponenten": 7880,
      "Ġnehme": 7881,
      "Ġodd": 7882,
      "Ġteufel": 7883,
      "Ġunbedingt": 7884,
      "Ġchocolate": 7885,
      "Ġtraurig": 7886,
      "Ġungeheuer": 7887,
      "ĠgefÃ¤ngnis": 7888,
      "Ġfinancial": 7889,
      "Ġcommercial": 7890,
      "Ġcapacity": 7891,
      "liothe": 7892,
      "Ġapril": 7893,
      "ĠerzÃ¤hle": 7894,
      "Ġdegrees": 7895,
      "astrophe": 7896,
      "100": 7897,
      "aa": 7898,
      "buch": 7899,
      "bieren": 7900,
      "bahn": 7901,
      "cil": 7902,
      "digen": 7903,
      "dabei": 7904,
      "ech": 7905,
      "fir": 7906,
      "gin": 7907,
      "gon": 7908,
      "gab": 7909,
      "gungen": 7910,
      "geln": 7911,
      "gangen": 7912,
      "hm": 7913,
      "ibe": 7914,
      "julian": 7915,
      "ko": 7916,
      "keln": 7917,
      "lÃ¤ss": 7918,
      "mas": 7919,
      "mag": 7920,
      "mine": 7921,
      "mack": 7922,
      "mord": 7923,
      "ns": 7924,
      "nÃ¼gen": 7925,
      "oid": 7926,
      "ris": 7927,
      "rum": 7928,
      "ress": 7929,
      "ringen": 7930,
      "sb": 7931,
      "sagen": 7932,
      "sicher": 7933,
      "tgen": 7934,
      "wich": 7935,
      "wal": 7936,
      "zehn": 7937,
      "Ġ000": 7938,
      "Ġ..": 7939,
      "eron": 7940,
      "eral": 7941,
      "erken": 7942,
      "inten": 7943,
      "insel": 7944,
      "chu": 7945,
      "chnen": 7946,
      "than": 7947,
      "Ġsem": 7948,
      "Ġsite": 7949,
      "Ġsucht": 7950,
      "Ġsuddenly": 7951,
      "Ġdol": 7952,
      "Ġdienst": 7953,
      "Ġwein": 7954,
      "Ġwid": 7955,
      "Ġwatt": 7956,
      "ĠwÃ¤hlen": 7957,
      "iegel": 7958,
      "Ġmund": 7959,
      "Ġmouth": 7960,
      "asi": 7961,
      "asten": 7962,
      "sta": 7963,
      "stu": 7964,
      "stimmen": 7965,
      "unte": 7966,
      "Ġhous": 7967,
      "Ġhost": 7968,
      "Ġhole": 7969,
      "Ġhielten": 7970,
      "Ġgiven": 7971,
      "Ġbug": 7972,
      "Ġbird": 7973,
      "Ġeisen": 7974,
      "ita": 7975,
      "Ġtour": 7976,
      "Ġtiger": 7977,
      "Ġtail": 7978,
      "Ġtanzen": 7979,
      "Ġnets": 7980,
      "Ġnannten": 7981,
      "appt": 7982,
      "appy": 7983,
      "arter": 7984,
      "Ġfel": 7985,
      "Ġfold": 7986,
      "isser": 7987,
      "orrow": 7988,
      "orgung": 7989,
      "lehr": 7990,
      "Ġpit": 7991,
      "Ġpaul": 7992,
      "Ġcand": 7993,
      "Ġcases": 7994,
      "Ġkos": 7995,
      "Ġkim": 7996,
      "Ġkalt": 7997,
      "Ġkidd": 7998,
      "Ġvalle": 7999,
      "team": 8000,
      "alie": 8001,
      "alis": 8002,
      "Ġeinkommen": 8003,
      "Ġinsel": 8004,
      "Ġobst": 8005,
      "Ġlines": 8006,
      "Ġlester": 8007,
      "Ġloop": 8008,
      "eda": 8009,
      "eds": 8010,
      "edu": 8011,
      "Ġanschauen": 8012,
      "ques": 8013,
      "eltern": 8014,
      "Ã¤te": 8015,
      "Ġzelle": 8016,
      "Ġbezeich": 8017,
      "roy": 8018,
      "rochen": 8019,
      "entiell": 8020,
      "urb": 8021,
      "ication": 8022,
      "raid": 8023,
      "Ġweight": 8024,
      "Ġweigh": 8025,
      "amy": 8026,
      "Ã¶ser": 8027,
      "Ã¶ÃŁen": 8028,
      "Ã¶pf": 8029,
      "weit": 8030,
      "indest": 8031,
      "Ġvermut": 8032,
      "Ġstam": 8033,
      "Ġstren": 8034,
      "Ġstaub": 8035,
      "Ġjon": 8036,
      "Ġjet": 8037,
      "Ġjungs": 8038,
      "schre": 8039,
      "schau": 8040,
      "Ġuncom": 8041,
      "Ġschien": 8042,
      "Ġschme": 8043,
      "ĠschÃ¤d": 8044,
      "Ġschrift": 8045,
      "ĠschÃ¶nen": 8046,
      "Ġrund": 8047,
      "Ġrub": 8048,
      "Ġrough": 8049,
      "Ġruf": 8050,
      "Ġwhile": 8051,
      "ĠerfÃ¼": 8052,
      "Ġerleben": 8053,
      "Ġaud": 8054,
      "Ġaustr": 8055,
      "Ġlektion": 8056,
      "Ġleider": 8057,
      "dence": 8058,
      "Ġwarming": 8059,
      "idet": 8060,
      "heutzutage": 8061,
      "ession": 8062,
      "Ġability": 8063,
      "Ġabsicht": 8064,
      "Ġabgesch": 8065,
      "Ġabsur": 8066,
      "Ġseat": 8067,
      "Ġseien": 8068,
      "Ġforgot": 8069,
      "beim": 8070,
      "before": 8071,
      "isted": 8072,
      "istry": 8073,
      "Ġgeograph": 8074,
      "Ġgeorge": 8075,
      "Ġmeat": 8076,
      "Ġmeilen": 8077,
      "Ġchain": 8078,
      "Ġspl": 8079,
      "Ġspent": 8080,
      "ĠspÃ¼r": 8081,
      "Ġspider": 8082,
      "Ġspaces": 8083,
      "Ġunderg": 8084,
      "Ġexists": 8085,
      "Ã¶ntgen": 8086,
      "Ġheat": 8087,
      "Ġheav": 8088,
      "seven": 8089,
      "seits": 8090,
      "Ġmountain": 8091,
      "Ġausnahme": 8092,
      "ikatur": 8093,
      "Ã¤ne": 8094,
      "Ġmanaged": 8095,
      "Ġhierarch": 8096,
      "Ġsher": 8097,
      "Ġshad": 8098,
      "Ġshown": 8099,
      "Ġweren": 8100,
      "Ġwerte": 8101,
      "Ġwerfen": 8102,
      "zeiten": 8103,
      "Ġenem": 8104,
      "angel": 8105,
      "Ġattempt": 8106,
      "olly": 8107,
      "Ġplenty": 8108,
      "Ġdesc": 8109,
      "Ġdesire": 8110,
      "Ġhergestellt": 8111,
      "Ġvorbere": 8112,
      "ĠsaÃŁ": 8113,
      "Ġgetroffen": 8114,
      "Ġquant": 8115,
      "Ġquiet": 8116,
      "ierende": 8117,
      "Ġpeer": 8118,
      "Ġentworfen": 8119,
      "Ġsteigt": 8120,
      "Ġstecken": 8121,
      "Ġorient": 8122,
      "Ġdemograph": 8123,
      "Ġcore": 8124,
      "Ġame": 8125,
      "Ġmusst": 8126,
      "Ġwilliam": 8127,
      "endung": 8128,
      "Ġnachbar": 8129,
      "Ġfeature": 8130,
      "Ġrole": 8131,
      "Ġroof": 8132,
      "Ġdarstellung": 8133,
      "Ġblase": 8134,
      "issenschaft": 8135,
      "Ġfaith": 8136,
      "Ġfaktor": 8137,
      "ongl": 8138,
      "Ġfliegt": 8139,
      "Ġframe": 8140,
      "Ġphones": 8141,
      "Ġihres": 8142,
      "Ġperip": 8143,
      "Ã¼nd": 8144,
      "Ġagre": 8145,
      "Ġscared": 8146,
      "acters": 8147,
      "acement": 8148,
      "Ġclock": 8149,
      "Ġdringend": 8150,
      "Ġmehrheit": 8151,
      "Ġvielfalt": 8152,
      "flÃ¤chen": 8153,
      "enny": 8154,
      "bares": 8155,
      "Ġimpf": 8156,
      "Ġbedro": 8157,
      "Ġzeitungen": 8158,
      "Ġ195": 8159,
      "aufnahme": 8160,
      "Ġartific": 8161,
      "Ġaddr": 8162,
      "Ġemb": 8163,
      "Ġembra": 8164,
      "Ã¤rt": 8165,
      "ĠverblÃ¼": 8166,
      "Ġerfinden": 8167,
      "prof": 8168,
      "tragen": 8169,
      "Ġperspective": 8170,
      "glicht": 8171,
      "glob": 8172,
      "Ġsmile": 8173,
      "Ġsmoke": 8174,
      "Ġschwestern": 8175,
      "Ġdesigning": 8176,
      "Ġwellen": 8177,
      "Ġbenjamin": 8178,
      "Ġpair": 8179,
      "Ġirr": 8180,
      "ĠverÃ¤nderte": 8181,
      "Ġmini": 8182,
      "Ġhumor": 8183,
      "Ġlandsc": 8184,
      "Ġpatent": 8185,
      "Ġstufe": 8186,
      "Ġbelow": 8187,
      "teilen": 8188,
      "syn": 8189,
      "Ġpersonen": 8190,
      "Ġmarried": 8191,
      "drÃ¼cken": 8192,
      "Ġansatz": 8193,
      "Ġcrick": 8194,
      "Ġgegenseit": 8195,
      "Ġherausgefunden": 8196,
      "Ġhalte": 8197,
      "Ġerster": 8198,
      "Ġtreibt": 8199,
      "Ġremote": 8200,
      "Ġafraid": 8201,
      "Ġfarmer": 8202,
      "Ġ2009": 8203,
      "Ġterm": 8204,
      "blind": 8205,
      "Ġtedtalk": 8206,
      "pping": 8207,
      "Ġbehau": 8208,
      "trans": 8209,
      "true": 8210,
      "Ġsicherlich": 8211,
      "Ġcharacters": 8212,
      "ometers": 8213,
      "Ġsubt": 8214,
      "Ġhardware": 8215,
      "Ġschaden": 8216,
      "Ġdreh": 8217,
      "Ġearlier": 8218,
      "Ġperfekte": 8219,
      "comput": 8220,
      "Ġ600": 8221,
      "frage": 8222,
      "fragen": 8223,
      "Ġunderwater": 8224,
      "ĠvergnÃ¼gen": 8225,
      "Ġwissenschaftler": 8226,
      "Ġwaves": 8227,
      "Ġberuf": 8228,
      "Ġhelped": 8229,
      "welches": 8230,
      "Ġverkauf": 8231,
      "ĠverknÃ¼": 8232,
      "Ġstreets": 8233,
      "Ġstatement": 8234,
      "Ġprojects": 8235,
      "Ġ800": 8236,
      "Ġrisiko": 8237,
      "Ġcurve": 8238,
      "Ġsignal": 8239,
      "Ġeconomics": 8240,
      "Ġdefinitely": 8241,
      "arbeiten": 8242,
      "Ġkarikatur": 8243,
      "Ġeinsatz": 8244,
      "gehend": 8245,
      "Ġemotions": 8246,
      "Ġriesigen": 8247,
      "ĠauÃŁerhalb": 8248,
      "ĠauÃŁerdem": 8249,
      "Ġholz": 8250,
      "Ġholen": 8251,
      "Ġpainful": 8252,
      "Ġpainting": 8253,
      "Ġtempor": 8254,
      "Ġillustr": 8255,
      "Ġreturn": 8256,
      "Ġlincoln": 8257,
      "Ġchoose": 8258,
      "Ġdancing": 8259,
      "Ġverdient": 8260,
      "Ġlimb": 8261,
      "ĠÃ¶ffentlichen": 8262,
      "Ġperfectly": 8263,
      "Ġknapp": 8264,
      "Ġtopic": 8265,
      "Ġwirtschaftsw": 8266,
      "folgt": 8267,
      "ĠsÃ¼d": 8268,
      "Ã¤chtnis": 8269,
      "Ġboxes": 8270,
      "ĠhÃ¼hn": 8271,
      "ĠfuÃŁ": 8272,
      "Ġflex": 8273,
      "Ġfleisch": 8274,
      "Ġfurcht": 8275,
      "Ġcyber": 8276,
      "tendlich": 8277,
      "Ġkochen": 8278,
      "Ġkohlenstoff": 8279,
      "ĠkÃ¼hl": 8280,
      "Ġtaste": 8281,
      "Ġindividuals": 8282,
      "Ġbekamen": 8283,
      "Ġoxford": 8284,
      "Ġvolunte": 8285,
      "Ġappropr": 8286,
      "Ġseltsame": 8287,
      "Ġtelevision": 8288,
      "Ġterrorismus": 8289,
      "Ġmosquit": 8290,
      "Ġsociet": 8291,
      "Ġdeeply": 8292,
      "ĠreprÃ¤sent": 8293,
      "Ġmajority": 8294,
      "Ġhunger": 8295,
      "Ġessential": 8296,
      "Ġkomplizierter": 8297,
      "Ġkapital": 8298,
      "Ġsymmetrie": 8299,
      "resp": 8300,
      "Ġnetzwerk": 8301,
      "Ġzeichnen": 8302,
      "Ġcloser": 8303,
      "Ġtraditional": 8304,
      "Ġfehlt": 8305,
      "Ġtausend": 8306,
      "Ġscript": 8307,
      "kehren": 8308,
      "without": 8309,
      "Ġdetails": 8310,
      "fÃ¤hig": 8311,
      "Ġfighting": 8312,
      "Ġintrodu": 8313,
      "Ġintroduced": 8314,
      "ĠmilitÃ¤r": 8315,
      "Ġbalance": 8316,
      "Ġtitan": 8317,
      "Ġzentral": 8318,
      "Ġsequenz": 8319,
      "Ġuntersuch": 8320,
      "Ġdisappear": 8321,
      "Ġrecorded": 8322,
      "Ġhonest": 8323,
      "Ġkenya": 8324,
      "Ġreplace": 8325,
      "Ġvirtual": 8326,
      "Ġmultiple": 8327,
      "africa": 8328,
      "Ġhohe": 8329,
      "Ġauthor": 8330,
      "nummer": 8331,
      "Ġdimension": 8332,
      "Ġcooking": 8333,
      "Ġlibrary": 8334,
      "Ġlifest": 8335,
      "ĠerklÃ¤rung": 8336,
      "fahrt": 8337,
      "ĠwÃ¼nschte": 8338,
      "Ġtypen": 8339,
      "Ġtype": 8340,
      "ĠfrÃ¼her": 8341,
      "Ġresponsibility": 8342,
      "Ġseparate": 8343,
      "Ġliked": 8344,
      "Ġbeeinflusst": 8345,
      "Ġbeeinflussen": 8346,
      "Ġmethode": 8347,
      "Ġprototy": 8348,
      "Ġprototyp": 8349,
      "Ġerneuer": 8350,
      "sprechend": 8351,
      "groÃŁ": 8352,
      "Ġhuhn": 8353,
      "Ġghana": 8354,
      "Ġversteck": 8355,
      "Ġerwarten": 8356,
      "Ġstraightforward": 8357,
      "ĠÃ¼berraschend": 8358,
      "Ġpurpose": 8359,
      "Ġnotwendig": 8360,
      "Ġfailure": 8361,
      "Ġuganda": 8362,
      "Ġdiplomat": 8363,
      "Ġcollaboration": 8364,
      "Ġfeind": 8365,
      "ĠschÃ¤tzen": 8366,
      "zuschauer": 8367,
      "ĠkÃ¼mmern": 8368,
      "Ġbemerkenswert": 8369,
      "Ġmentioned": 8370,
      "Ġbubble": 8371,
      "Ġaussage": 8372,
      "Ġsharks": 8373,
      "Ġvorstellungskraft": 8374,
      "Ġtransparenz": 8375,
      "ĠkÃ¤mpfen": 8376,
      "Ġjemals": 8377,
      "Ġdieselbe": 8378,
      "Ġpenguins": 8379,
      "Ġlaunched": 8380,
      "gypt": 8381,
      "Ġmuseum": 8382,
      "unternehmen": 8383,
      "Ġschuhe": 8384,
      "Ġtrillion": 8385,
      "Ġenorme": 8386,
      "Ġdisorder": 8387,
      "Ġsetzte": 8388,
      "Ġzivilisation": 8389,
      "Ġwebsite": 8390,
      "Ġheutigen": 8391,
      "Ġdiversity": 8392,
      "Ġflorida": 8393,
      "ettbewerb": 8394,
      "joseph": 8395,
      "through": 8396,
      "Ġcustom": 8397,
      "Ġdescrib": 8398,
      "friend": 8399,
      "Ġadopt": 8400,
      "Ġmoore": 8401,
      "Ġlediglich": 8402,
      "conscious": 8403,
      "offensichtlich": 8404,
      "Ġlangweilig": 8405,
      "Ġvalley": 8406,
      "Ġabsurd": 8407,
      "&#": 8408,
      "12": 8409,
      "aven": 8410,
      "bal": 8411,
      "bom": 8412,
      "bles": 8413,
      "bors": 8414,
      "bald": 8415,
      "cast": 8416,
      "dl": 8417,
      "daten": 8418,
      "ee": 8419,
      "eing": 8420,
      "gere": 8421,
      "gust": 8422,
      "gant": 8423,
      "gute": 8424,
      "gabe": 8425,
      "gott": 8426,
      "habe": 8427,
      "happy": 8428,
      "iat": 8429,
      "jane": 8430,
      "kult": 8431,
      "kont": 8432,
      "kÃ¼nft": 8433,
      "last": 8434,
      "laur": 8435,
      "ni": 8436,
      "nk": 8437,
      "pal": 8438,
      "passen": 8439,
      "rg": 8440,
      "sin": 8441,
      "som": 8442,
      "seh": 8443,
      "turn": 8444,
      "tja": 8445,
      "uing": 8446,
      "uÃŁ": 8447,
      "uence": 8448,
      "vater": 8449,
      "wing": 8450,
      "wall": 8451,
      "wahl": 8452,
      "yen": 8453,
      "zul": 8454,
      "zliche": 8455,
      "zeln": 8456,
      "zelle": 8457,
      "zunÃ¤chst": 8458,
      "Ġere": 8459,
      "Ġut": 8460,
      "erlich": 8461,
      "them": 8462,
      "thia": 8463,
      "Ġshr": 8464,
      "Ġskl": 8465,
      "Ġsingt": 8466,
      "Ġate": 8467,
      "Ġathe": 8468,
      "Ġaster": 8469,
      "Ġdur": 8470,
      "Ġdust": 8471,
      "Ġdate": 8472,
      "ĠdÃ¼n": 8473,
      "Ġweh": 8474,
      "Ġwood": 8475,
      "Ġwesten": 8476,
      "ĠwÃ¤chst": 8477,
      "Ġwahnsinn": 8478,
      "esome": 8479,
      "anol": 8480,
      "ieben": 8481,
      "Ġmart": 8482,
      "ĠmÃ¼tter": 8483,
      "once": 8484,
      "stab": 8485,
      "stag": 8486,
      "stÃ¼ck": 8487,
      "stock": 8488,
      "stieg": 8489,
      "uni": 8490,
      "unfortunately": 8491,
      "unruh": 8492,
      "Ġhen": 8493,
      "Ġhus": 8494,
      "Ġhind": 8495,
      "Ġheter": 8496,
      "atar": 8497,
      "Ġgig": 8498,
      "Ġgib": 8499,
      "reden": 8500,
      "Ġbat": 8501,
      "Ġtes": 8502,
      "Ġtib": 8503,
      "Ġtisch": 8504,
      "Ġtieren": 8505,
      "Ġtenn": 8506,
      "Ġtagen": 8507,
      "Ġtrop": 8508,
      "osis": 8509,
      "Ġnations": 8510,
      "ĠnÃ¤hr": 8511,
      "Ġnannte": 8512,
      "appen": 8513,
      "ares": 8514,
      "Ġfit": 8515,
      "Ġfak": 8516,
      "Ġpas": 8517,
      "Ġpow": 8518,
      "Ġpenn": 8519,
      "Ġcous": 8520,
      "Ġcaf": 8521,
      "inger": 8522,
      "Ġkm": 8523,
      "Ġkum": 8524,
      "Ġvess": 8525,
      "teid": 8526,
      "alia": 8527,
      "alright": 8528,
      "Ġeiniges": 8529,
      "Ġinnen": 8530,
      "Ġinhalt": 8531,
      "Ġoct": 8532,
      "Ġlen": 8533,
      "Ġlit": 8534,
      "Ã¼te": 8535,
      "Ã¼br": 8536,
      "Ġanw": 8537,
      "usual": 8538,
      "usagen": 8539,
      "social": 8540,
      "elf": 8541,
      "Ã¤ger": 8542,
      "Ġzieht": 8543,
      "Ġbeunruh": 8544,
      "utt": 8545,
      "einlich": 8546,
      "entliche": 8547,
      "urgen": 8548,
      "urger": 8549,
      "Ġyoutube": 8550,
      "etten": 8551,
      "ico": 8552,
      "iculous": 8553,
      "ragt": 8554,
      "rachten": 8555,
      "Ġweiss": 8556,
      "Ġwealth": 8557,
      "amt": 8558,
      "Ã¶ch": 8559,
      "Ã¶pfe": 8560,
      "Ġverab": 8561,
      "Ġstern": 8562,
      "Ġstift": 8563,
      "Ġstunde": 8564,
      "Ġstieg": 8565,
      "Ġreven": 8566,
      "Ġreisen": 8567,
      "Ġreverse": 8568,
      "Ġrepor": 8569,
      "Ġreagieren": 8570,
      "umin": 8571,
      "Ġjoshua": 8572,
      "Ġjongl": 8573,
      "ila": 8574,
      "terday": 8575,
      "ements": 8576,
      "ologen": 8577,
      "school": 8578,
      "gey": 8579,
      "ima": 8580,
      "imme": 8581,
      "imately": 8582,
      "Ġunmittel": 8583,
      "Ġunfortunately": 8584,
      "Ġunusual": 8585,
      "Ġschach": 8586,
      "Ġschicks": 8587,
      "Ġschauten": 8588,
      "Ġrh": 8589,
      "Ġrie": 8590,
      "Ġrose": 8591,
      "Ġrange": 8592,
      "ĠrÃ¶ntgen": 8593,
      "Ġdoctor": 8594,
      "Ġdoctors": 8595,
      "Ġhaup": 8596,
      "Ġerled": 8597,
      "Ġersetzen": 8598,
      "Ġerror": 8599,
      "Ġauff": 8600,
      "Ġleisten": 8601,
      "aud": 8602,
      "verbra": 8603,
      "Ġwars": 8604,
      "heber": 8605,
      "ĠabhÃ¤ng": 8606,
      "Ġzucker": 8607,
      "Ġzuhause": 8608,
      "ĠzukÃ¼nft": 8609,
      "Ġwired": 8610,
      "Ġneat": 8611,
      "oooo": 8612,
      "Ġford": 8613,
      "Ġformal": 8614,
      "Ġforms": 8615,
      "isters": 8616,
      "istische": 8617,
      "sens": 8618,
      "Ġchap": 8619,
      "ĠspÃ¤t": 8620,
      "Ġsparen": 8621,
      "Ġimplant": 8622,
      "Ġexpression": 8623,
      "Ġextin": 8624,
      "Ġaufgeben": 8625,
      "Ġaufgenommen": 8626,
      "Ġaufnahmen": 8627,
      "Ġnotes": 8628,
      "Ġnoticed": 8629,
      "add": 8630,
      "Ġworse": 8631,
      "Ġarmen": 8632,
      "illy": 8633,
      "ikel": 8634,
      "Ġwieviel": 8635,
      "ĠÃ¼berprÃ¼": 8636,
      "Ġcomb": 8637,
      "Ġcombin": 8638,
      "Ġshanghai": 8639,
      "Ġfried": 8640,
      "Ġtee": 8641,
      "Ġatl": 8642,
      "ollar": 8643,
      "Ġdecl": 8644,
      "Ġplus": 8645,
      "Ġplans": 8646,
      "inks": 8647,
      "astic": 8648,
      "Ġvorne": 8649,
      "Ġsaal": 8650,
      "Ġsaved": 8651,
      "Ġdiabet": 8652,
      "ĠprÃ¼": 8653,
      "Ġprime": 8654,
      "ĠgenÃ¼": 8655,
      "oking": 8656,
      "Ġquasi": 8657,
      "Ġgeschwindigkeit": 8658,
      "Ġzeigte": 8659,
      "ĠumstÃ¤n": 8660,
      "Ġorder": 8661,
      "Ġwillst": 8662,
      "endes": 8663,
      "Ġbran": 8664,
      "Ġbrenn": 8665,
      "Ġnachzu": 8666,
      "Ġfebru": 8667,
      "Ġfeiern": 8668,
      "pecially": 8669,
      "Ġrights": 8670,
      "Ġblow": 8671,
      "Ġbless": 8672,
      "ĠgroÃŁvater": 8673,
      "ify": 8674,
      "Ġflat": 8675,
      "ĠflÃ¼ss": 8676,
      "Ġunterschiede": 8677,
      "letz": 8678,
      "ruf": 8679,
      "sely": 8680,
      "Ġperhaps": 8681,
      "from": 8682,
      "Ġletters": 8683,
      "Ġagree": 8684,
      "Ġviet": 8685,
      "Ġram": 8686,
      "Ġscary": 8687,
      "Ġscott": 8688,
      "conne": 8689,
      "Ã¼sse": 8690,
      "ĠmÃ¶glichen": 8691,
      "acle": 8692,
      "Ġclin": 8693,
      "prin": 8694,
      "Ġdrum": 8695,
      "Ġdrug": 8696,
      "Ġdriver": 8697,
      "Ġdifferences": 8698,
      "Ġlieber": 8699,
      "Ġliebst": 8700,
      "Ġprefer": 8701,
      "Ġpregn": 8702,
      "Ġmillenn": 8703,
      "Ġmillimeter": 8704,
      "Ġstarten": 8705,
      "Ġloc": 8706,
      "Ġloch": 8707,
      "Ġhandel": 8708,
      "otherwise": 8709,
      "kommt": 8710,
      "Ġbuck": 8711,
      "Ġspect": 8712,
      "Ġspectr": 8713,
      "Ġ190": 8714,
      "fÃ¼gen": 8715,
      "Ġboys": 8716,
      "Ġindus": 8717,
      "offen": 8718,
      "Ġartists": 8719,
      "Ġadvan": 8720,
      "Ġempt": 8721,
      "unting": 8722,
      "Ġganzes": 8723,
      "ĠgelÃ¤h": 8724,
      "Ġpartn": 8725,
      "Ġklin": 8726,
      "Ġklassen": 8727,
      "Ġsagmeister": 8728,
      "Ġgewicht": 8729,
      "Ġgewann": 8730,
      "Ġverbrechen": 8731,
      "Ġverborgen": 8732,
      "Ġerfol": 8733,
      "Ġanderem": 8734,
      "Ġelements": 8735,
      "Ġeleanor": 8736,
      "gling": 8737,
      "Ġobjekte": 8738,
      "Ġschlagen": 8739,
      "Ġappar": 8740,
      "Ġappre": 8741,
      "Ġapplications": 8742,
      "Ġschwimmen": 8743,
      "Ġmonaten": 8744,
      "Ġdesigns": 8745,
      "Ġdesigners": 8746,
      "Ġantar": 8747,
      "Ġheld": 8748,
      "vorstell": 8749,
      "Ġ55": 8750,
      "ĠzusÃ¤t": 8751,
      "gebÃ¤ude": 8752,
      "ĠâĢ¦": 8753,
      "inson": 8754,
      "Ġstudies": 8755,
      "worth": 8756,
      "Ġwichtiges": 8757,
      "Ġimportance": 8758,
      "Ġbelo": 8759,
      "Ġ45": 8760,
      "Ġ400": 8761,
      "Ġpersonally": 8762,
      "Ġmarathon": 8763,
      "schland": 8764,
      "Ġevening": 8765,
      "dritten": 8766,
      "Ġbefre": 8767,
      "Ġautomat": 8768,
      "Ġcomputing": 8769,
      "Ġcrime": 8770,
      "Ġhalbe": 8771,
      "Ġsuit": 8772,
      "Ġtreten": 8773,
      "ĠweiÃŁen": 8774,
      "Ġfilter": 8775,
      "Ġthroughout": 8776,
      "Ġorganism": 8777,
      "efully": 8778,
      "Ġcreatures": 8779,
      "ĠfÃ¼hrung": 8780,
      "Ġbrow": 8781,
      "bling": 8782,
      "Ġtedx": 8783,
      "Ġfactory": 8784,
      "maÃŁ": 8785,
      "Ġamericans": 8786,
      "Ġentwickelten": 8787,
      "ĠglÃ¼ckliche": 8788,
      "Ġirgendetwas": 8789,
      "Ġpolitische": 8790,
      "Ġexplore": 8791,
      "Ġvisit": 8792,
      "except": 8793,
      "Ġjoy": 8794,
      "Ġjoin": 8795,
      "Ġjoke": 8796,
      "Ġkreieren": 8797,
      "joe": 8798,
      "joey": 8799,
      "Ġurheber": 8800,
      "Ġcareer": 8801,
      "together": 8802,
      "Ġharmon": 8803,
      "ktiven": 8804,
      "ĠÃ¤nderte": 8805,
      "swesen": 8806,
      "Ġsonne": 8807,
      "Ġwaiting": 8808,
      "Ġbildern": 8809,
      "marcus": 8810,
      "Ġgotta": 8811,
      "Ġgottes": 8812,
      "fÃ¼hrung": 8813,
      "Ã¤uscht": 8814,
      "sonst": 8815,
      "Ġnames": 8816,
      "Ġoptions": 8817,
      "Ġgestorben": 8818,
      "uhuh": 8819,
      "Ġebenso": 8820,
      "Ġverschwindet": 8821,
      "ĠfÃ¼hlt": 8822,
      "Ġkarriere": 8823,
      "interess": 8824,
      "Ġsuche": 8825,
      "Ġtrained": 8826,
      "Ġmorality": 8827,
      "Ġmoralische": 8828,
      "ĠerwÃ¤hn": 8829,
      "ĠÃ¼b": 8830,
      "Ġwindow": 8831,
      "Ġhorse": 8832,
      "Ġhormon": 8833,
      "Ġemotionen": 8834,
      "Ġsozusagen": 8835,
      "mole": 8836,
      "Ġbarry": 8837,
      "Ġeingel": 8838,
      "Ġlinear": 8839,
      "Ġsinnvoll": 8840,
      "Ġhilft": 8841,
      "Ġeffekt": 8842,
      "Ġmaterialien": 8843,
      "Ġhundert": 8844,
      "Ġniemanden": 8845,
      "Ġbringing": 8846,
      "Ġwalked": 8847,
      "Ġchoices": 8848,
      "Ġkorallen": 8849,
      "Ġchallenges": 8850,
      "zusammen": 8851,
      "Ġrichtige": 8852,
      "Ġdauerte": 8853,
      "Ġscheinen": 8854,
      "Ġargue": 8855,
      "Ġarguments": 8856,
      "ipping": 8857,
      "gehalten": 8858,
      "Ġbaute": 8859,
      "Ġbrauche": 8860,
      "liebe": 8861,
      "Ġbanker": 8862,
      "ĠhÃ¼b": 8863,
      "Ġfollowing": 8864,
      "musik": 8865,
      "Ġseitdem": 8866,
      "pretty": 8867,
      "ĠÃ¤hnliche": 8868,
      "Ġacade": 8869,
      "ĠlÃ¶cher": 8870,
      "Ġjeff": 8871,
      "Ġneuron": 8872,
      "Ġgesundheitswesen": 8873,
      "Ġeinzelnen": 8874,
      "Ġvolks": 8875,
      "Ġconsumption": 8876,
      "Ġsaturn": 8877,
      "Ġpalm": 8878,
      "Ġwiderstand": 8879,
      "Ġgrandmother": 8880,
      "Ġgrandfather": 8881,
      "Ġimprove": 8882,
      "Ġ1986": 8883,
      "Ġlevels": 8884,
      "Ġjohnson": 8885,
      "Ġsince": 8886,
      "Ġconstruction": 8887,
      "Ġedge": 8888,
      "Ġfasziniert": 8889,
      "Ġstatistics": 8890,
      "ĠaktivitÃ¤t": 8891,
      "ĠtÃ¶ten": 8892,
      "Ġdreams": 8893,
      "Ġsommer": 8894,
      "Ġawesome": 8895,
      "Ġlaws": 8896,
      "ĠbenÃ¶tigen": 8897,
      "person": 8898,
      "Ġdestroy": 8899,
      "Ġstronger": 8900,
      "Ġtitel": 8901,
      "Ġselling": 8902,
      "betrachten": 8903,
      "maschinen": 8904,
      "Ġsummer": 8905,
      "Ġkenia": 8906,
      "Ġspezial": 8907,
      "ĠÃ¼brig": 8908,
      "Ġvorhanden": 8909,
      "ĠunterstÃ¼tzen": 8910,
      "Ġwinzig": 8911,
      "secondly": 8912,
      "Ġdiamonds": 8913,
      "Ġtransportation": 8914,
      "ĠnervÃ¶s": 8915,
      "ueller": 8916,
      "Ġnachhaltig": 8917,
      "Ġaston": 8918,
      "Ġaffect": 8919,
      "Ġmahmoud": 8920,
      "Ġdiscussion": 8921,
      "Ġskept": 8922,
      "Ġaspect": 8923,
      "Ġkorean": 8924,
      "Ġjackson": 8925,
      "Ġbirthday": 8926,
      "Ġvictims": 8927,
      "ĠzerstÃ¶rt": 8928,
      "Ġgespielt": 8929,
      "Ġbombs": 8930,
      "Ġbibliothe": 8931,
      "Ġeventually": 8932,
      "Ġerscheint": 8933,
      "Ġadults": 8934,
      "Ġbenefit": 8935,
      "modell": 8936,
      "Ġkontrollieren": 8937,
      "Ġecosystem": 8938,
      "Ġfemale": 8939,
      "Ġintens": 8940,
      "Ġautomob": 8941,
      "Ġindependent": 8942,
      "Ġrossy": 8943,
      "Ġauswirkungen": 8944,
      "Ġspecific": 8945,
      "Ġeffizient": 8946,
      "Ġrecycling": 8947,
      "Ġunerwartet": 8948,
      "janine": 8949,
      "krieg": 8950,
      "Ġtomorrow": 8951,
      "Ġruhig": 8952,
      "Ġplatform": 8953,
      "wareness": 8954,
      "Ġbescheid": 8955,
      "messer": 8956,
      "Ġnavig": 8957,
      "arthur": 8958,
      "Ġverursacht": 8959,
      "olitik": 8960,
      "ĠermÃ¶glicht": 8961,
      "Ġentfernt": 8962,
      "Ġmedikamente": 8963,
      "ĠdÃ¼rfen": 8964,
      "Ġhamburger": 8965,
      "Ġumgekehr": 8966,
      "Ġprepared": 8967,
      "Ġgrafik": 8968,
      "Ġhawking": 8969,
      "Ġkonflikt": 8970,
      "Ġzipcar": 8971,
      "Ġescape": 8972,
      "ĠbedÃ¼rf": 8973,
      "Ġparalyzed": 8974,
      "Ġexplanation": 8975,
      "Ġexpedition": 8976,
      "normalerweise": 8977,
      "Ġpropaganda": 8978,
      "ĠverÃ¶ffentlicht": 8979,
      "Ġkidding": 8980,
      "global": 8981,
      "Ġappropriate": 8982,
      "Ã¼brigens": 8983,
      "Ġdiabetes": 8984,
      "drittens": 8985,
      "600": 8986,
      "81": 8987,
      "ader": 8988,
      "aid": 8989,
      "bart": 8990,
      "bob": 8991,
      "bauen": 8992,
      "bird": 8993,
      "besch": 8994,
      "blichkeit": 8995,
      "case": 8996,
      "dre": 8997,
      "dest": 8998,
      "dad": 8999,
      "dollar": 9000,
      "eu": 9001,
      "evolution": 9002,
      "evan": 9003,
      "far": 9004,
      "fter": 9005,
      "faces": 9006,
      "gers": 9007,
      "great": 9008,
      "gets": 9009,
      "hom": 9010,
      "hung": 9011,
      "hmen": 9012,
      "hour": 9013,
      "hatt": 9014,
      "hilfe": 9015,
      "iod": 9016,
      "ifen": 9017,
      "ihen": 9018,
      "jing": 9019,
      "junge": 9020,
      "king": 9021,
      "kir": 9022,
      "know": 9023,
      "kosten": 9024,
      "lÃ¼ck": 9025,
      "linge": 9026,
      "lachen": 9027,
      "laden": 9028,
      "mÃ¼": 9029,
      "mik": 9030,
      "mob": 9031,
      "mme": 9032,
      "nel": 9033,
      "nick": 9034,
      "null": 9035,
      "nimm": 9036,
      "ran": 9037,
      "run": 9038,
      "ria": 9039,
      "rics": 9040,
      "sun": 9041,
      "setzt": 9042,
      "suddenly": 9043,
      "tau": 9044,
      "uu": 9045,
      "uits": 9046,
      "vere": 9047,
      "vard": 9048,
      "wol": 9049,
      "wish": 9050,
      "xas": 9051,
      "zut": 9052,
      "zil": 9053,
      "ziemlich": 9054,
      "Ġ+": 9055,
      "Ġos": 9056,
      "Ġing": 9057,
      "Ġutter": 9058,
      "ino": 9059,
      "inno": 9060,
      "inary": 9061,
      "thal": 9062,
      "Ġsier": 9063,
      "Ġsud": 9064,
      "Ġsonder": 9065,
      "Ġsondern": 9066,
      "Ġastr": 9067,
      "Ġaids": 9068,
      "Ġaware": 9069,
      "Ġatem": 9070,
      "Ġaspir": 9071,
      "Ġdys": 9072,
      "Ġdeiner": 9073,
      "Ġdots": 9074,
      "Ġdinner": 9075,
      "ĠwÃ¤hl": 9076,
      "Ġwings": 9077,
      "Ġwald": 9078,
      "Ġid": 9079,
      "Ġii": 9080,
      "Ġille": 9081,
      "esis": 9082,
      "anes": 9083,
      "ansen": 9084,
      "iete": 9085,
      "ieder": 9086,
      "Ġmat": 9087,
      "Ġmmm": 9088,
      "sters": 9089,
      "stadt": 9090,
      "stÃ¤dte": 9091,
      "Ġhide": 9092,
      "Ġhmm": 9093,
      "ĠhieÃŁ": 9094,
      "ĠhÃ¤ufig": 9095,
      "ato": 9096,
      "Ġgle": 9097,
      "Ġgang": 9098,
      "real": 9099,
      "Ġbund": 9100,
      "Ġbone": 9101,
      "Ġbern": 9102,
      "Ġbother": 9103,
      "Ġbunch": 9104,
      "ĠbÃ¶se": 9105,
      "iche": 9106,
      "Ġeg": 9107,
      "Ġeating": 9108,
      "Ġego": 9109,
      "itable": 9110,
      "itarian": 9111,
      "Ġtor": 9112,
      "Ġtall": 9113,
      "Ġtong": 9114,
      "Ġtons": 9115,
      "Ġtatt": 9116,
      "Ġtiss": 9117,
      "oscop": 9118,
      "Ġnom": 9119,
      "Ġnasa": 9120,
      "ouds": 9121,
      "isf": 9122,
      "ishn": 9123,
      "Ġpy": 9124,
      "Ġpor": 9125,
      "Ġpet": 9126,
      "Ġpasst": 9127,
      "Ġpfle": 9128,
      "Ġpeinlich": 9129,
      "Ġcents": 9130,
      "irat": 9131,
      "Ġklet": 9132,
      "Ġkabel": 9133,
      "otic": 9134,
      "Ġveh": 9135,
      "Ġvital": 9136,
      "Ġeindeut": 9137,
      "Ġinj": 9138,
      "Ġokt": 9139,
      "Ġlic": 9140,
      "Ġlying": 9141,
      "Ã¼hren": 9142,
      "Ġanth": 9143,
      "Ġanste": 9144,
      "Ġanzu": 9145,
      "Ġangesch": 9146,
      "usions": 9147,
      "soz": 9148,
      "Ã¤st": 9149,
      "Ġzell": 9150,
      "ĠzunÃ¤chst": 9151,
      "Ġbees": 9152,
      "Ġbeet": 9153,
      "Ġbewir": 9154,
      "Ġbeina": 9155,
      "ĠbeÃ¤ngst": 9156,
      "utze": 9157,
      "etts": 9158,
      "icing": 9159,
      "icide": 9160,
      "icles": 9161,
      "ierungs": 9162,
      "Ġweis": 9163,
      "Ġweather": 9164,
      "Ã¶tet": 9165,
      "weich": 9166,
      "Ġverfolgen": 9167,
      "Ġverzweif": 9168,
      "Ġverteid": 9169,
      "Ġreef": 9170,
      "Ġjur": 9171,
      "Ġjames": 9172,
      "Ġwasch": 9173,
      "emble": 9174,
      "Ġest": 9175,
      "derm": 9176,
      "iment": 9177,
      "Ġunfair": 9178,
      "Ġschmutz": 9179,
      "Ġraten": 9180,
      "ĠrÃ¼cken": 9181,
      "Ġhaie": 9182,
      "Ġerkrank": 9183,
      "genauso": 9184,
      "Ġsoph": 9185,
      "Ġlehre": 9186,
      "Ġalien": 9187,
      "dennis": 9188,
      "verg": 9189,
      "health": 9190,
      "Ġabente": 9191,
      "Ġabspielen": 9192,
      "anny": 9193,
      "Ġsees": 9194,
      "Ġseid": 9195,
      "oops": 9196,
      "Ġforces": 9197,
      "ulated": 9198,
      "ield": 9199,
      "Ġprovid": 9200,
      "Ġpropos": 9201,
      "iban": 9202,
      "uchte": 9203,
      "ĠgeÃ¶ffnet": 9204,
      "Ġgewebe": 9205,
      "ktro": 9206,
      "Ġmeiste": 9207,
      "Ġchest": 9208,
      "Ġchines": 9209,
      "agers": 9210,
      "ustration": 9211,
      "ehrt": 9212,
      "Ġwhatever": 9213,
      "Ġaufnahme": 9214,
      "Ġnovel": 9215,
      "mensch": 9216,
      "menge": 9217,
      "sell": 9218,
      "sechs": 9219,
      "ado": 9220,
      "Ġmoz": 9221,
      "Ġworst": 9222,
      "Ġworum": 9223,
      "Ġarmy": 9224,
      "Ġ1000": 9225,
      "illa": 9226,
      "Ã¤ngen": 9227,
      "Ã¤nglich": 9228,
      "Ġcompl": 9229,
      "Ġcomedy": 9230,
      "Ġhierher": 9231,
      "Ġshoot": 9232,
      "Ġtrig": 9233,
      "Ġtriv": 9234,
      "Ġtrug": 9235,
[...]
