{
  "version": "1.0",
  "truncation": null,
  "padding": null,
  "added_tokens": [
    {
      "id": 0,
      "content": "<eos_de>",
      "single_word": false,
      "lstrip": false,
      "rstrip": false,
      "normalized": false,
      "special": true
    },
    {
      "id": 1,
      "content": "<eos_en>",
      "single_word": false,
      "lstrip": false,
      "rstrip": false,
      "normalized": false,
      "special": true
    },
    {
      "id": 2,
      "content": "<pad>",
      "single_word": false,
      "lstrip": false,
      "rstrip": false,
      "normalized": false,
      "special": true
    }
  ],
  "normalizer": null,
  "pre_tokenizer": {
    "type": "ByteLevel",
    "add_prefix_space": false,
    "trim_offsets": true,
    "use_regex": true
  },
  "post_processor": {
    "type": "ByteLevel",
    "add_prefix_space": true,
    "trim_offsets": false,
    "use_regex": true
  },
  "decoder": {
    "type": "ByteLevel",
    "add_prefix_space": true,
    "trim_offsets": true,
    "use_regex": true
  },
  "model": {
    "type": "BPE",
    "dropout": null,
    "unk_token": null,
    "continuing_subword_prefix": null,
    "end_of_word_suffix": null,
    "fuse_unk": false,
    "byte_fallback": false,
    "vocab": {
      "<eos_de>": 0,
      "<eos_en>": 1,
      "<pad>": 2,
      "!": 3,
      "\"": 4,
      "#": 5,
      "$": 6,
      "%": 7,
      "&": 8,
      "'": 9,
      "(": 10,
      ")": 11,
      "*": 12,
      "+": 13,
      ",": 14,
      "-": 15,
      ".": 16,
      "/": 17,
      "0": 18,
      "1": 19,
      "2": 20,
      "3": 21,
      "4": 22,
      "5": 23,
      "6": 24,
      "7": 25,
      "8": 26,
      "9": 27,
      ":": 28,
      ";": 29,
      "<": 30,
      "=": 31,
      ">": 32,
      "?": 33,
      "@": 34,
      "A": 35,
      "B": 36,
      "C": 37,
      "D": 38,
      "E": 39,
      "F": 40,
      "G": 41,
      "H": 42,
      "I": 43,
      "J": 44,
      "K": 45,
      "L": 46,
      "M": 47,
      "N": 48,
      "O": 49,
      "P": 50,
      "Q": 51,
      "R": 52,
      "S": 53,
      "T": 54,
      "U": 55,
      "V": 56,
      "W": 57,
      "X": 58,
      "Y": 59,
      "Z": 60,
      "[": 61,
      "\\": 62,
      "]": 63,
      "^": 64,
      "_": 65,
      "`": 66,
      "a": 67,
      "b": 68,
      "c": 69,
      "d": 70,
      "e": 71,
      "f": 72,
      "g": 73,
      "h": 74,
      "i": 75,
      "j": 76,
      "k": 77,
      "l": 78,
      "m": 79,
      "n": 80,
      "o": 81,
      "p": 82,
      "q": 83,
      "r": 84,
      "s": 85,
      "t": 86,
      "u": 87,
      "v": 88,
      "w": 89,
      "x": 90,
      "y": 91,
      "z": 92,
      "{": 93,
      "|": 94,
      "}": 95,
      "~": 96,
      "¡": 97,
      "¢": 98,
      "£": 99,
      "¤": 100,
      "¥": 101,
      "¦": 102,
      "§": 103,
      "¨": 104,
      "©": 105,
      "ª": 106,
      "«": 107,
      "¬": 108,
      "®": 109,
      "¯": 110,
      "°": 111,
      "±": 112,
      "²": 113,
      "³": 114,
      "´": 115,
      "µ": 116,
      "¶": 117,
      "·": 118,
      "¸": 119,
      "¹": 120,
      "º": 121,
      "»": 122,
      "¼": 123,
      "½": 124,
      "¾": 125,
      "¿": 126,
      "À": 127,
      "Á": 128,
      "Â": 129,
      "Ã": 130,
      "Ä": 131,
      "Å": 132,
      "Æ": 133,
      "Ç": 134,
      "È": 135,
      "É": 136,
      "Ê": 137,
      "Ë": 138,
      "Ì": 139,
      "Í": 140,
      "Î": 141,
      "Ï": 142,
      "Ð": 143,
      "Ñ": 144,
      "Ò": 145,
      "Ó": 146,
      "Ô": 147,
      "Õ": 148,
      "Ö": 149,
      "×": 150,
      "Ø": 151,
      "Ù": 152,
      "Ú": 153,
      "Û": 154,
      "Ü": 155,
      "Ý": 156,
      "Þ": 157,
      "ß": 158,
      "à": 159,
      "á": 160,
      "â": 161,
      "ã": 162,
      "ä": 163,
      "å": 164,
      "æ": 165,
      "ç": 166,
      "è": 167,
      "é": 168,
      "ê": 169,
      "ë": 170,
      "ì": 171,
      "í": 172,
      "î": 173,
      "ï": 174,
      "ð": 175,
      "ñ": 176,
      "ò": 177,
      "ó": 178,
      "ô": 179,
      "õ": 180,
      "ö": 181,
      "÷": 182,
      "ø": 183,
      "ù": 184,
      "ú": 185,
      "û": 186,
      "ü": 187,
      "ý": 188,
      "þ": 189,
      "ÿ": 190,
      "Ā": 191,
      "ā": 192,
      "Ă": 193,
      "ă": 194,
      "Ą": 195,
      "ą": 196,
      "Ć": 197,
      "ć": 198,
      "Ĉ": 199,
      "ĉ": 200,
      "Ċ": 201,
      "ċ": 202,
      "Č": 203,
      "č": 204,
      "Ď": 205,
      "ď": 206,
      "Đ": 207,
      "đ": 208,
      "Ē": 209,
      "ē": 210,
      "Ĕ": 211,
      "ĕ": 212,
      "Ė": 213,
      "ė": 214,
      "Ę": 215,
      "ę": 216,
      "Ě": 217,
      "ě": 218,
      "Ĝ": 219,
      "ĝ": 220,
      "Ğ": 221,
      "ğ": 222,
      "Ġ": 223,
      "ġ": 224,
      "Ģ": 225,
      "ģ": 226,
      "Ĥ": 227,
      "ĥ": 228,
      "Ħ": 229,
      "ħ": 230,
      "Ĩ": 231,
      "ĩ": 232,
      "Ī": 233,
      "ī": 234,
      "Ĭ": 235,
      "ĭ": 236,
      "Į": 237,
      "į": 238,
      "İ": 239,
      "ı": 240,
      "Ĳ": 241,
      "ĳ": 242,
      "Ĵ": 243,
      "ĵ": 244,
      "Ķ": 245,
      "ķ": 246,
      "ĸ": 247,
      "Ĺ": 248,
      "ĺ": 249,
      "Ļ": 250,
      "ļ": 251,
      "Ľ": 252,
      "ľ": 253,
      "Ŀ": 254,
      "ŀ": 255,
      "Ł": 256,
      "ł": 257,
      "Ń": 258,
      "en": 259,
      "er": 260,
      "in": 261,
      "Ġt": 262,
      "Ġa": 263,
      "Ġ,": 264,
      "Ġd": 265,
      "ch": 266,
      "Ġs": 267,
      "Ġw": 268,
      "Ġ.": 269,
      "Ġth": 270,
      "es": 271,
      "Ġi": 272,
      "nd": 273,
      "ie": 274,
      "Ġm": 275,
      "Ġb": 276,
      "on": 277,
      "at": 278,
      "Ġh": 279,
      "re": 280,
      "st": 281,
      "Ġe": 282,
      "an": 283,
      "Ġg": 284,
      "Ġthe": 285,
      "Ġo": 286,
      "it": 287,
      "as": 288,
      "Ġf": 289,
      "Ġu": 290,
      "le": 291,
      "Ġp": 292,
      "ich": 293,
      "Ġ&": 294,
      "Ġin": 295,
      "ou": 296,
      "Ġn": 297,
      "ll": 298,
      "ar": 299,
      "or": 300,
      "ing": 301,
      "os": 302,
      "Ġc": 303,
      "Ġv": 304,
      "is": 305,
      "Ġk": 306,
      "ap": 307,
      "te": 308,
      "Ġein": 309,
      "Ġto": 310,
      "Ġl": 311,
      "ot": 312,
      "al": 313,
      "ir": 314,
      "apos": 315,
      "om": 316,
      "Ġof": 317,
      "Ã¼": 318,
      "Ġbe": 319,
      "ig": 320,
      "Ġz": 321,
      "Ġand": 322,
      "Ġdie": 323,
      "un": 324,
      "Ġund": 325,
      "ut": 326,
      "ed": 327,
      "Ġwe": 328,
      "ion": 329,
      "ent": 330,
      "Ġdas": 331,
      "and": 332,
      "us": 333,
      "Ã¤": 334,
      "Ġy": 335,
      "ur": 336,
      "Ġthat": 337,
      "Ġha": 338,
      "th": 339,
      "qu": 340,
      "em": 341,
      "ro": 342,
      "el": 343,
      "Ġsie": 344,
      "ere": 345,
      "Ġyou": 346,
      "Ġit": 347,
      "Ġan": 348,
      "ic": 349,
      "ten": 350,
      "Ã¶": 351,
      "Ġder": 352,
      "ve": 353,
      "Ġse": 354,
      "Ġdi": 355,
      "de": 356,
      "il": 357,
      "am": 358,
      "Ġwir": 359,
      "Ġre": 360,
      "Ġzu": 361,
      "quot": 362,
      "hr": 363,
      "Ġwh": 364,
      "Ġis": 365,
      "Ġj": 366,
      "Ġist": 367,
      "icht": 368,
      "ow": 369,
      "ach": 370,
      "Ġver": 371,
      "Ġun": 372,
      "et": 373,
      "und": 374,
      "ag": 375,
      "Ġso": 376,
      "ben": 377,
      "Ġst": 378,
      "ung": 379,
      "Ġes": 380,
      "ind": 381,
      "ier": 382,
      "sch": 383,
      "ber": 384,
      "lich": 385,
      "ke": 386,
      "ol": 387,
      "Ġer": 388,
      "Ġal": 389,
      "uf": 390,
      "Ġon": 391,
      "Ġich": 392,
      "ct": 393,
      "ay": 394,
      "ter": 395,
      "all": 396,
      "Ġwas": 397,
      "Ġr": 398,
      "im": 399,
      "ver": 400,
      "Ġsch": 401,
      "Ġle": 402,
      "Ġdies": 403,
      "op": 404,
      "den": 405,
      "be": 406,
      "Ġ-": 407,
      "ge": 408,
      "Ġge": 409,
      "Ġden": 410,
      "ein": 411,
      "Ã¼r": 412,
      "au": 413,
      "nen": 414,
      "Ġthis": 415,
      "Ġfor": 416,
      "Ġvon": 417,
      "der": 418,
      "Ġ--": 419,
      "ck": 420,
      "we": 421,
      "ld": 422,
      "Ġnicht": 423,
      "so": 424,
      "Ġeine": 425,
      "um": 426,
      "Ġdass": 427,
      "Ġab": 428,
      "ation": 429,
      "ce": 430,
      "Ġpro": 431,
      "Ġim": 432,
      "ann": 433,
      "gen": 434,
      "Ġmit": 435,
      "Ġauf": 436,
      "uch": 437,
      "ht": 438,
      "Ġwie": 439,
      "Ġthey": 440,
      "sen": 441,
      "Ġar": 442,
      "Ġ?": 443,
      "hen": 444,
      "ist": 445,
      "Ġare": 446,
      "Ġdo": 447,
      "ome": 448,
      "se": 449,
      "ul": 450,
      "Ġman": 451,
      "Ġall": 452,
      "Ġne": 453,
      "he": 454,
      "Ġfr": 455,
      "Ġgo": 456,
      "men": 457,
      "Ġsich": 458,
      "est": 459,
      "ally": 460,
      "Ġmo": 461,
      "Ġme": 462,
      "Ġli": 463,
      "Ġsp": 464,
      "enn": 465,
      "ith": 466,
      "Ġhave": 467,
      "isch": 468,
      "kt": 469,
      "Ġhe": 470,
      "id": 471,
      "ly": 472,
      "Ġas": 473,
      "Ġuns": 474,
      "Ġhaben": 475,
      "ad": 476,
      "ff": 477,
      "Ġor": 478,
      "aus": 479,
      "ese": 480,
      "Ġ:": 481,
      "Ġaus": 482,
      "Ġwith": 483,
      "ess": 484,
      "Ġch": 485,
      "Ġwor": 486,
      "Ã¶n": 487,
      "Ġih": 488,
      "ÃŁ": 489,
      "Ġex": 490,
      "Ġat": 491,
      "ib": 492,
      "Ġwar": 493,
      "Ġsind": 494,
      "ant": 495,
      "ill": 496,
      "ust": 497,
      "Ġcan": 498,
      "ĠfÃ¼r": 499,
      "ould": 500,
      "ok": 501,
      "Ã¼ber": 502,
      "Ġtr": 503,
      "ern": 504,
      "Ġte": 505,
      "Ġpe": 506,
      "iel": 507,
      "Ġum": 508,
      "out": 509,
      "Ġwhat": 510,
      "now": 511,
      "ĠkÃ¶n": 512,
      "ers": 513,
      "ft": 514,
      "ze": 515,
      "ople": 516,
      "the": 517,
      "Ġnot": 518,
      "Ġsome": 519,
      "Ġgr": 520,
      "00": 521,
      "Ġdem": 522,
      "ste": 523,
      "Ġ1": 524,
      "ies": 525,
      "Ġpeople": 526,
      "Ġcom": 527,
      "Ġda": 528,
      "ahr": 529,
      "Ġdes": 530,
      "ab": 531,
      "ort": 532,
      "ien": 533,
      "art": 534,
      "Ġabout": 535,
      "mer": 536,
      "Ġhat": 537,
      "Ġwer": 538,
      "ne": 539,
      "hl": 540,
      "Ġthere": 541,
      "od": 542,
      "end": 543,
      "ight": 544,
      "Ġdiese": 545,
      "Ġone": 546,
      "iv": 547,
      "ink": 548,
      "Ġwenn": 549,
      "Ġlo": 550,
      "âĢ": 551,
      "ĠâĢ": 552,
      "Ġals": 553,
      "zen": 554,
      "ĠÃ¼ber": 555,
      "Ġpl": 556,
      "her": 557,
      "Ġbr": 558,
      "Ġmen": 559,
      "Ġent": 560,
      "Ġma": 561,
      "ine": 562,
      "Ġvor": 563,
      "igen": 564,
      "ik": 565,
      "Ġwo": 566,
      "Ġno": 567,
      "Ġges": 568,
      "Ġde": 569,
      "llen": 570,
      "Ġfrom": 571,
      "wir": 572,
      "Ġsh": 573,
      "Ġthem": 574,
      "ive": 575,
      "ast": 576,
      "sie": 577,
      "Ġlike": 578,
      "ĠâĢĵ": 579,
      "Ġpr": 580,
      "ute": 581,
      "if": 582,
      "ure": 583,
      "Ġoder": 584,
      "ĠkÃ¶nnen": 585,
      "Ġeinen": 586,
      "Ġmy": 587,
      "Ġus": 588,
      "iert": 589,
      "ang": 590,
      "ity": 591,
      "ieren": 592,
      "Ġbut": 593,
      "og": 594,
      "Ġvery": 595,
      "Ġmensch": 596,
      "Ġget": 597,
      "Ġsag": 598,
      "Ġjust": 599,
      "Ġ2": 600,
      "Ġze": 601,
      "ain": 602,
      "was": 603,
      "das": 604,
      "ack": 605,
      "Ġthese": 606,
      "oug": 607,
      "ound": 608,
      "ate": 609,
      "Ġbec": 610,
      "ken": 611,
      "Ġthink": 612,
      "Ġher": 613,
      "Ġdar": 614,
      "Ġbl": 615,
      "Ġour": 616,
      "Ġout": 617,
      "Ġcon": 618,
      "ide": 619,
      "Ġen": 620,
      "Ġwerden": 621,
      "Ġsa": 622,
      "Ġif": 623,
      "Ġet": 624,
      "ther": 625,
      "per": 626,
      "Ġaber": 627,
      "ild": 628,
      "but": 629,
      "tr": 630,
      "ause": 631,
      "ass": 632,
      "Ġmach": 633,
      "Ġby": 634,
      "eine": 635,
      "Ġnach": 636,
      "Ġact": 637,
      "Ġgen": 638,
      "Ġkind": 639,
      "Ġalso": 640,
      "Ġauch": 641,
      "Ġsein": 642,
      "Ġgoing": 643,
      "Ġste": 644,
      "Ġup": 645,
      "ip": 646,
      "Ġthing": 647,
      "Ġeiner": 648,
      "Ġever": 649,
      "our": 650,
      "Ġknow": 651,
      "Ġwel": 652,
      "age": 653,
      "Ġihr": 654,
      "lem": 655,
      "Ġmenschen": 656,
      "Ġtheir": 657,
      "ars": 658,
      "Ġwould": 659,
      "zt": 660,
      "pe": 661,
      "ose": 662,
      "sten": 663,
      "ted": 664,
      "ige": 665,
      "ick": 666,
      "act": 667,
      "ren": 668,
      "ibt": 669,
      "scha": 670,
      "iz": 671,
      "Ġhad": 672,
      "Ġwho": 673,
      "Ġfe": 674,
      "br": 675,
      "one": 676,
      "to": 677,
      "Ġco": 678,
      "aber": 679,
      "fe": 680,
      "ite": 681,
      "Ã¤t": 682,
      "Ġsee": 683,
      "Ġsehr": 684,
      "ungen": 685,
      "Ġinter": 686,
      "thing": 687,
      "Ġrel": 688,
      "Ġtim": 689,
      "Ġhow": 690,
      "Ġgro": 691,
      "ĠmÃ¶": 692,
      "Ġye": 693,
      "urch": 694,
      "Ġnur": 695,
      "Ġwork": 696,
      "Ġkann": 697,
      "Ġcomp": 698,
      "Ġbecause": 699,
      "ud": 700,
      "Ġwere": 701,
      "Ġway": 702,
      "ah": 703,
      "Ġdr": 704,
      "Ġviel": 705,
      "issen": 706,
      "iver": 707,
      "ischen": 708,
      "Ġihnen": 709,
      "Ġetwas": 710,
      "Ġdann": 711,
      "Ġbo": 712,
      "Ġevery": 713,
      "Ġqu": 714,
      "chen": 715,
      "ard": 716,
      "Ġkom": 717,
      "Ġam": 718,
      "Ġjed": 719,
      "gr": 720,
      "ert": 721,
      "Ġihre": 722,
      "Ġeinem": 723,
      "Ġwhen": 724,
      "Ġprob": 725,
      "du": 726,
      "Ġgibt": 727,
      "itt": 728,
      "Ġunter": 729,
      "olog": 730,
      "ually": 731,
      "Ġreally": 732,
      "Ġmus": 733,
      "pen": 734,
      "Ġwird": 735,
      "keit": 736,
      "for": 737,
      "eren": 738,
      "ions": 739,
      "ial": 740,
      "Ġpo": 741,
      "ous": 742,
      "led": 743,
      "ise": 744,
      "are": 745,
      "ace": 746,
      "ph": 747,
      "wo": 748,
      "beit": 749,
      "Ġhier": 750,
      "ans": 751,
      "pl": 752,
      "Ġph": 753,
      "ame": 754,
      "ak": 755,
      "Ġyour": 756,
      "pt": 757,
      "Ġhabe": 758,
      "zu": 759,
      "Ġinto": 760,
      "Ġdurch": 761,
      "Ġwur": 762,
      "Ġper": 763,
      "Ġdieser": 764,
      "ĠwÃ¼r": 765,
      "Ġworld": 766,
      "die": 767,
      "ign": 768,
      "heit": 769,
      "ough": 770,
      "Ġtime": 771,
      "Ġdon": 772,
      "Ġsc": 773,
      "Ġother": 774,
      "Ġalle": 775,
      "Ġmore": 776,
      "Ġgl": 777,
      "Ã¤ch": 778,
      "auf": 779,
      "Ġrelig": 780,
      "Ġwelt": 781,
      "pr": 782,
      "Ã¼ck": 783,
      "ater": 784,
      "this": 785,
      "Ġro": 786,
      "Ġsehen": 787,
      "Ġjahr": 788,
      "Ġthen": 789,
      "ank": 790,
      "ents": 791,
      "Ġart": 792,
      "Ġactually": 793,
      "ue": 794,
      "Ġkon": 795,
      "als": 796,
      "ult": 797,
      "Ġwissen": 798,
      "Ã¤n": 799,
      "schaft": 800,
      "Ġwill": 801,
      "Ġev": 802,
      "Ġbes": 803,
      "Ġgan": 804,
      "Ġbeg": 805,
      "etzt": 806,
      "Ġmein": 807,
      "Ġproblem": 808,
      "ub": 809,
      "Ġlook": 810,
      "Ġag": 811,
      "Ġbi": 812,
      "Ġhas": 813,
      "Ġcl": 814,
      "Ġwhich": 815,
      "Ġsay": 816,
      "auen": 817,
      "Ġgesch": 818,
      "hn": 819,
      "yst": 820,
      "sel": 821,
      "red": 822,
      "they": 823,
      "ac": 824,
      "Ġshe": 825,
      "Ġzwe": 826,
      "Ġstr": 827,
      "Ġleben": 828,
      "Ġthings": 829,
      "reat": 830,
      "Ġnoch": 831,
      "aut": 832,
      "Ġschw": 833,
      "ong": 834,
      "Ġnat": 835,
      "inge": 836,
      "ical": 837,
      "Ġdid": 838,
      "lichen": 839,
      "Ġarbeit": 840,
      "je": 841,
      "Ġvie": 842,
      "Ġexper": 843,
      "ystem": 844,
      "Ġide": 845,
      "Ġhere": 846,
      "Ġfl": 847,
      "Ġcould": 848,
      "Ġkl": 849,
      "Ã¤nd": 850,
      "Ã¶r": 851,
      "Ġdis": 852,
      "ommen": 853,
      "Ġsomething": 854,
      "ia": 855,
      "Ġpart": 856,
      "Ġnow": 857,
      "Ġmill": 858,
      "Ġeinf": 859,
      "Ġbei": 860,
      "Ġzur": 861,
      "Ġmachen": 862,
      "ĠgroÃŁ": 863,
      "Ġsel": 864,
      "Ġwant": 865,
      "Ġob": 866,
      "Ġyears": 867,
      "up": 868,
      "ische": 869,
      "ug": 870,
      "alk": 871,
      "klich": 872,
      "Ġwhere": 873,
      "Ġmake": 874,
      "Ġta": 875,
      "Ġbeen": 876,
      "chn": 877,
      "Ġmich": 878,
      "Ġhin": 879,
      "Ġgem": 880,
      "Ġwirklich": 881,
      "Ġvers": 882,
      "liche": 883,
      "Ġzeit": 884,
      "Ġho": 885,
      "Ġany": 886,
      "agen": 887,
      "ore": 888,
      "wenn": 889,
      "inn": 890,
      "Ġir": 891,
      "Ġfir": 892,
      "Ġac": 893,
      "iter": 894,
      "Ġins": 895,
      "Ġuniver": 896,
      "Ġsaid": 897,
      "assen": 898,
      "Ġleute": 899,
      "Ġnew": 900,
      "Ġdiff": 901,
      "Ġ;": 902,
      "Ġtwo": 903,
      "Ġmehr": 904,
      "ionen": 905,
      "mal": 906,
      "co": 907,
      "ats": 908,
      "Ã¤hr": 909,
      "Ġeinfach": 910,
      "Ġind": 911,
      "ingen": 912,
      "Ġdieses": 913,
      "hal": 914,
      "chte": 915,
      "Ġbu": 916,
      "elt": 917,
      "Ġspe": 918,
      "fl": 919,
      "Ġpar": 920,
      "amp": 921,
      "fÃ¼": 922,
      "wh": 923,
      "erst": 924,
      "ath": 925,
      "Ġgot": 926,
      "Ġover": 927,
      "Ġlet": 928,
      "ile": 929,
      "me": 930,
      "ves": 931,
      "Ġthose": 932,
      "che": 933,
      "Ã¼s": 934,
      "you": 935,
      "Ġmir": 936,
      "ition": 937,
      "Ġkle": 938,
      "Ã¼n": 939,
      "own": 940,
      "acht": 941,
      "Ġimp": 942,
      "Ġwurde": 943,
      "mt": 944,
      "Ġprodu": 945,
      "isten": 946,
      "fen": 947,
      "wn": 948,
      "Ġkeine": 949,
      "ĠkÃ¶nn": 950,
      "ges": 951,
      "Ġandere": 952,
      "Ġneed": 953,
      "Ġunser": 954,
      "Ġtechn": 955,
      "Ġbest": 956,
      "oss": 957,
      "Ġzus": 958,
      "000": 959,
      "ĠwÃ¼rde": 960,
      "Ġad": 961,
      "Ġmuch": 962,
      "ungs": 963,
      "ffen": 964,
      "ittle": 965,
      "Ġfirst": 966,
      "Ġtun": 967,
      "oun": 968,
      "Ġsoll": 969,
      "Ġlittle": 970,
      "other": 971,
      "ammen": 972,
      "Ġjetzt": 973,
      "bst": 974,
      "lie": 975,
      "Ġdinge": 976,
      "cht": 977,
      "gan": 978,
      "ment": 979,
      "Ġhand": 980,
      "Ġlie": 981,
      "Ġzwei": 982,
      "Ġsystem": 983,
      "rei": 984,
      "Ġgut": 985,
      "ations": 986,
      "form": 987,
      "Ġmed": 988,
      "ated": 989,
      "ree": 990,
      "Ġpers": 991,
      "Ġgew": 992,
      "Ġmost": 993,
      "Ġsagen": 994,
      "bod": 995,
      "int": 996,
      "Ġhap": 997,
      "Ġcal": 998,
      "Ã¤r": 999,
      "Ġstud": 1000,
      "Ġunsere": 1001,
      "Ġdav": 1002,
      "dies": 1003,
      "ser": 1004,
      "way": 1005,
      "Ġday": 1006,
      "Ġdown": 1007,
      "Ġmay": 1008,
      "Ġbis": 1009,
      "Ġput": 1010,
      "Ġcar": 1011,
      "Ġaround": 1012,
      "ger": 1013,
      "ient": 1014,
      "ob": 1015,
      "Ġhis": 1016,
      "leicht": 1017,
      "Ġright": 1018,
      "Ġwieder": 1019,
      "Ġzusammen": 1020,
      "glich": 1021,
      "les": 1022,
      "Ġaut": 1023,
      "Ġhel": 1024,
      "Ġem": 1025,
      "Ġsagte": 1026,
      "kommen": 1027,
      "ler": 1028,
      "Ġdam": 1029,
      "also": 1030,
      "Ġbef": 1031,
      "igt": 1032,
      "Ġger": 1033,
      "ary": 1034,
      "Ġeines": 1035,
      "Ġwell": 1036,
      "ichtig": 1037,
      "Ġres": 1038,
      "Ġgood": 1039,
      "Ġcomm": 1040,
      "Ġbook": 1041,
      "ving": 1042,
      "ution": 1043,
      "Ġweil": 1044,
      "Ġimmer": 1045,
      "Ġentw": 1046,
      "gt": 1047,
      "Ġbig": 1048,
      "Ġel": 1049,
      "Ġgel": 1050,
      "igkeit": 1051,
      "Ġgeh": 1052,
      "Ġeven": 1053,
      "cent": 1054,
      "man": 1055,
      "oll": 1056,
      "rie": 1057,
      "rough": 1058,
      "Ġtalk": 1059,
      "Ã¤re": 1060,
      "ought": 1061,
      "Ġselbst": 1062,
      "Ġ3": 1063,
      "Ġmon": 1064,
      "aten": 1065,
      "eln": 1066,
      "hmen": 1067,
      "Ġhum": 1068,
      "Ġfind": 1069,
      "ory": 1070,
      "ish": 1071,
      "Ġbeing": 1072,
      "ular": 1073,
      "Ġlot": 1074,
      "Ġlight": 1075,
      "unkt": 1076,
      "schie": 1077,
      "Ġdenn": 1078,
      "Ġalles": 1079,
      "Ġ19": 1080,
      "ved": 1081,
      "ys": 1082,
      "Ġthrough": 1083,
      "ĠmÃ¼s": 1084,
      "str": 1085,
      "Ġfact": 1086,
      "ism": 1087,
      "achte": 1088,
      "Ġverb": 1089,
      "Ġstar": 1090,
      "Ġdiesen": 1091,
      "able": 1092,
      "Ġjahren": 1093,
      "Ġtake": 1094,
      "ep": 1095,
      "Ġamer": 1096,
      "Ġback": 1097,
      "Ġfam": 1098,
      "Ġzum": 1099,
      "unden": 1100,
      "Ġwaren": 1101,
      "ful": 1102,
      "net": 1103,
      "wer": 1104,
      "ichen": 1105,
      "Ġsol": 1106,
      "Ġhatte": 1107,
      "Ġmar": 1108,
      "Ġkein": 1109,
      "Ġdiesem": 1110,
      "Ġdoing": 1111,
      "Ġdesign": 1112,
      "Ġglau": 1113,
      "ance": 1114,
      "Ġteil": 1115,
      "erent": 1116,
      "Ġbit": 1117,
      "Ġhal": 1118,
      "omen": 1119,
      "ice": 1120,
      "aum": 1121,
      "ists": 1122,
      "hlen": 1123,
      "Ġdifferent": 1124,
      "Ġdamit": 1125,
      "Ġfamil": 1126,
      "fer": 1127,
      "ange": 1128,
      "Ġpa": 1129,
      "Ġpass": 1130,
      "Ġanderen": 1131,
      "Ġviele": 1132,
      "vel": 1133,
      "Ġland": 1134,
      "there": 1135,
      "Ġchild": 1136,
      "Ġganz": 1137,
      "ma": 1138,
      "ple": 1139,
      "vor": 1140,
      "Ġwen": 1141,
      "ons": 1142,
      "ĠfÃ¼": 1143,
      "ichte": 1144,
      "ction": 1145,
      "ĠmÃ¶chte": 1146,
      "gel": 1147,
      "pro": 1148,
      "Ġbas": 1149,
      "Ġear": 1150,
      "Ġown": 1151,
      "osph": 1152,
      "Ġbet": 1153,
      "that": 1154,
      "ying": 1155,
      "cher": 1156,
      "iem": 1157,
      "Ġko": 1158,
      "iger": 1159,
      "ience": 1160,
      "ubl": 1161,
      "body": 1162,
      "ĠmÃ¼ssen": 1163,
      "ting": 1164,
      "Ġbewe": 1165,
      "ically": 1166,
      "Ġreal": 1167,
      "Ġonly": 1168,
      "Ġable": 1169,
      "ible": 1170,
      "Ġkinder": 1171,
      "Ġhappen": 1172,
      "Ġdavon": 1173,
      "fr": 1174,
      "Ġmal": 1175,
      "Ġmeine": 1176,
      "Ġfre": 1177,
      "ors": 1178,
      "Ġcol": 1179,
      "Ġstart": 1180,
      "Ġform": 1181,
      "ationen": 1182,
      "Ġlife": 1183,
      "Ġgrund": 1184,
      "Ġ20": 1185,
      "Ġheraus": 1186,
      "Ġunivers": 1187,
      "ale": 1188,
      "ri": 1189,
      "Ġpre": 1190,
      "ĠlÃ¶": 1191,
      "Ġlang": 1192,
      "Ġweiter": 1193,
      "bei": 1194,
      "Ġperson": 1195,
      "ire": 1196,
      "Ġsur": 1197,
      "Ġthan": 1198,
      "att": 1199,
      "angen": 1200,
      "Ġfo": 1201,
      "Ġcr": 1202,
      "rop": 1203,
      "ely": 1204,
      "ope": 1205,
      "Ġshow": 1206,
      "ject": 1207,
      "ade": 1208,
      "Ġbin": 1209,
      "ĠhÃ¶": 1210,
      "Ġeigen": 1211,
      "Ġcome": 1212,
      "Ġkr": 1213,
      "urn": 1214,
      "Ġerf": 1215,
      "gend": 1216,
      "Ġvielleicht": 1217,
      "iÃŁ": 1218,
      "ious": 1219,
      "Ġbeh": 1220,
      "Ġmany": 1221,
      "Ġshould": 1222,
      "ahre": 1223,
      "nis": 1224,
      "off": 1225,
      "ual": 1226,
      "Ġtats": 1227,
      "Ġpaar": 1228,
      "uc": 1229,
      "Ġmin": 1230,
      "llt": 1231,
      "Ġhall": 1232,
      "cken": 1233,
      "ants": 1234,
      "Ġexperim": 1235,
      "nun": 1236,
      "Ġpol": 1237,
      "omet": 1238,
      "Ġimag": 1239,
      "Ġplan": 1240,
      "ĠmÃ¶glich": 1241,
      "Ã¤chlich": 1242,
      "Ġversuch": 1243,
      "Ġihren": 1244,
      "Ġihrer": 1245,
      "Ġtechnolog": 1246,
      "ium": 1247,
      "ts": 1248,
      "vol": 1249,
      "Ġbere": 1250,
      "anc": 1251,
      "arn": 1252,
      "ork": 1253,
      "orn": 1254,
      "Ġlicht": 1255,
      "Ã¤s": 1256,
      "geb": 1257,
      "Ġgehen": 1258,
      "Ġdoll": 1259,
      "Ġagain": 1260,
      "Ġklein": 1261,
      "Ġbefore": 1262,
      "gl": 1263,
      "zent": 1264,
      "Ġsort": 1265,
      "Ġoh": 1266,
      "itÃ¤t": 1267,
      "amm": 1268,
      "Ġreg": 1269,
      "Ġgef": 1270,
      "Ġgeht": 1271,
      "Ġ10": 1272,
      "Ġ200": 1273,
      "Ġentwick": 1274,
      "ian": 1275,
      "Ġau": 1276,
      "Ġnut": 1277,
      "Ġdoes": 1278,
      "Ġhatten": 1279,
      "Ġmuss": 1280,
      "hing": 1281,
      "mit": 1282,
      "sp": 1283,
      "xt": 1284,
      "onom": 1285,
      "ating": 1286,
      "Ġgu": 1287,
      "Ġgle": 1288,
      "tern": 1289,
      "flan": 1290,
      "Ġimport": 1291,
      "Ġend": 1292,
      "esen": 1293,
      "Ġvis": 1294,
      "alth": 1295,
      "ĠdarÃ¼ber": 1296,
      "Ġbuild": 1297,
      "lle": 1298,
      "Ġsm": 1299,
      "Ġmom": 1300,
      "Ġeinige": 1301,
      "Ġjahre": 1302,
      "Ġgeb": 1303,
      "Ġask": 1304,
      "Ġorgan": 1305,
      "ÃŁen": 1306,
      "stellen": 1307,
      "Ġkonn": 1308,
      "self": 1309,
      "ĠkÃ¶nnte": 1310,
      "Ġcalled": 1311,
      "af": 1312,
      "bo": 1313,
      "iden": 1314,
      "Ġter": 1315,
      "Ġtag": 1316,
      "Ġsound": 1317,
      "Ġthought": 1318,
      "Ġbuch": 1319,
      "ather": 1320,
      "Ġec": 1321,
      "Ġnun": 1322,
      "unk": 1323,
      "uten": 1324,
      "amen": 1325,
      "Ġsoc": 1326,
      "Ġfeel": 1327,
      "cr": 1328,
      "ĠbÃ¼": 1329,
      "Ġhim": 1330,
      "stand": 1331,
      "iten": 1332,
      "hren": 1333,
      "Ġja": 1334,
      "achten": 1335,
      "Ġverste": 1336,
      "Ġdenke": 1337,
      "Ġgenau": 1338,
      "Ġpoint": 1339,
      "ĠnatÃ¼r": 1340,
      "Ġcommun": 1341,
      "Ġhuman": 1342,
      "mo": 1343,
      "ty": 1344,
      "ennen": 1345,
      "Ġap": 1346,
      "Ġsen": 1347,
      "Ġgese": 1348,
      "ase": 1349,
      "Ġfin": 1350,
      "Ġinc": 1351,
      "ord": 1352,
      "Ġcoun": 1353,
      "Ġvide": 1354,
      "Ġzw": 1355,
      "Ġanother": 1356,
      "ienen": 1357,
      "Ġpercent": 1358,
      "halten": 1359,
      "50": 1360,
      "bar": 1361,
      "cess": 1362,
      "di": 1363,
      "fÃ¼r": 1364,
      "ven": 1365,
      "yr": 1366,
      "Ġwichtig": 1367,
      "Ġnet": 1368,
      "Ġcent": 1369,
      "Ġke": 1370,
      "Ġoff": 1371,
      "Ġbede": 1372,
      "Ġrep": 1373,
      "Ġverl": 1374,
      "old": 1375,
      "Ġlearn": 1376,
      "Ġabs": 1377,
      "Ġmade": 1378,
      "Ġnatur": 1379,
      "Ġimportant": 1380,
      "akt": 1381,
      "zel": 1382,
      "Ġwahr": 1383,
      "Ġinte": 1384,
      "oren": 1385,
      "det": 1386,
      "Ġgeben": 1387,
      "Ġihn": 1388,
      "ĠgrÃ¶": 1389,
      "Ġlove": 1390,
      "ĠwÃ¼rden": 1391,
      "Ġreligion": 1392,
      "Ġschwar": 1393,
      "Ġidea": 1394,
      "Ġmillion": 1395,
      "ĠtatsÃ¤chlich": 1396,
      "flanzen": 1397,
      "nam": 1398,
      "Ġ4": 1399,
      "ĠÃ¶": 1400,
      "Ġdort": 1401,
      "Ġgive": 1402,
      "Ġlong": 1403,
      "Ġunderst": 1404,
      "ement": 1405,
      "ict": 1406,
      "Ġjo": 1407,
      "Ġschl": 1408,
      "Ġmean": 1409,
      "ids": 1410,
      "Ġbiosph": 1411,
      "ĠzurÃ¼ck": 1412,
      "ock": 1413,
      "wa": 1414,
      "Ġber": 1415,
      "ities": 1416,
      "Ã¤h": 1417,
      "ower": 1418,
      "Ġgegen": 1419,
      "Ġdenken": 1420,
      "Ġgener": 1421,
      "Ġdidn": 1422,
      "gar": 1423,
      "ull": 1424,
      "Ġturn": 1425,
      "Ġwent": 1426,
      "ĠhÃ¤t": 1427,
      "Ġgreat": 1428,
      "itu": 1429,
      "Ġinst": 1430,
      "Ġcall": 1431,
      "iss": 1432,
      "room": 1433,
      "Ġdire": 1434,
      "Ġschon": 1435,
      "Ġbring": 1436,
      "Ġphil": 1437,
      "Ġwissenschaft": 1438,
      "fÃ¼hl": 1439,
      "Ġhelp": 1440,
      "bl": 1441,
      "dr": 1442,
      "no": 1443,
      "Ġthree": 1444,
      "Ġmath": 1445,
      "tet": 1446,
      "ache": 1447,
      "ierte": 1448,
      "cept": 1449,
      "Ġbrau": 1450,
      "Ġyear": 1451,
      "cover": 1452,
      "des": 1453,
      "ix": 1454,
      "top": 1455,
      "zin": 1456,
      "Ġaf": 1457,
      "Ġwr": 1458,
      "Ġid": 1459,
      "Ġben": 1460,
      "ont": 1461,
      "Ġfound": 1462,
      "Ġlast": 1463,
      "uss": 1464,
      "Ġsond": 1465,
      "Ġerk": 1466,
      "ational": 1467,
      "Ġtell": 1468,
      "Ġmak": 1469,
      "Ġblack": 1470,
      "Ġquest": 1471,
      "Ġjeder": 1472,
      "ĠgrÃ¶ÃŁ": 1473,
      "Ġunderstand": 1474,
      "ave": 1475,
      "bt": 1476,
      "ize": 1477,
      "zten": 1478,
      "ins": 1479,
      "Ġsame": 1480,
      "Ġsub": 1481,
      "Ġmight": 1482,
      "atch": 1483,
      "anth": 1484,
      "Ġfil": 1485,
      "teil": 1486,
      "igent": 1487,
      "Ġweg": 1488,
      "Ġrec": 1489,
      "under": 1490,
      "Ġgrow": 1491,
      "Ġgeschichte": 1492,
      "Ġgemein": 1493,
      "Ã¤hrend": 1494,
      "Ġmoment": 1495,
      "diese": 1496,
      "na": 1497,
      "ond": 1498,
      "ry": 1499,
      "rom": 1500,
      "wie": 1501,
      "ines": 1502,
      "Ġsim": 1503,
      "its": 1504,
      "ital": 1505,
      "Ġfall": 1506,
      "Ġinform": 1507,
      "Ġbek": 1508,
      "Ġbeaut": 1509,
      "igh": 1510,
      "Ġseine": 1511,
      "Ġsoz": 1512,
      "Ġerst": 1513,
      "Ġneu": 1514,
      "Ġnext": 1515,
      "Ġspr": 1516,
      "ikan": 1517,
      "Ġgemacht": 1518,
      "schieden": 1519,
      "Ġident": 1520,
      "Ġwater": 1521,
      "Ġgiv": 1522,
      "Ġok": 1523,
      "Ġuse": 1524,
      "Ġnor": 1525,
      "Ġbelie": 1526,
      "emand": 1527,
      "uff": 1528,
      "Ġdabei": 1529,
      "Ġfew": 1530,
      "Ġinteress": 1531,
      "Ġiran": 1532,
      "viel": 1533,
      "Ġbil": 1534,
      "ates": 1535,
      "Ġeach": 1536,
      "Ġpflanzen": 1537,
      "ichten": 1538,
      "arm": 1539,
      "Ġcare": 1540,
      "ander": 1541,
      "ures": 1542,
      "inden": 1543,
      "gether": 1544,
      "Ġneue": 1545,
      "Ġwoll": 1546,
      "oney": 1547,
      "Ġuniverse": 1548,
      "az": 1549,
      "ds": 1550,
      "ell": 1551,
      "fle": 1552,
      "Ġsk": 1553,
      "Ġele": 1554,
      "ited": 1555,
      "Ġtogether": 1556,
      "Ġla": 1557,
      "Ã¼t": 1558,
      "Ã¼nd": 1559,
      "Ġziem": 1560,
      "Ġits": 1561,
      "Ġspre": 1562,
      "Ġtrans": 1563,
      "Ġ100": 1564,
      "Ġchildren": 1565,
      "Ġgleich": 1566,
      "Ġziemlich": 1567,
      "uck": 1568,
      "ied": 1569,
      "Ġbot": 1570,
      "atz": 1571,
      "anz": 1572,
      "amer": 1573,
      "gef": 1574,
      "geben": 1575,
      "Ġdazu": 1576,
      "Ġplants": 1577,
      "Ġarbeiten": 1578,
      "upp": 1579,
      "uppe": 1580,
      "Ġspec": 1581,
      "what": 1582,
      "Ġmaybe": 1583,
      "Ġstarted": 1584,
      "Ġameric": 1585,
      "Ġsondern": 1586,
      "aben": 1587,
      "ahl": 1588,
      "los": 1589,
      "yp": 1590,
      "Ġsuch": 1591,
      "ĠwÃ¤re": 1592,
      "Ġpil": 1593,
      "Ġcour": 1594,
      "elle": 1595,
      "Ġant": 1596,
      "schen": 1597,
      "Ġersten": 1598,
      "gehen": 1599,
      "Ġprogr": 1600,
      "Ġspiel": 1601,
      "Ġstellen": 1602,
      "Ã¤ng": 1603,
      "day": 1604,
      "ift": 1605,
      "ks": 1606,
      "ward": 1607,
      "Ġsign": 1608,
      "Ġbild": 1609,
      "ster": 1610,
      "Ġur": 1611,
      "Ġcle": 1612,
      "Ġcreat": 1613,
      "Ġvom": 1614,
      "Ġseem": 1615,
      "Ġsogar": 1616,
      "sche": 1617,
      "ĠschÃ¶n": 1618,
      "well": 1619,
      "sehen": 1620,
      "Ġspace": 1621,
      "Ġhealth": 1622,
      "ffe": 1623,
      "Ġche": 1624,
      "Ġchar": 1625,
      "aces": 1626,
      "Ġinsp": 1627,
      "Ġsollte": 1628,
      "Ġsollten": 1629,
      "Ġpolit": 1630,
      "gung": 1631,
      "zie": 1632,
      "Ġtre": 1633,
      "Ġson": 1634,
      "Ġmat": 1635,
      "stÃ¤nd": 1636,
      "Ġfunkt": 1637,
      "Ġpubl": 1638,
      "ĠnÃ¤ch": 1639,
      "unst": 1640,
      "use": 1641,
      "emat": 1642,
      "Ġstand": 1643,
      "Ġscha": 1644,
      "Ġleg": 1645,
      "Ġdenen": 1646,
      "Ġmov": 1647,
      "Ġmole": 1648,
      "Ġmeisten": 1649,
      "Ġteach": 1650,
      "nehmen": 1651,
      "Ġdec": 1652,
      "Ġcond": 1653,
      "Ġkommen": 1654,
      "Ġago": 1655,
      "Ġdiscover": 1656,
      "ĠkÃ¶nnten": 1657,
      "Ġpassiert": 1658,
      "Ġuniversum": 1659,
      "Ġphilanth": 1660,
      "gest": 1661,
      "lo": 1662,
      "pf": 1663,
      "Ġted": 1664,
      "Ġtel": 1665,
      "Ġsl": 1666,
      "Ġser": 1667,
      "ĠwÃ¤hrend": 1668,
      "nder": 1669,
      "Ġmor": 1670,
      "Ġposs": 1671,
      "Ġkur": 1672,
      "aptop": 1673,
      "Ġbed": 1674,
      "Ġbetr": 1675,
      "Ġread": 1676,
      "Ġwasser": 1677,
      "Ġschne": 1678,
      "weise": 1679,
      "Ġnichts": 1680,
      "Ġlive": 1681,
      "Ġwollen": 1682,
      "Ġdaran": 1683,
      "Ġworking": 1684,
      "Ġquite": 1685,
      "Ġjeden": 1686,
      "Ġbiolog": 1687,
      "Ġclass": 1688,
      "Ġmillionen": 1689,
      "Ġteles": 1690,
      "ool": 1691,
      "piel": 1692,
      "Ġaway": 1693,
      "Ġoce": 1694,
      "Ġpat": 1695,
      "Ġeinmal": 1696,
      "Ã¤m": 1697,
      "Ġanim": 1698,
      "Ġreas": 1699,
      "ierung": 1700,
      "Ġerde": 1701,
      "zeit": 1702,
      "stell": 1703,
      "Ġplace": 1704,
      "Ġwonder": 1705,
      "Ġcons": 1706,
      "Ġcomput": 1707,
      "Ġbesch": 1708,
      "jekt": 1709,
      "Ġgerade": 1710,
      "Ġearth": 1711,
      "Ġeigenen": 1712,
      "Ġverstehen": 1713,
      "ĠnatÃ¼rlich": 1714,
      "Ġafter": 1715,
      "Ġcourse": 1716,
      "ner": 1717,
      "war": 1718,
      "Ġdna": 1719,
      "Ġbienen": 1720,
      "Ġhil": 1721,
      "anken": 1722,
      "Ġfa": 1723,
      "oup": 1724,
      "Ġnie": 1725,
      "Ġcame": 1726,
      "Ġkh": 1727,
      "Ġlos": 1728,
      "Ġlaptop": 1729,
      "alt": 1730,
      "Ã¤l": 1731,
      "ilt": 1732,
      "ility": 1733,
      "Ġwhy": 1734,
      "Ġje": 1735,
      "Ġverw": 1736,
      "Ġprof": 1737,
      "esting": 1738,
      "ktiv": 1739,
      "Ġheute": 1740,
      "ĠâĢĶ": 1741,
      "Ġentde": 1742,
      "aking": 1743,
      "Ġreligions": 1744,
      "Ġpartic": 1745,
      "Ġunserer": 1746,
      "Ġ30": 1747,
      "Ġexperiment": 1748,
      "Ġgesehen": 1749,
      "Ġcountr": 1750,
      "yram": 1751,
      "Ġfunktion": 1752,
      "bs": 1753,
      "ever": 1754,
      "hier": 1755,
      "kte": 1756,
      "zÃ¤": 1757,
      "Ġwatch": 1758,
      "Ġmoney": 1759,
      "Ġhol": 1760,
      "anted": 1761,
      "Ġgre": 1762,
      "Ġged": 1763,
      "Ġfund": 1764,
      "irn": 1765,
      "Ġbekommen": 1766,
      "ands": 1767,
      "Ġrem": 1768,
      "Ġjemand": 1769,
      "achen": 1770,
      "imm": 1771,
      "Ġteam": 1772,
      "Ġcont": 1773,
      "Ġcomple": 1774,
      "Ġscient": 1775,
      "ĠgroÃŁe": 1776,
      "Ġsocial": 1777,
      "Ġmathemat": 1778,
      "Ġocean": 1779,
      "li": 1780,
      "ernen": 1781,
      "Ġdu": 1782,
      "chten": 1783,
      "esent": 1784,
      "Ġmot": 1785,
      "Ġmag": 1786,
      "Ġmind": 1787,
      "Ġhome": 1788,
      "anke": 1789,
      "arch": 1790,
      "tel": 1791,
      "Ġtook": 1792,
      "Ġverschieden": 1793,
      "Ġfrage": 1794,
      "ĠdafÃ¼r": 1795,
      "Ġende": 1796,
      "Ġeverything": 1797,
      "Ġihrem": 1798,
      "aufen": 1799,
      "Ã¶rt": 1800,
      "cond": 1801,
      "Ġohne": 1802,
      "Ġphilanthrop": 1803,
      "av": 1804,
      "do": 1805,
      "Ġdrei": 1806,
      "Ġwunder": 1807,
      "Ġfahr": 1808,
      "Ġcre": 1809,
      "Ġkids": 1810,
      "Ġtoo": 1811,
      "Ġlar": 1812,
      "Ġunder": 1813,
      "Ġstill": 1814,
      "Ġstory": 1815,
      "uft": 1816,
      "Ġschool": 1817,
      "Ġprozent": 1818,
      "annt": 1819,
      "Ġnever": 1820,
      "ession": 1821,
      "Ġ15": 1822,
      "hlt": 1823,
      "Ġplay": 1824,
      "Ġbrain": 1825,
      "Ġgesund": 1826,
      "Ġused": 1827,
      "Ġetwa": 1828,
      "ultur": 1829,
      "Ġmeiner": 1830,
      "Ġgeld": 1831,
      "Ġfinden": 1832,
      "Ġglaube": 1833,
      "Ġkonnte": 1834,
      "ble": 1835,
      "here": 1836,
      "ker": 1837,
      "Ġ6": 1838,
      "ief": 1839,
      "Ġmut": 1840,
      "Ġball": 1841,
      "Ġint": 1842,
      "Ġnum": 1843,
      "Ġcor": 1844,
      "Ġcap": 1845,
      "Ġvoll": 1846,
      "Ġkunst": 1847,
      "alen": 1848,
      "Ġweit": 1849,
      "Ġstuff": 1850,
      "Ġerste": 1851,
      "Ġhear": 1852,
      "Ġtrying": 1853,
      "Ġwhole": 1854,
      "duc": 1855,
      "Ġhinter": 1856,
      "Ġbooks": 1857,
      "Ġwenig": 1858,
      "Ġfilm": 1859,
      "sy": 1860,
      "uzin": 1861,
      "erg": 1862,
      "inter": 1863,
      "Ġdone": 1864,
      "Ġdachte": 1865,
      "Ġwanted": 1866,
      "Ġhor": 1867,
      "Ġgab": 1868,
      "Ġold": 1869,
      "Ġpyram": 1870,
      "Ġlassen": 1871,
      "oto": 1872,
      "Ġbeis": 1873,
      "Ġans": 1874,
      "ics": 1875,
      "aub": 1876,
      "Ġhead": 1877,
      "Ġgroup": 1878,
      "Ġmacht": 1879,
      "Ġphys": 1880,
      "Ġwurden": 1881,
      "Ġganze": 1882,
      "Ġexperience": 1883,
      "Ġidee": 1884,
      "Ġirgend": 1885,
      "Ġacc": 1886,
      "Ġokay": 1887,
      "cal": 1888,
      "ften": 1889,
      "fahr": 1890,
      "uct": 1891,
      "when": 1892,
      "work": 1893,
      "ym": 1894,
      "Ġ8": 1895,
      "innen": 1896,
      "Ġdre": 1897,
      "esten": 1898,
      "Ġhigh": 1899,
      "Ġkop": 1900,
      "Ġlernen": 1901,
      "Ġbee": 1902,
      "unter": 1903,
      "these": 1904,
      "Ġerre": 1905,
      "immer": 1906,
      "Ġlibr": 1907,
      "Ġbringen": 1908,
      "ific": 1909,
      "Ġgetting": 1910,
      "Ġsaw": 1911,
      "Ġganzen": 1912,
      "selves": 1913,
      "Ġelse": 1914,
      "ismus": 1915,
      "Ġglauben": 1916,
      "ucin": 1917,
      "Ġhallucin": 1918,
      "Ġnutzen": 1919,
      "Ġeconom": 1920,
      "Ġzwischen": 1921,
      "Ġquestion": 1922,
      "aft": 1923,
      "cl": 1924,
      "fall": 1925,
      "ket": 1926,
      "zte": 1927,
      "ĠÃ¤": 1928,
      "Ġdel": 1929,
      "Ġsitu": 1930,
      "Ġwa": 1931,
      "Ġmet": 1932,
      "Ġmater": 1933,
      "Ġbauen": 1934,
      "ative": 1935,
      "Ġhy": 1936,
      "Ġhist": 1937,
      "Ġfol": 1938,
      "Ġfast": 1939,
      "Ġcell": 1940,
      "Ġkar": 1941,
      "aph": 1942,
      "Ġtop": 1943,
      "Ġsicher": 1944,
      "esser": 1945,
      "Ġtimes": 1946,
      "Ġscience": 1947,
      "Ġreligionen": 1948,
      "ulture": 1949,
      "Ġletzten": 1950,
      "Ã¼nst": 1951,
      "Ġgehirn": 1952,
      "ĠhÃ¶ren": 1953,
      "Ġdollar": 1954,
      "ĠbÃ¼cher": 1955,
      "ces": 1956,
      "dem": 1957,
      "ider": 1958,
      "Ġ9": 1959,
      "Ġak": 1960,
      "Ġbus": 1961,
      "Ġhund": 1962,
      "Ġfour": 1963,
      "isen": 1964,
      "Ġlab": 1965,
      "oten": 1966,
      "Ġbees": 1967,
      "Ġweise": 1968,
      "Ã¤ren": 1969,
      "achsen": 1970,
      "Ġstop": 1971,
      "ĠerzÃ¤": 1972,
      "ween": 1973,
      "Ġmod": 1974,
      "Ġexist": 1975,
      "Ġwerde": 1976,
      "Ġdark": 1977,
      "Ġconne": 1978,
      "Ġsah": 1979,
      "where": 1980,
      "Ġnatural": 1981,
      "Ġbelieve": 1982,
      "Ġschnell": 1983,
      "Ġnumber": 1984,
      "cke": 1985,
      "cted": 1986,
      "iff": 1987,
      "ogen": 1988,
      "tre": 1989,
      "Ġ!": 1990,
      "Ġfung": 1991,
      "Ġpict": 1992,
      "alle": 1993,
      "Ġyet": 1994,
      "Ġange": 1995,
      "Ġsec": 1996,
      "Ġseit": 1997,
      "Ġzuk": 1998,
      "hrer": 1999,
      "Ġungl": 2000,
      "agt": 2001,
      "Ġstre": 2002,
      "Ġricht": 2003,
      "denken": 2004,
      "Ġdoch": 2005,
      "isches": 2006,
      "Ġprin": 2007,
      "Ġzeigt": 2008,
      "Ġthinking": 2009,
      "Ġeng": 2010,
      "Ġenerg": 2011,
      "Ġkommt": 2012,
      "Ġsaying": 2013,
      "Ġfood": 2014,
      "Ġbehind": 2015,
      "Ġhalluzin": 2016,
      "Ġsmall": 2017,
      "Ġsense": 2018,
      "Ġintell": 2019,
      "Ġmaking": 2020,
      "Ġreason": 2021,
      "fort": 2022,
      "ians": 2023,
      "och": 2024,
      "sh": 2025,
      "ton": 2026,
      "tschaft": 2027,
      "uer": 2028,
      "ues": 2029,
      "zung": 2030,
      "eres": 2031,
      "iness": 2032,
      "Ġtyp": 2033,
      "Ġathe": 2034,
      "Ġdunk": 2035,
      "Ġsing": 2036,
      "ately": 2037,
      "asch": 2038,
      "Ġfar": 2039,
      "Ġfut": 2040,
      "legen": 2041,
      "Ġpower": 2042,
      "Ġ&#": 2043,
      "Ġnational": 2044,
      "Ġeins": 2045,
      "Ġtot": 2046,
      "Ġless": 2047,
      "ĠweiÃŁ": 2048,
      "Ġang": 2049,
      "Ã¶t": 2050,
      "Ġseite": 2051,
      "Ġsecond": 2052,
      "hrt": 2053,
      "Ġwhe": 2054,
      "Ġversch": 2055,
      "olum": 2056,
      "dern": 2057,
      "Ġproject": 2058,
      "ĠfrÃ¼": 2059,
      "Ġmove": 2060,
      "erne": 2061,
      "Ġsagten": 2062,
      "ateg": 2063,
      "Ġdarauf": 2064,
      "ized": 2065,
      "Ġproblems": 2066,
      "Ġklassen": 2067,
      "ways": 2068,
      "Ġmonth": 2069,
      "Ġkeinen": 2070,
      "Ġbetween": 2071,
      "Ġerfahr": 2072,
      "Ġrepubl": 2073,
      "Ġbeautif": 2074,
      "Ġmutter": 2075,
      "Ġbeispiel": 2076,
      "cel": 2077,
      "mÃ¶": 2078,
      "ocr": 2079,
      "tnam": 2080,
      "ĠÃ¼": 2081,
      "ende": 2082,
      "Ġsinn": 2083,
      "Ġbre": 2084,
      "Ġhope": 2085,
      "Ġeg": 2086,
      "Ġinv": 2087,
      "arbeit": 2088,
      "Ġkam": 2089,
      "tem": 2090,
      "Ġbeim": 2091,
      "unft": 2092,
      "ention": 2093,
      "Ã¤d": 2094,
      "thank": 2095,
      "Ġanf": 2096,
      "ĠverÃ¤nd": 2097,
      "Ġalt": 2098,
      "immt": 2099,
      "Ġnehmen": 2100,
      "Ġmeans": 2101,
      "Ġexpl": 2102,
      "okr": 2103,
      "Ġtry": 2104,
      "Ġusing": 2105,
      "Ġbecome": 2106,
      "Ġinternet": 2107,
      "Ġways": 2108,
      "Ġeverybody": 2109,
      "Ġevol": 2110,
      "Ġvietnam": 2111,
      "Ġindem": 2112,
      "Ġweniger": 2113,
      "Ġcolle": 2114,
      "ĠmÃ¶glichkeit": 2115,
      "volution": 2116,
      "Ġdollars": 2117,
      "most": 2118,
      "Ġsprechen": 2119,
      "dann": 2120,
      "how": 2121,
      "ired": 2122,
      "nung": 2123,
      "ness": 2124,
      "inen": 2125,
      "chs": 2126,
      "Ġsix": 2127,
      "Ġsupp": 2128,
      "Ġthank": 2129,
      "Ġble": 2130,
      "Ġhar": 2131,
      "Ġeben": 2132,
      "Ġgal": 2133,
      "Ġfun": 2134,
      "ĠfÃ¤h": 2135,
      "leben": 2136,
      "Ġcur": 2137,
      "Ġkennen": 2138,
      "Ġeinz": 2139,
      "ush": 2140,
      "Ġsieht": 2141,
      "Ã¶ren": 2142,
      "Ġseen": 2143,
      "licher": 2144,
      "Ġleft": 2145,
      "ument": 2146,
      "Ġfrag": 2147,
      "Ġfragen": 2148,
      "Ġwithout": 2149,
      "Ġdemokr": 2150,
      "pect": 2151,
      "Ġcost": 2152,
      "Ġbeginn": 2153,
      "Ġhole": 2154,
      "Ġliebe": 2155,
      "reiben": 2156,
      "Ġvideo": 2157,
      "Ġinspir": 2158,
      "Ġpossible": 2159,
      "Ġbeautiful": 2160,
      "ged": 2161,
      "glichen": 2162,
      "ially": 2163,
      "jetzt": 2164,
      "mun": 2165,
      "zip": 2166,
      "enden": 2167,
      "Ġbad": 2168,
      "ata": 2169,
      "Ġgar": 2170,
      "Ġopen": 2171,
      "Ġfand": 2172,
      "Ġpfer": 2173,
      "osed": 2174,
      "ison": 2175,
      "Ġkre": 2176,
      "app": 2177,
      "Ġtoday": 2178,
      "Ġbeob": 2179,
      "ilen": 2180,
      "Ġschr": 2181,
      "Ġschein": 2182,
      "Ġfort": 2183,
      "annte": 2184,
      "Ġchange": 2185,
      "Ġihm": 2186,
      "Ġdemocr": 2187,
      "Ġmenge": 2188,
      "Ġzeigen": 2189,
      "Ġlebens": 2190,
      "Ġhoch": 2191,
      "halb": 2192,
      "gesch": 2193,
      "Ġplanet": 2194,
      "Ġdoesn": 2195,
      "Ġvideos": 2196,
      "Ġinstit": 2197,
      "Ġcharles": 2198,
      "Ġmatter": 2199,
      "Ġunglaub": 2200,
      "Ġfuture": 2201,
      "ax": 2202,
      "cul": 2203,
      "gang": 2204,
      "lung": 2205,
      "ood": 2206,
      "such": 2207,
      "ens": 2208,
      "chmal": 2209,
      "Ġwalk": 2210,
      "Ġthous": 2211,
      "Ġmil": 2212,
      "Ġbro": 2213,
      "Ġbod": 2214,
      "Ġhard": 2215,
      "stein": 2216,
      "stoff": 2217,
      "Ġeff": 2218,
      "Ġeigent": 2219,
      "ane": 2220,
      "iti": 2221,
      "Ġfal": 2222,
      "Ġpred": 2223,
      "ouple": 2224,
      "llig": 2225,
      "Ġca": 2226,
      "Ġculture": 2227,
      "Ġcouple": 2228,
      "ĠvÃ¶": 2229,
      "Ġvier": 2230,
      "ĠkÃ¶r": 2231,
      "Ġeinigen": 2232,
      "Ġyork": 2233,
      "schl": 2234,
      "schein": 2235,
      "Ġerw": 2236,
      "allen": 2237,
      "vern": 2238,
      "gew": 2239,
      "ume": 2240,
      "Ġaufg": 2241,
      "Ġspend": 2242,
      "ennt": 2243,
      "ischer": 2244,
      "ided": 2245,
      "Ġorig": 2246,
      "ÃŁer": 2247,
      "antast": 2248,
      "zept": 2249,
      "Ġnothing": 2250,
      "ably": 2251,
      "schaften": 2252,
      "Ġamaz": 2253,
      "Ġpoll": 2254,
      "Ġprobleme": 2255,
      "ĠgroÃŁen": 2256,
      "Ġ197": 2257,
      "Ġbetter": 2258,
      "Ġabsol": 2259,
      "Ġ40": 2260,
      "ĠhÃ¤tte": 2261,
      "Ġmovement": 2262,
      "Ġcomputer": 2263,
      "Ġcountry": 2264,
      "Ġmotiv": 2265,
      "Ġgesundheit": 2266,
      "Ġhorse": 2267,
      "Ġlibrary": 2268,
      "Ġzukunft": 2269,
      "bre": 2270,
      "gle": 2271,
      "hol": 2272,
      "hroom": 2273,
      "iere": 2274,
      "ling": 2275,
      "set": 2276,
      "she": 2277,
      "vir": 2278,
      "zlich": 2279,
      "Ġ50": 2280,
      "ery": 2281,
      "Ġwind": 2282,
      "essen": 2283,
      "Ġmother": 2284,
      "Ġfantast": 2285,
      "Ġnahr": 2286,
      "Ġkol": 2287,
      "Ġkultur": 2288,
      "uns": 2289,
      "Ġwee": 2290,
      "ember": 2291,
      "Ġitself": 2292,
      "Ġsei": 2293,
      "Ġset": 2294,
      "ils": 2295,
      "Ġrecht": 2296,
      "Ġrevolution": 2297,
      "Ġjob": 2298,
      "Ġalways": 2299,
      "ufen": 2300,
      "Ġones": 2301,
      "ctly": 2302,
      "einander": 2303,
      "Ġmitge": 2304,
      "Ġliving": 2305,
      "Ġort": 2306,
      "Ġgruppe": 2307,
      "Ġcomes": 2308,
      "ĠprÃ¤s": 2309,
      "Ġmycel": 2310,
      "assion": 2311,
      "Ġstep": 2312,
      "Ġinteresting": 2313,
      "Ġjedes": 2314,
      "Ġmushroom": 2315,
      "Ġacr": 2316,
      "Ġindust": 2317,
      "Ġgott": 2318,
      "Ġadd": 2319,
      "Ġmedic": 2320,
      "Ġamerikan": 2321,
      "velop": 2322,
      "ĠlÃ¶s": 2323,
      "ometim": 2324,
      "Ġbuilding": 2325,
      "Ġasked": 2326,
      "ĠÃ¶k": 2327,
      "Ġmeaning": 2328,
      "Ġbenut": 2329,
      "Ġfungi": 2330,
      "Ġpicture": 2331,
      "ĠfÃ¤higkeit": 2332,
      "aun": 2333,
      "cip": 2334,
      "fin": 2335,
      "hau": 2336,
      "kl": 2337,
      "kr": 2338,
      "sam": 2339,
      "Ġ/": 2340,
      "Ġtaking": 2341,
      "Ġdy": 2342,
      "Ġsin": 2343,
      "Ġsache": 2344,
      "Ġbib": 2345,
      "Ġbill": 2346,
      "atic": 2347,
      "Ġhour": 2348,
      "reich": 2349,
      "read": 2350,
      "Ġfest": 2351,
      "Ġpot": 2352,
      "Ġniem": 2353,
      "Ġliter": 2354,
      "Ġret": 2355,
      "Ġiss": 2356,
      "Ġverk": 2357,
      "Ġrese": 2358,
      "Ġrichtig": 2359,
      "Ġleuten": 2360,
      "beite": 2361,
      "Ġprojekt": 2362,
      "Ġarbeite": 2363,
      "ulation": 2364,
      "Ġallen": 2365,
      "ktur": 2366,
      "Ġexact": 2367,
      "Ġwarum": 2368,
      "iker": 2369,
      "Ġseinem": 2370,
      "bracht": 2371,
      "Ġunterschie": 2372,
      "Ġarbeits": 2373,
      "Ġinside": 2374,
      "Ġkleine": 2375,
      "Ġauto": 2376,
      "Ġaugen": 2377,
      "Ġterr": 2378,
      "Ġnetz": 2379,
      "Ġbiosphere": 2380,
      "Ġbrauchen": 2381,
      "Ġgrowing": 2382,
      "Ġcheck": 2383,
      "Ġclassroom": 2384,
      "Ã¤lt": 2385,
      "Ġeigentlich": 2386,
      "aw": 2387,
      "ellen": 2388,
      "gro": 2389,
      "line": 2390,
      "mel": 2391,
      "ron": 2392,
      "richten": 2393,
      "yes": 2394,
      "zimmer": 2395,
      "Ġ7": 2396,
      "Ġbesser": 2397,
      "Ġeduc": 2398,
      "Ġgest": 2399,
      "ĠfÃ¼n": 2400,
      "let": 2401,
      "lex": 2402,
      "Ġinstr": 2403,
      "ingt": 2404,
      "Ġve": 2405,
      "aps": 2406,
      "eder": 2407,
      "Ã¤us": 2408,
      "urs": 2409,
      "ami": 2410,
      "ament": 2411,
      "Ġungef": 2412,
      "Ġstim": 2413,
      "ctive": 2414,
      "Ġlea": 2415,
      "Ġleast": 2416,
      "Ġprop": 2417,
      "Ġgod": 2418,
      "Ġgovern": 2419,
      "ither": 2420,
      "ĠheiÃŁ": 2421,
      "ident": 2422,
      "Ġass": 2423,
      "ffent": 2424,
      "Ġchem": 2425,
      "Ġchang": 2426,
      "Ġatt": 2427,
      "Ġdevelop": 2428,
      "Ġpriv": 2429,
      "Ġmyzel": 2430,
      "ogr": 2431,
      "Ġenough": 2432,
      "izin": 2433,
      "Ġcompassion": 2434,
      "ahmen": 2435,
      "Ġkomple": 2436,
      "Ġpollen": 2437,
      "Ġperfe": 2438,
      "ĠglÃ¼ck": 2439,
      "Ġkont": 2440,
      "Ġbeste": 2441,
      "Ġbuilt": 2442,
      "Ġadv": 2443,
      "gangen": 2444,
      "Ġmedizin": 2445,
      "Ġmarket": 2446,
      "Ġhalf": 2447,
      "Ġfamilie": 2448,
      "Ġbasically": 2449,
      "Ġimagine": 2450,
      "Ġbedeute": 2451,
      "ĠbiosphÃ¤re": 2452,
      "ĠhÃ¤tten": 2453,
      "Ġsozial": 2454,
      "Ġamerican": 2455,
      "ĠnÃ¤chsten": 2456,
      "Ġanimals": 2457,
      "Ġparticular": 2458,
      "Ġholes": 2459,
      "Ġcomplete": 2460,
      "Ġhalluzinationen": 2461,
      "Ġsingle": 2462,
      "Ġthousands": 2463,
      "Ġmycelium": 2464,
      "Ġacross": 2465,
      "ĠungefÃ¤hr": 2466,
      "bild": 2467,
      "ms": 2468,
      "mut": 2469,
      "oy": 2470,
      "pre": 2471,
      "par": 2472,
      "ral": 2473,
      "tty": 2474,
      "ube": 2475,
      "vie": 2476,
      "voll": 2477,
      "wort": 2478,
      "Ġtut": 2479,
      "Ġtaus": 2480,
      "Ġdank": 2481,
      "Ġdata": 2482,
      "Ġsow": 2483,
      "Ġsometim": 2484,
      "Ġwinter": 2485,
      "Ġ..": 2486,
      "Ġmic": 2487,
      "ites": 2488,
      "iting": 2489,
      "Ġfis": 2490,
      "Ġfig": 2491,
      "Ġface": 2492,
      "Ġpie": 2493,
      "Ġpay": 2494,
      "Ġna": 2495,
      "Ġcop": 2496,
      "ĠkÃ¼nst": 2497,
      "Ġbew": 2498,
      "Ġbevor": 2499,
      "Ġanz": 2500,
      "ages": 2501,
      "Ġsta": 2502,
      "schauen": 2503,
      "Ġries": 2504,
      "Ġraum": 2505,
      "vers": 2506,
      "Ġschu": 2507,
      "Ġlevel": 2508,
      "oper": 2509,
      "Ġprocess": 2510,
      "Ġarten": 2511,
      "Ġtra": 2512,
      "Ġtrain": 2513,
      "Ġcoming": 2514,
      "Ġherum": 2515,
      "lemma": 2516,
      "bringen": 2517,
      "Ġbox": 2518,
      "Ġjede": 2519,
      "Ġjedem": 2520,
      "Ġroom": 2521,
      "Ġmeinen": 2522,
      "Ġbiolum": 2523,
      "acy": 2524,
      "Ġview": 2525,
      "ount": 2526,
      "Ġhalten": 2527,
      "Ġfamily": 2528,
      "Ġtechnology": 2529,
      "Ġbereich": 2530,
      "Ġkleinen": 2531,
      "Ġentwickelt": 2532,
      "ully": 2533,
      "Ġwrong": 2534,
      "Ġwollte": 2535,
      "Ġwollten": 2536,
      "Ġboth": 2537,
      "Ġtelesc": 2538,
      "Ġwonderful": 2539,
      "Ġentdeck": 2540,
      "Ġsituation": 2541,
      "Ġresearch": 2542,
      "Ġgovernment": 2543,
      "Ġbiolumines": 2544,
      "abe": 2545,
      "bed": 2546,
      "bere": 2547,
      "da": 2548,
      "fÃ¤": 2549,
      "ox": 2550,
      "system": 2551,
      "Ġ5": 2552,
      "Ġtat": 2553,
      "Ġsor": 2554,
      "Ġging": 2555,
      "Ġgute": 2556,
      "Ġox": 2557,
      "Ġfive": 2558,
      "Ġpop": 2559,
      "Ġpunkt": 2560,
      "Ġcity": 2561,
      "Ġkil": 2562,
      "tect": 2563,
      "Ġtold": 2564,
      "othe": 2565,
      "Ã¤ft": 2566,
      "Ġred": 2567,
      "Ġwhist": 2568,
      "indung": 2569,
      "Ġonce": 2570,
      "cts": 2571,
      "Ġrad": 2572,
      "Ġschle": 2573,
      "Ġlehrer": 2574,
      "umen": 2575,
      "iste": 2576,
      "ktion": 2577,
      "Ġunseren": 2578,
      "Ġorder": 2579,
      "ivid": 2580,
      "Ġloch": 2581,
      "ika": 2582,
      "Ġblue": 2583,
      "Ġinteres": 2584,
      "Ġbesond": 2585,
      "Ġschwier": 2586,
      "Ġself": 2587,
      "ample": 2588,
      "Ġsystems": 2589,
      "Ġeltern": 2590,
      "rieben": 2591,
      "Ġtalking": 2592,
      "Ġhappened": 2593,
      "Ġversuchen": 2594,
      "ĠauÃŁer": 2595,
      "Ġorganis": 2596,
      "Ġkonnten": 2597,
      "Ġcommunity": 2598,
      "Ġinformation": 2599,
      "Ġpublic": 2600,
      "liothe": 2601,
      "Ġcreate": 2602,
      "Ġerreichen": 2603,
      "Ġhallucinations": 2604,
      "Ġunglaublich": 2605,
      "ĠfÃ¼nf": 2606,
      "bel": 2607,
      "ced": 2608,
      "ex": 2609,
      "eten": 2610,
      "por": 2611,
      "sc": 2612,
      "sicht": 2613,
      "spr": 2614,
      "tube": 2615,
      "Ġalex": 2616,
      "Ġmid": 2617,
      "Ġbon": 2618,
      "Ġeas": 2619,
      "Ġgame": 2620,
      "Ġfas": 2621,
      "Ġuhr": 2622,
      "ĠnÃ¤": 2623,
      "osm": 2624,
      "Ġcann": 2625,
      "Ġcous": 2626,
      "Ġvo": 2627,
      "Ġvir": 2628,
      "Ġlange": 2629,
      "Ġanders": 2630,
      "unch": 2631,
      "Ã¤ter": 2632,
      "Ġyoutube": 2633,
      "Ġdist": 2634,
      "Ġunt": 2635,
      "eter": 2636,
      "unde": 2637,
      "Ġstad": 2638,
      "ierten": 2639,
      "Ġschre": 2640,
      "gende": 2641,
      "Ġheard": 2642,
      "ibly": 2643,
      "okay": 2644,
      "Ġtrad": 2645,
      "ernt": 2646,
      "zeich": 2647,
      "stead": 2648,
      "Ġ12": 2649,
      "Ġwert": 2650,
      "Ġwelche": 2651,
      "brau": 2652,
      "Ġcoll": 2653,
      "ledge": 2654,
      "Ġbegan": 2655,
      "Ġmeinem": 2656,
      "hnt": 2657,
      "Ġindivid": 2658,
      "Ġspez": 2659,
      "Ġhapp": 2660,
      "Ġresp": 2661,
      "ished": 2662,
      "Ġpretty": 2663,
      "ĠlÃ¶cher": 2664,
      "Ġincred": 2665,
      "Ġerstaun": 2666,
      "Ġnormal": 2667,
      "amera": 2668,
      "Ġcondition": 2669,
      "Ġkhmer": 2670,
      "Ġfundament": 2671,
      "Ġlarge": 2672,
      "Ġkopf": 2673,
      "Ġhistory": 2674,
      "Ġmodel": 2675,
      "Ġbibliothe": 2676,
      "Ġbedeutet": 2677,
      "cus": 2678,
      "cause": 2679,
      "fel": 2680,
      "hand": 2681,
      "iar": 2682,
      "kten": 2683,
      "lam": 2684,
      "my": 2685,
      "richt": 2686,
      "rag": 2687,
      "Ġast": 2688,
      "Ġaktiv": 2689,
      "Ġdig": 2690,
      "Ġsqu": 2691,
      "Ġsure": 2692,
      "Ġwal": 2693,
      "Ġwomen": 2694,
      "Ġthough": 2695,
      "Ġbang": 2696,
      "Ġpos": 2697,
      "Ġpain": 2698,
      "Ġnennen": 2699,
      "Ġval": 2700,
      "tellt": 2701,
      "ality": 2702,
      "igung": 2703,
      "enten": 2704,
      "Ġhaving": 2705,
      "Ġsechs": 2706,
      "Ġrepr": 2707,
      "Ġjung": 2708,
      "ĠschÃ¼": 2709,
      "Ġschauen": 2710,
      "because": 2711,
      "aug": 2712,
      "weg": 2713,
      "Ġarch": 2714,
      "Ġmanchmal": 2715,
      "Ġgoes": 2716,
      "Ġwort": 2717,
      "Ġextr": 2718,
      "Ġplaces": 2719,
      "Ġentire": 2720,
      "Ġgesicht": 2721,
      "Ġprison": 2722,
      "ifen": 2723,
      "Ġsagt": 2724,
      "Ġouts": 2725,
      "Ġknowledge": 2726,
      "Ġworks": 2727,
      "ertain": 2728,
      "forder": 2729,
      "Ġphot": 2730,
      "akes": 2731,
      "Ġbesten": 2732,
      "Ġbegann": 2733,
      "Ġlooking": 2734,
      "auten": 2735,
      "Ġimpro": 2736,
      "Ġresult": 2737,
      "Ġkrank": 2738,
      "Ġkeep": 2739,
      "Ġschwarz": 2740,
      "Ġerkl": 2741,
      "Ġbilder": 2742,
      "Ġelect": 2743,
      "Ġschaffen": 2744,
      "Ġkurz": 2745,
      "Ġmaterial": 2746,
      "Ġbusiness": 2747,
      "Ġhundred": 2748,
      "Ġwhether": 2749,
      "Ġevolution": 2750,
      "ĠkÃ¶rper": 2751,
      "ĠmitgefÃ¼hl": 2752,
      "Ġissues": 2753,
      "Ġunterschied": 2754,
      "ĠheiÃŁt": 2755,
      "91": 2756,
      "bes": 2757,
      "bon": 2758,
      "iant": 2759,
      "jor": 2760,
      "ply": 2761,
      "tt": 2762,
      "ude": 2763,
      "vo": 2764,
      "welt": 2765,
      "erung": 2766,
      "ination": 2767,
      "Ġtest": 2768,
      "Ġding": 2769,
      "Ġdom": 2770,
      "Ġsw": 2771,
      "Ġsy": 2772,
      "atur": 2773,
      "Ġeur": 2774,
      "Ġop": 2775,
      "itet": 2776,
      "itzen": 2777,
      "asse": 2778,
      "Ġfoto": 2779,
      "Ġpick": 2780,
      "Ġinse": 2781,
      "ings": 2782,
      "Ġcase": 2783,
      "Ġlim": 2784,
      "Ġline": 2785,
      "Ġlisten": 2786,
      "irl": 2787,
      "ential": 2788,
      "Ġyes": 2789,
      "Ġyoun": 2790,
      "Ġanst": 2791,
      "icult": 2792,
      "Ġdiag": 2793,
      "Ġwirtschaft": 2794,
      "Ġwhile": 2795,
      "oler": 2796,
      "Ġerinn": 2797,
      "Ġalong": 2798,
      "Ġonline": 2799,
      "Ġra": 2800,
      "oph": 2801,
      "ĠgefÃ¼hl": 2802,
      "Ġforsch": 2803,
      "ister": 2804,
      "Ġfrauen": 2805,
      "Ġfront": 2806,
      "ĠspÃ¤ter": 2807,
      "ides": 2808,
      "Ġchrom": 2809,
      "Ġchallen": 2810,
      "ÃŁe": 2811,
      "Ġextre": 2812,
      "Ġexample": 2813,
      "zeug": 2814,
      "Ġ18": 2815,
      "neh": 2816,
      "Ġthemselves": 2817,
      "Ġprot": 2818,
      "ogn": 2819,
      "Ġkindern": 2820,
      "ipp": 2821,
      "Ġknown": 2822,
      "Ġcompan": 2823,
      "Ġvielen": 2824,
      "Ġkommun": 2825,
      "Ġuntersuch": 2826,
      "Ġrob": 2827,
      "hnlich": 2828,
      "Ġdifferen": 2829,
      "Ġdifficult": 2830,
      "Ġbewegung": 2831,
      "nisse": 2832,
      "zentr": 2833,
      "Ġregierung": 2834,
      "spiel": 2835,
      "Ġfeeling": 2836,
      "Ġprogramm": 2837,
      "stellung": 2838,
      "Ġpyramid": 2839,
      "ucture": 2840,
      "Ġklassenzimmer": 2841,
      "Ġerfahrung": 2842,
      "Ġcheckl": 2843,
      "ĠkÃ¼nstler": 2844,
      "Ġkilomet": 2845,
      "Ġchromos": 2846,
      "ail": 2847,
      "back": 2848,
      "bauen": 2849,
      "less": 2850,
      "oon": 2851,
      "wissen": 2852,
      "ware": 2853,
      "zuf": 2854,
      "ence": 2855,
      "Ġtem": 2856,
      "Ġdur": 2857,
      "Ġsu": 2858,
      "Ġsun": 2859,
      "Ġsau": 2860,
      "Ġmass": 2861,
      "Ġbau": 2862,
      "ator": 2863,
      "Ġhos": 2864,
      "Ġeing": 2865,
      "Ġequ": 2866,
      "Ġoze": 2867,
      "itte": 2868,
      "itze": 2869,
      "itions": 2870,
      "Ġinde": 2871,
      "Ġinvol": 2872,
      "Ġinstead": 2873,
      "Ġnamen": 2874,
      "Ġvater": 2875,
      "Ġkne": 2876,
      "Ġeinstein": 2877,
      "Ġlater": 2878,
      "alten": 2879,
      "ommt": 2880,
      "Ġoffen": 2881,
      "Ġbel": 2882,
      "iges": 2883,
      "utz": 2884,
      "Ã¤ume": 2885,
      "Ġhaus": 2886,
      "Ġanw": 2887,
      "Ġverm": 2888,
      "Ġstat": 2889,
      "Ġrun": 2890,
      "ime": 2891,
      "ump": 2892,
      "Ġarg": 2893,
      "Ġfrien": 2894,
      "Ġtrag": 2895,
      "Ġdescr": 2896,
      "hler": 2897,
      "iven": 2898,
      "ivity": 2899,
      "ĠÃ¼berhau": 2900,
      "Ġvorher": 2901,
      "Ġwochen": 2902,
      "Ġdep": 2903,
      "Ġenc": 2904,
      "Ġgenug": 2905,
      "Ġseiner": 2906,
      "iziert": 2907,
      "Ġdram": 2908,
      "Ġquick": 2909,
      "Ġprobably": 2910,
      "wohl": 2911,
      "Ġlooked": 2912,
      "Ġstra": 2913,
      "Ġklar": 2914,
      "iale": 2915,
      "Ġobject": 2916,
      "Ġanything": 2917,
      "Ġpark": 2918,
      "Ġparents": 2919,
      "Ġdays": 2920,
      "Ġhelfen": 2921,
      "Ġagainst": 2922,
      "board": 2923,
      "Ġbedeut": 2924,
      "Ġschwarze": 2925,
      "Ġgeneration": 2926,
      "Ġdirekt": 2927,
      "Ġgemeinschaft": 2928,
      "Ġgiven": 2929,
      "Ġgiving": 2930,
      "vielleicht": 2931,
      "Ġspecies": 2932,
      "Ġgreen": 2933,
      "Ġphilanthropy": 2934,
      "Ġ80": 2935,
      "Ġhours": 2936,
      "ready": 2937,
      "Ġcompletely": 2938,
      "Ġ...": 2939,
      "Ġtradition": 2940,
      "Ġoutside": 2941,
      "ĠÃ¼berhaupt": 2942,
      "bau": 2943,
      "fol": 2944,
      "gn": 2945,
      "get": 2946,
      "hÃ¤ng": 2947,
      "io": 2948,
      "min": 2949,
      "nach": 2950,
      "uge": 2951,
      "uktur": 2952,
      "wand": 2953,
      "yc": 2954,
      "zieren": 2955,
      "Ġ%": 2956,
      "ches": 2957,
      "ĠsÃ¼": 2958,
      "Ġsil": 2959,
      "Ġside": 2960,
      "Ġwon": 2961,
      "Ġwus": 2962,
      "iet": 2963,
      "ield": 2964,
      "iegen": 2965,
      "ĠmÃ¤n": 2966,
      "Ġbar": 2967,
      "Ġeth": 2968,
      "Ġeither": 2969,
      "Ġgave": 2970,
      "itten": 2971,
      "ash": 2972,
      "Ġfather": 2973,
      "Ġnein": 2974,
      "apan": 2975,
      "Ġlink": 2976,
      "Ã¼m": 2977,
      "utes": 2978,
      "Ġislam": 2979,
      "Ġjen": 2980,
      "Ġjapan": 2981,
      "ager": 2982,
      "Ġstate": 2983,
      "Ġstunden": 2984,
      "keep": 2985,
      "Ġern": 2986,
      "Ġwashing": 2987,
      "genommen": 2988,
      "Ġaller": 2989,
      "Ġmond": 2990,
      "ibility": 2991,
      "Ġtrack": 2992,
      "Ġvorstellen": 2993,
      "Ġpresent": 2994,
      "Ġbecame": 2995,
      "kennen": 2996,
      "Ġmachte": 2997,
      "Ġstehen": 2998,
      "udden": 2999,
      "ahn": 3000,
      "Ġmusste": 3001,
      "Ġmusik": 3002,
      "Ġsays": 3003,
      "Ġstrateg": 3004,
      "Ġnature": 3005,
      "ĠgroÃŁart": 3006,
      "Ġstudents": 3007,
      "Ġbisschen": 3008,
      "Ġemot": 3009,
      "ĠgehÃ¶rt": 3010,
      "ĠfÃ¼hlen": 3011,
      "Ġkosten": 3012,
      "Ġhappens": 3013,
      "ĠlÃ¶sen": 3014,
      "Ġlangu": 3015,
      "Ġversucht": 3016,
      "Ġsorts": 3017,
      "Ġvisual": 3018,
      "book": 3019,
      "Ġcommunic": 3020,
      "Ġturns": 3021,
      "Ġsimple": 3022,
      "Ġbeauty": 3023,
      "Ã¼tzen": 3024,
      "Ġspielen": 3025,
      "Ġclever": 3026,
      "Ġcreated": 3027,
      "Ġmolek": 3028,
      "Ġtelesk": 3029,
      "Ġprofession": 3030,
      "Ġfunktionieren": 3031,
      "Ġverschiedene": 3032,
      "Ġintelligent": 3033,
      "Ġmonths": 3034,
      "Ġbody": 3035,
      "ĠvÃ¶llig": 3036,
      "unsere": 3037,
      "ĠprÃ¤sent": 3038,
      "Ġdynam": 3039,
      "Ġeducation": 3040,
      "ograph": 3041,
      "Ġsometimes": 3042,
      "Ġuntil": 3043,
      "Ġkrankheit": 3044,
      "Ġwashington": 3045,
      "ahlen": 3046,
      "bi": 3047,
      "by": 3048,
      "bten": 3049,
      "cc": 3050,
      "cing": 3051,
      "com": 3052,
      "fully": 3053,
      "ho": 3054,
      "hip": 3055,
      "hÃ¶ren": 3056,
      "nitt": 3057,
      "port": 3058,
      "punkt": 3059,
      "tere": 3060,
      "zust": 3061,
      "Ġdaten": 3062,
      "chan": 3063,
      "ĠsÃ¤": 3064,
      "Ġwachsen": 3065,
      "Ġment": 3066,
      "Ġmann": 3067,
      "Ġmust": 3068,
      "Ġmik": 3069,
      "Ġbreat": 3070,
      "onnen": 3071,
      "ators": 3072,
      "itive": 3073,
      "asst": 3074,
      "Ġfac": 3075,
      "Ġpc": 3076,
      "ouse": 3077,
      "ller": 3078,
      "llschaft": 3079,
      "ores": 3080,
      "Ġcertain": 3081,
      "Ġvol": 3082,
      "ape": 3083,
      "Ġlin": 3084,
      "ĠlÃ¤nd": 3085,
      "ird": 3086,
      "utions": 3087,
      "ional": 3088,
      "anda": 3089,
      "urity": 3090,
      "Ġsele": 3091,
      "ets": 3092,
      "Ġsoft": 3093,
      "ĠstÃ¼ck": 3094,
      "Ġessen": 3095,
      "schr": 3096,
      "ĠermÃ¶": 3097,
      "Ġalready": 3098,
      "Ġrest": 3099,
      "Ġschul": 3100,
      "Ġforward": 3101,
      "istic": 3102,
      "Ġdoct": 3103,
      "Ġneur": 3104,
      "Ġwithin": 3105,
      "Ġexc": 3106,
      "erson": 3107,
      "ives": 3108,
      "Ġmajor": 3109,
      "Ġdeep": 3110,
      "Ġpres": 3111,
      "ured": 3112,
      "Ġblau": 3113,
      "Ġenvir": 3114,
      "Ġaction": 3115,
      "ization": 3116,
      "Ġdriver": 3117,
      "grund": 3118,
      "Ġmusic": 3119,
      "Ġtaken": 3120,
      "Ġversion": 3121,
      "erstoff": 3122,
      "Ġcommon": 3123,
      "rieb": 3124,
      "Ġverbindung": 3125,
      "Ġkranken": 3126,
      "Ġexperiments": 3127,
      "Ġimages": 3128,
      "Ã¤sst": 3129,
      "Ġvision": 3130,
      "Ġbilden": 3131,
      "Ġelekt": 3132,
      "Ġprogram": 3133,
      "Ġclear": 3134,
      "ĠschÃ¶nheit": 3135,
      "Ġtrees": 3136,
      "Ġdecided": 3137,
      "Ġdiscovered": 3138,
      "Ġremember": 3139,
      "Ġphilanthropie": 3140,
      "Ġballoon": 3141,
      "Ġcells": 3142,
      "Ġakzept": 3143,
      "Ġlabor": 3144,
      "Ġprinzip": 3145,
      "Ġgalax": 3146,
      "Ġexactly": 3147,
      "bildung": 3148,
      "Ġstadt": 3149,
      "ĠschÃ¼ler": 3150,
      "Ġyoung": 3151,
      "Ġenviron": 3152,
      "93": 3153,
      "aff": 3154,
      "hh": 3155,
      "hin": 3156,
      "hÃ¶r": 3157,
      "ja": 3158,
      "lern": 3159,
      "met": 3160,
      "sk": 3161,
      "ws": 3162,
      "Ġakt": 3163,
      "Ġsour": 3164,
      "Ġsug": 3165,
      "ester": 3166,
      "Ġmiss": 3167,
      "Ġeyes": 3168,
      "Ġgt": 3169,
      "Ġfu": 3170,
      "Ġfing": 3171,
      "Ġpen": 3172,
      "Ġpap": 3173,
      "Ġpast": 3174,
      "ĠnÃ¤m": 3175,
      "ark": 3176,
      "Ġcam": 3177,
      "Ġcow": 3178,
      "isse": 3179,
      "Ġkm": 3180,
      "Ġkn": 3181,
      "Ġkap": 3182,
      "Ġeinzel": 3183,
      "Ġlt": 3184,
      "Ġlage": 3185,
      "Ġlesen": 3186,
      "Ġzer": 3187,
      "Ġzent": 3188,
      "Ġander": 3189,
      "Ã¤ten": 3190,
      "Ã¤uft": 3191,
      "those": 3192,
      "icans": 3193,
      "Ġrein": 3194,
      "Ġrele": 3195,
      "Ġrequ": 3196,
      "Ġreden": 3197,
      "Ġrefle": 3198,
      "Ġverr": 3199,
      "Ġunten": 3200,
      "Ġraus": 3201,
      "Ġrather": 3202,
      "Ġroten": 3203,
      "ders": 3204,
      "weil": 3205,
      "Ġimm": 3206,
      "ucht": 3207,
      "Ġmoon": 3208,
      "Ġmeat": 3209,
      "Ġlives": 3210,
      "Ġheim": 3211,
      "adow": 3212,
      "Ġcho": 3213,
      "Ġ11": 3214,
      "Ġbrought": 3215,
      "utely": 3216,
      "Ġmyself": 3217,
      "Ġgets": 3218,
      "Ġgetan": 3219,
      "ĠmÃ¶chten": 3220,
      "ards": 3221,
      "Ġunterst": 3222,
      "press": 3223,
      "Ã¤nge": 3224,
      "Ġbeginnen": 3225,
      "Ġlooks": 3226,
      "ĠgeschÃ¤ft": 3227,
      "Ġparts": 3228,
      "Ġbeiden": 3229,
      "uppen": 3230,
      "Ġbuy": 3231,
      "Ġunserem": 3232,
      "Ġemp": 3233,
      "Ġ300": 3234,
      "achtet": 3235,
      "Ġdesigner": 3236,
      "Ġearly": 3237,
      "Ġbewegen": 3238,
      "Ġuniversity": 3239,
      "riere": 3240,
      "Ġlangsam": 3241,
      "attle": 3242,
      "Ġplaneten": 3243,
      "Ġtechnologie": 3244,
      "Ġguy": 3245,
      "Ġintegr": 3246,
      "Ġjohn": 3247,
      "ĠgrÃ¶ÃŁte": 3248,
      "Ġsimply": 3249,
      "Ġinteressant": 3250,
      "scheiden": 3251,
      "Ġentdecken": 3252,
      "Ġgedanken": 3253,
      "Ġsecurity": 3254,
      "Ã¶tzlich": 3255,
      "Ġegal": 3256,
      "Ġpferd": 3257,
      "Ġscheint": 3258,
      "Ġfalsch": 3259,
      "Ġorigami": 3260,
      "Ġnahrungs": 3261,
      "ĠlÃ¶sung": 3262,
      "Ġliterally": 3263,
      "Ġeasy": 3264,
      "ĠnÃ¤her": 3265,
      "Ġsoftware": 3266,
      "aden": 3267,
      "bil": 3268,
      "bare": 3269,
      "dle": 3270,
      "dam": 3271,
      "gibt": 3272,
      "hung": 3273,
      "ior": 3274,
      "iÃ¶": 3275,
      "lassen": 3276,
      "oom": 3277,
      "uh": 3278,
      "vin": 3279,
      "ye": 3280,
      "ering": 3281,
      "ined": 3282,
      "Ġtas": 3283,
      "Ġtiere": 3284,
      "Ġdan": 3285,
      "Ġdest": 3286,
      "Ġdingen": 3287,
      "Ġdachten": 3288,
      "Ġdanke": 3289,
      "Ġsudden": 3290,
      "Ġwest": 3291,
      "iety": 3292,
      "Ġmess": 3293,
      "Ġbank": 3294,
      "reg": 3295,
      "ante": 3296,
      "Ġgirl": 3297,
      "Ġfro": 3298,
      "Ġfert": 3299,
      "Ġpfe": 3300,
      "Ġnon": 3301,
      "Ġcart": 3302,
      "Ġcamp": 3303,
      "ising": 3304,
      "Ġlaut": 3305,
      "ĠlÃ¤sst": 3306,
      "ots": 3307,
      "igte": 3308,
      "Ġwegen": 3309,
      "Ġhause": 3310,
      "then": 3311,
      "Ġreakt": 3312,
      "Ġzug": 3313,
      "Ġisn": 3314,
      "owing": 3315,
      "Ġsofort": 3316,
      "olg": 3317,
      "olph": 3318,
      "ologen": 3319,
      "Ġerl": 3320,
      "ters": 3321,
      "Ġwasn": 3322,
      "Ġrace": 3323,
      "ĠrÃ¼ck": 3324,
      "ckt": 3325,
      "Ġimker": 3326,
      "annten": 3327,
      "Ġarea": 3328,
      "Ġsporen": 3329,
      "Ġword": 3330,
      "Ġtraum": 3331,
      "Ġtried": 3332,
      "Ġsomeone": 3333,
      "Ġ150": 3334,
      "abor": 3335,
      "endi": 3336,
      "Ġentste": 3337,
      "Ġwohl": 3338,
      "Ġgesagt": 3339,
      "Ġdarin": 3340,
      "Ġdarum": 3341,
      "Ġmachine": 3342,
      "Ġgenaus": 3343,
      "Ġseinen": 3344,
      "Ġstelle": 3345,
      "people": 3346,
      "izieren": 3347,
      "Ġfeed": 3348,
      "Ġseeing": 3349,
      "Ġworked": 3350,
      "Ġeveryone": 3351,
      "Ġeverywhere": 3352,
      "Ġkompr": 3353,
      "ploy": 3354,
      "Ġscann": 3355,
      "Ã¼ckt": 3356,
      "Ġkonzentr": 3357,
      "Ġklang": 3358,
      "Ġwirklichkeit": 3359,
      "Ġhoff": 3360,
      "Ġaccess": 3361,
      "Ġneeded": 3362,
      "Ġbestimm": 3363,
      "lieÃŁ": 3364,
      "Ġlieben": 3365,
      "Ġstudy": 3366,
      "dieser": 3367,
      "dieses": 3368,
      "ĠgehÃ¶r": 3369,
      "Ġreality": 3370,
      "Ġcolon": 3371,
      "Ġshows": 3372,
      "Ġminuten": 3373,
      "Ġminutes": 3374,
      "Ġbereit": 3375,
      "Ġentwickeln": 3376,
      "Ġincl": 3377,
      "Ġnetwork": 3378,
      "Ġkey": 3379,
      "Ġlearned": 3380,
      "Ġschwarzen": 3381,
      "ĠÃ¶ffent": 3382,
      "Ġmakes": 3383,
      "Ġquestions": 3384,
      "Ġidentif": 3385,
      "Ġamerica": 3386,
      "lossen": 3387,
      "wards": 3388,
      "Ġseems": 3389,
      "ĠnÃ¤chste": 3390,
      "Ġconditions": 3391,
      "Ġmoral": 3392,
      "Ġbeding": 3393,
      "every": 3394,
      "Ġverschiedenen": 3395,
      "Ġcorre": 3396,
      "Ġbeekeep": 3397,
      "Ġtotal": 3398,
      "Ġrepublikan": 3399,
      "Ġinvest": 3400,
      "Ġfragte": 3401,
      "Ġdemokrat": 3402,
      "Ġbeobachten": 3403,
      "Ġschritt": 3404,
      "Ġeffort": 3405,
      "scheinlich": 3406,
      "Ġamazing": 3407,
      "Ġabsolutely": 3408,
      "Ġmotivation": 3409,
      "Ġwindow": 3410,
      "Ġbonnet": 3411,
      "Ġcousins": 3412,
      "Ġhappy": 3413,
      "Ġozean": 3414,
      "Ġfriends": 3415,
      "Ġenvironment": 3416,
      "ĠnÃ¤mlich": 3417,
      "ake": 3418,
      "cular": 3419,
      "fil": 3420,
      "gem": 3421,
      "hund": 3422,
      "haft": 3423,
      "jed": 3424,
      "land": 3425,
      "oons": 3426,
      "ric": 3427,
      "ria": 3428,
      "sive": 3429,
      "ygen": 3430,
      "Ġ$": 3431,
      "ĠÃ¤r": 3432,
      "ino": 3433,
      "Ġach": 3434,
      "Ġsuc": 3435,
      "Ġsachen": 3436,
      "ĠwÃ¤ren": 3437,
      "ndrom": 3438,
      "Ġmult": 3439,
      "Ġmorn": 3440,
      "Ġmasch": 3441,
      "Ġhold": 3442,
      "Ġeffe": 3443,
      "Ġgerne": 3444,
      "Ġocc": 3445,
      "Ġfle": 3446,
      "Ġfore": 3447,
      "Ġfarm": 3448,
      "Ġfield": 3449,
      "Ġpur": 3450,
      "Ġphen": 3451,
      "Ġpack": 3452,
      "orm": 3453,
      "oring": 3454,
      "Ġcir": 3455,
      "Ġcents": 3456,
      "Ġcorn": 3457,
      "Ġvort": 3458,
      "Ġkrie": 3459,
      "Ġluft": 3460,
      "omes": 3461,
      "Ġoft": 3462,
      "Ġoffer": 3463,
      "Ġbemer": 3464,
      "igsten": 3465,
      "Ġziel": 3466,
      "Ġanderes": 3467,
      "andria": 3468,
      "roph": 3469,
      "els": 3470,
      "elte": 3471,
      "Ġanschauen": 3472,
      "Ġseiten": 3473,
      "Ġjungen": 3474,
      "Ġvertr": 3475,
      "Ġvergangen": 3476,
      "Ġunab": 3477,
      "Ġsohn": 3478,
      "Ġess": 3479,
      "ierend": 3480,
      "Ġallem": 3481,
      "Ġalmost": 3482,
      "immen": 3483,
      "weit": 3484,
      "ums": 3485,
      "uchten": 3486,
      "Ġarr": 3487,
      "see": 3488,
      "Ġneben": 3489,
      "Ġmodern": 3490,
      "Ġmechan": 3491,
      "Ġspir": 3492,
      "Ġspent": 3493,
      "Ġaussehen": 3494,
      "Ġcholer": 3495,
      "ielle": 3496,
      "Ġgren": 3497,
      "Ġplant": 3498,
      "Ġgesam": 3499,
      "Ġdefin": 3500,
      "Ġshare": 3501,
      "Ġthema": 3502,
      "Ġsage": 3503,
      "Ġzellen": 3504,
      "Ġourselves": 3505,
      "Ġconc": 3506,
      "traum": 3507,
      "Ġsteht": 3508,
      "ippe": 3509,
      "Ġweltraum": 3510,
      "schaffen": 3511,
      "ĠmÃ¶glichen": 3512,
      "Ġcompl": 3513,
      "Ġcomprom": 3514,
      "Ġboden": 3515,
      "ford": 3516,
      "ĠphÃ¤n": 3517,
      "Ġbegin": 3518,
      "Ġobwohl": 3519,
      "Ġanybody": 3520,
      "Ġparis": 3521,
      "Ġhandeln": 3522,
      "Ġmedia": 3523,
      "Ġempf": 3524,
      "ĠgerÃ¤us": 3525,
      "Ġlots": 3526,
      "Ġsolution": 3527,
      "Ġteilen": 3528,
      "Ġbeweg": 3529,
      "Ġfocus": 3530,
      "Ġerfolg": 3531,
      "Ġbereits": 3532,
      "gebung": 3533,
      "Ġgefangen": 3534,
      "mittel": 3535,
      "standen": 3536,
      "Ġgesellschaft": 3537,
      "Ġsubject": 3538,
      "Ġrecogn": 3539,
      "Ġsoziale": 3540,
      "vielen": 3541,
      "Ġsky": 3542,
      "Ġpolitical": 3543,
      "Ġpatient": 3544,
      "Ġhilfe": 3545,
      "Ġkhan": 3546,
      "Ġlaptops": 3547,
      "Ġscientific": 3548,
      "Ġpyramide": 3549,
      "Ġrichtung": 3550,
      "Ġengag": 3551,
      "Ġenergy": 3552,
      "Ġenergie": 3553,
      "Ġdunkel": 3554,
      "Ġrepublicans": 3555,
      "Ġanfang": 3556,
      "Ġaltos": 3557,
      "Ġharv": 3558,
      "Ġbeginnt": 3559,
      "Ġbroad": 3560,
      "Ġkomplex": 3561,
      "Ġoxygen": 3562,
      "Ġbesonders": 3563,
      "Ġalexandria": 3564,
      "Ġmiddle": 3565,
      "Ġbibliothek": 3566,
      "Ġextra": 3567,
      "Ġimprov": 3568,
      "Ġextrem": 3569,
      "Ġduring": 3570,
      "Ġsauerstoff": 3571,
      "Ġcartoons": 3572,
      "Ġinclud": 3573,
      "Ġbeekeepers": 3574,
      "hundert": 3575,
      "Ġmorning": 3576,
      "Ġphenomen": 3577,
      "ĠphÃ¤nomen": 3578,
      "ef": 3579,
      "ging": 3580,
      "hy": 3581,
      "hle": 3582,
      "iben": 3583,
      "licht": 3584,
      "may": 3585,
      "mein": 3586,
      "mals": 3587,
      "not": 3588,
      "some": 3589,
      "ugen": 3590,
      "inary": 3591,
      "indet": 3592,
      "Ġtin": 3593,
      "Ġair": 3594,
      "Ġaust": 3595,
      "Ġaug": 3596,
      "Ġdolph": 3597,
      "chter": 3598,
      "Ġsan": 3599,
      "Ġsum": 3600,
      "Ġwom": 3601,
      "este": 3602,
      "ieten": 3603,
      "Ġmount": 3604,
      "Ġbir": 3605,
      "Ġbion": 3606,
      "ones": 3607,
      "atten": 3608,
      "Ġhon": 3609,
      "Ġemer": 3610,
      "Ġgift": 3611,
      "Ġoper": 3612,
      "itÃ¤ten": 3613,
      "Ġfaces": 3614,
      "Ġpupp": 3615,
      "Ġinfe": 3616,
      "Ġnight": 3617,
      "Ġnice": 3618,
      "llte": 3619,
      "ories": 3620,
      "Ġvere": 3621,
      "Ġker": 3622,
      "Ġkor": 3623,
      "Ġoften": 3624,
      "Ã¼h": 3625,
      "Ġbeide": 3626,
      "Ġbezie": 3627,
      "Ġbezeich": 3628,
      "Ġzerst": 3629,
      "utr": 3630,
      "edi": 3631,
      "ently": 3632,
      "entially": 3633,
      "usst": 3634,
      "row": 3635,
      "Ġann": 3636,
      "ica": 3637,
      "icle": 3638,
      "icken": 3639,
      "Ġdilemma": 3640,
      "dell": 3641,
      "ille": 3642,
      "Ġrepl": 3643,
      "ĠverfÃ¼": 3644,
      "Ġsty": 3645,
      "Ġstatt": 3646,
      "Ġstates": 3647,
      "schnitt": 3648,
      "Ġerh": 3649,
      "Ġerhalten": 3650,
      "ctions": 3651,
      "Ġrou": 3652,
      "Ġschreiben": 3653,
      "Ġled": 3654,
      "opes": 3655,
      "aul": 3656,
      "Ġformen": 3657,
      "Ġmitte": 3658,
      "Ġmoder": 3659,
      "ads": 3660,
      "Ġauszu": 3661,
      "Ġchr": 3662,
      "Ġexp": 3663,
      "antwort": 3664,
      "Ġsomebody": 3665,
      "Ġgrand": 3666,
      "ĠgrÃ¼nd": 3667,
      "hlte": 3668,
      "ively": 3669,
      "Ġlost": 3670,
      "ĠÃ¼bertr": 3671,
      "ĠplÃ¶tzlich": 3672,
      "ikal": 3673,
      "Ġdeaf": 3674,
      "Ġshred": 3675,
      "astr": 3676,
      "iforn": 3677,
      "Ġmenschliche": 3678,
      "Ġ24": 3679,
      "Ġhervor": 3680,
      "Ġgenet": 3681,
      "Ġstellt": 3682,
      "Ġwouldn": 3683,
      "pekt": 3684,
      "acter": 3685,
      "Ġjedoch": 3686,
      "Ã¤chst": 3687,
      "Ġreligious": 3688,
      "ĠreligiÃ¶": 3689,
      "Ġclos": 3690,
      "Ġcouldn": 3691,
      "Ġhinein": 3692,
      "Ġaccept": 3693,
      "Ġspeak": 3694,
      "Ġparte": 3695,
      "Ġproduction": 3696,
      "Ġgewor": 3697,
      "Ġstudent": 3698,
      "Ġdavid": 3699,
      "Ġcarbon": 3700,
      "Ġautonom": 3701,
      "werk": 3702,
      "prob": 3703,
      "Ġbase": 3704,
      "Ġbasis": 3705,
      "Ġkohlen": 3706,
      "Ġrealized": 3707,
      "Ġhappening": 3708,
      "Ġstarting": 3709,
      "Ġherausforder": 3710,
      "Ġbehand": 3711,
      "Ġgefunden": 3712,
      "ĠgefÃ¤ng": 3713,
      "Ġguys": 3714,
      "Ġgleichen": 3715,
      "Ġtages": 3716,
      "unkte": 3717,
      "Ġsens": 3718,
      "Ġcentur": 3719,
      "Ġcentral": 3720,
      "ĠgegenÃ¼ber": 3721,
      "Ġbraucht": 3722,
      "Ġunderstanding": 3723,
      "Ġinformationen": 3724,
      "Ġbekannt": 3725,
      "Ġsuchen": 3726,
      "stÃ¤ndnis": 3727,
      "Ġmolecular": 3728,
      "Ġteachers": 3729,
      "Ġuniversums": 3730,
      "Ġslow": 3731,
      "Ġmorgen": 3732,
      "Ã¤mp": 3733,
      "Ġconsider": 3734,
      "Ġcontro": 3735,
      "Ġcomplex": 3736,
      "Ġfahren": 3737,
      "Ġballon": 3738,
      "Ġweitere": 3739,
      "Ġhearing": 3740,
      "sych": 3741,
      "falls": 3742,
      "Ġintelligen": 3743,
      "Ġsupport": 3744,
      "Ġdemokraten": 3745,
      "Ġfanden": 3746,
      "Ġkolon": 3747,
      "Ġweeks": 3748,
      "Ġmushrooms": 3749,
      "Ġmedicine": 3750,
      "Ġniemand": 3751,
      "Ġtausende": 3752,
      "Ġfiscal": 3753,
      "Ġpiece": 3754,
      "Ġinterested": 3755,
      "Ġschreck": 3756,
      "Ġjunge": 3757,
      "Ġdifference": 3758,
      "Ġsuper": 3759,
      "Ġinvolved": 3760,
      "Ġdescrib": 3761,
      "Ġwusste": 3762,
      "ĠmÃ¤nner": 3763,
      "Ġlanguage": 3764,
      "zustellen": 3765,
      "Ġgenauso": 3766,
      "Ġcirc": 3767,
      "air": 3768,
      "bit": 3769,
      "ey": 3770,
      "far": 3771,
      "go": 3772,
      "haus": 3773,
      "iffen": 3774,
      "lig": 3775,
      "mung": 3776,
      "mosph": 3777,
      "ohl": 3778,
      "po": 3779,
      "pose": 3780,
      "ros": 3781,
      "rad": 3782,
      "vÃ¶": 3783,
      "vious": 3784,
      "wesen": 3785,
      "zer": 3786,
      "ente": 3787,
      "erweise": 3788,
      "Ġaw": 3789,
      "Ġacht": 3790,
      "Ġsou": 3791,
      "Ġsom": 3792,
      "Ġsym": 3793,
      "Ġwro": 3794,
      "Ġwish": 3795,
      "Ġthird": 3796,
      "Ġill": 3797,
      "ndr": 3798,
      "Ġmis": 3799,
      "Ġmem": 3800,
      "Ġbal": 3801,
      "Ġbud": 3802,
      "Ġhuge": 3803,
      "Ġeight": 3804,
      "Ġgone": 3805,
      "Ġtheat": 3806,
      "Ġoben": 3807,
      "Ġfree": 3808,
      "Ġfoll": 3809,
      "Ġple": 3810,
      "Ġpal": 3811,
      "Ġinfr": 3812,
      "aring": 3813,
      "osen": 3814,
      "osystem": 3815,
      "Ġcut": 3816,
      "apes": 3817,
      "Ġtom": 3818,
      "Ġtox": 3819,
      "Ġlay": 3820,
      "alter": 3821,
      "irt": 3822,
      "igten": 3823,
      "Ġweb": 3824,
      "Ġweiss": 3825,
      "elf": 3826,
      "ices": 3827,
      "icians": 3828,
      "amkeit": 3829,
      "Ġredu": 3830,
      "Ġremo": 3831,
      "Ġverhalten": 3832,
      "Ġverurs": 3833,
      "Ġunbe": 3834,
      "Ġunited": 3835,
      "Ġster": 3836,
      "lichkeit": 3837,
      "Ġerkennen": 3838,
      "Ġalten": 3839,
      "Ġros": 3840,
      "Ġrick": 3841,
      "Ġschrieb": 3842,
      "Ġlect": 3843,
      "ops": 3844,
      "Ġgebe": 3845,
      "Ġgeist": 3846,
      "Ġmiteinander": 3847,
      "Ġallow": 3848,
      "Ġneg": 3849,
      "Ġfrau": 3850,
      "Ġmoving": 3851,
      "Ġmoved": 3852,
      "Ġmeet": 3853,
      "Ġlived": 3854,
      "enne": 3855,
      "adem": 3856,
      "Ġexcept": 3857,
      "Ġatmosph": 3858,
      "Ġtragen": 3859,
      "Ġtex": 3860,
      "Ġtele": 3861,
      "Ġground": 3862,
      "aby": 3863,
      "iving": 3864,
      "Ġbrill": 3865,
      "Ġvoraus": 3866,
      "Ġdead": 3867,
      "Ġblind": 3868,
      "Ġblock": 3869,
      "Ġconcept": 3870,
      "Ġnachdenken": 3871,
      "Ġkinds": 3872,
      "iped": 3873,
      "Ġihres": 3874,
      "izing": 3875,
      "Ġdraw": 3876,
      "itting": 3877,
      "Ġmuse": 3878,
      "Ġpoor": 3879,
      "Ġyourself": 3880,
      "Ġglob": 3881,
      "Ã¤cht": 3882,
      "Ġjahrhundert": 3883,
      "Ġartist": 3884,
      "Ġwissens": 3885,
      "Ã¤nger": 3886,
      "Ã¤ngt": 3887,
      "Ġclose": 3888,
      "hnung": 3889,
      "Ġstructure": 3890,
      "Ġschwer": 3891,
      "Ġflu": 3892,
      "Ġtax": 3893,
      "Ġirgende": 3894,
      "why": 3895,
      "gestellt": 3896,
      "Ġputting": 3897,
      "Ġautom": 3898,
      "Ġmontere": 3899,
      "Ġ196": 3900,
      "Ġfamilies": 3901,
      "Ġsurpr": 3902,
      "ancis": 3903,
      "Ġorganism": 3904,
      "Ġsounds": 3905,
      "Ġsociety": 3906,
      "Ġzwar": 3907,
      "Ġwahrscheinlich": 3908,
      "Ġbringt": 3909,
      "design": 3910,
      "Ġrecord": 3911,
      "Ġneuen": 3912,
      "Ġnorm": 3913,
      "Ġcareer": 3914,
      "Ġtransform": 3915,
      "Ġspecial": 3916,
      "Ġinspired": 3917,
      "Ġtreffen": 3918,
      "load": 3919,
      "look": 3920,
      "zeitig": 3921,
      "warum": 3922,
      "Ġhilft": 3923,
      "Ġ60": 3924,
      "Ġirgendwie": 3925,
      "Ġ90": 3926,
      "Ġengine": 3927,
      "Ġdemocrats": 3928,
      "gewÃ¶": 3929,
      "Ġweek": 3930,
      "Ġindustr": 3931,
      "Ġprivate": 3932,
      "Ġkontro": 3933,
      "Ġsozialen": 3934,
      "Ġsowohl": 3935,
      "Ġschule": 3936,
      "operation": 3937,
      "Ġtelescopes": 3938,
      "Ġcannot": 3939,
      "brauch": 3940,
      "Ġincredibly": 3941,
      "Ġarchite": 3942,
      "Ġprisoner": 3943,
      "Ġcompany": 3944,
      "Ġhosp": 3945,
      "Ġknew": 3946,
      "Ġbedeutung": 3947,
      "ycle": 3948,
      "Ġmikro": 3949,
      "Ġsuggest": 3950,
      "Ġkomprom": 3951,
      "Ġrepublikaner": 3952,
      "Ġpurpose": 3953,
      "ĠunabhÃ¤ng": 3954,
      "Ġcholera": 3955,
      "maybe": 3956,
      "Ġmountain": 3957,
      "Ġgeworden": 3958,
      "Ġwrote": 3959,
      "Ġmonterey": 3960,
      "bahn": 3961,
      "ci": 3962,
      "cy": 3963,
      "danke": 3964,
      "fte": 3965,
      "ky": 3966,
      "kre": 3967,
      "lage": 3968,
      "lagen": 3969,
      "lker": 3970,
      "ning": 3971,
      "nal": 3972,
      "nein": 3973,
      "of": 3974,
      "oes": 3975,
      "oder": 3976,
      "uern": 3977,
      "zwe": 3978,
      "ziert": 3979,
      "enken": 3980,
      "ered": 3981,
      "ina": 3982,
      "Ġtw": 3983,
      "Ġtend": 3984,
      "Ġtreat": 3985,
      "Ġtief": 3986,
      "Ġaben": 3987,
      "Ġdet": 3988,
      "Ġdad": 3989,
      "Ġsicht": 3990,
      "Ġswe": 3991,
      "esh": 3992,
      "Ġign": 3993,
      "Ġmine": 3994,
      "ĠmÃ¤d": 3995,
      "ĠbÃ¤ume": 3996,
      "onomen": 3997,
      "Ġhouse": 3998,
      "relig": 3999,
      "stre": 4000,
      "anen": 4001,
      "Ġohren": 4002,
      "Ġfly": 4003,
      "Ġfab": 4004,
      "Ġfelt": 4005,
      "Ġfrei": 4006,
      "Ġfull": 4007,
      "Ġug": 4008,
      "Ġport": 4009,
      "Ġpath": 4010,
      "Ġpsych": 4011,
      "icher": 4012,
      "Ġinn": 4013,
      "Ġinten": 4014,
      "ouble": 4015,
      "Ġnah": 4016,
      "aras": 4017,
      "Ġcamera": 4018,
      "Ġkal": 4019,
      "tex": 4020,
      "Ġbez": 4021,
      "une": 4022,
      "usch": 4023,
      "Ã¤uf": 4024,
      "Ã¶st": 4025,
      "Ġsehe": 4026,
      "ampl": 4027,
      "Ġzuvor": 4028,
      "Ġjour": 4029,
      "Ġvern": 4030,
      "Ġverantwort": 4031,
      "Ġsollen": 4032,
      "bert": 4033,
      "Ġersch": 4034,
      "Ġonto": 4035,
      "Ġru": 4036,
      "Ġleave": 4037,
      "opp": 4038,
      "gebr": 4039,
      "Ġgele": 4040,
      "Ġgegeben": 4041,
      "Ġability": 4042,
      "Ġprote": 4043,
      "Ġaufmer": 4044,
      "Ġmanag": 4045,
      "Ġmodell": 4046,
      "Ġhey": 4047,
      "Ġchir": 4048,
      "Ġexpect": 4049,
      "ills": 4050,
      "Ġwhatever": 4051,
      "zeugen": 4052,
      "Ġ17": 4053,
      "abil": 4054,
      "artment": 4055,
      "ĠÃ¼berr": 4056,
      "Ġentscheiden": 4057,
      "igens": 4058,
      "Ġdev": 4059,
      "ife": 4060,
      "Ġ26": 4061,
      "acks": 4062,
      "Ġconf": 4063,
      "Ġgenannt": 4064,
      "Ġfear": 4065,
      "Ġinterest": 4066,
      "ĠmÃ¶gen": 4067,
      "gress": 4068,
      "ology": 4069,
      "ologie": 4070,
      "pensive": 4071,
      "akter": 4072,
      "Ġwurzel": 4073,
      "Ġroot": 4074,
      "uellen": 4075,
      "Ġbegren": 4076,
      "Ġclock": 4077,
      "Ġideas": 4078,
      "Ġdisc": 4079,
      "Ġparty": 4080,
      "Ġmilliar": 4081,
      "Ġobser": 4082,
      "inner": 4083,
      "halt": 4084,
      "Ġparad": 4085,
      "Ġletzte": 4086,
      "gessen": 4087,
      "Ġcalcul": 4088,
      "Ġzusammenh": 4089,
      "Ġresol": 4090,
      "Ġentweder": 4091,
      "Ġmarkt": 4092,
      "Ġbitte": 4093,
      "ichtet": 4094,
      "Ġbewegt": 4095,
      "Ġcrit": 4096,
      "Ġregion": 4097,
      "Ġterms": 4098,
      "Ġpoints": 4099,
      "Ġlonger": 4100,
      "Ġwissenschaftler": 4101,
      "blick": 4102,
      "dessen": 4103,
      "Ġsprache": 4104,
      "Ġiranian": 4105,
      "Ġgleiche": 4106,
      "Ġbott": 4107,
      "Ġpilze": 4108,
      "ksamkeit": 4109,
      "Ġurk": 4110,
      "Ġlegos": 4111,
      "Ġteacher": 4112,
      "Ġbiology": 4113,
      "Ġverwenden": 4114,
      "Ġcountries": 4115,
      "Ġfunktioniert": 4116,
      "Ġscientists": 4117,
      "Ġintu": 4118,
      "Ġeconomy": 4119,
      "Ġmaterie": 4120,
      "ĠerzÃ¤hlen": 4121,
      "Ġconnected": 4122,
      "Ġprincip": 4123,
      "Ġangst": 4124,
      "ĠfrÃ¼her": 4125,
      "Ġbreak": 4126,
      "ĠverÃ¤ndern": 4127,
      "Ġfortschr": 4128,
      "Ġabsolut": 4129,
      "setzen": 4130,
      "Ġsince": 4131,
      "Ġpotential": 4132,
      "Ġniemals": 4133,
      "Ġstimme": 4134,
      "Ġattention": 4135,
      "Ġfigure": 4136,
      "Ġanzahl": 4137,
      "Ġtravel": 4138,
      "Ġrespons": 4139,
      "Ġerstaunlich": 4140,
      "Ġaston": 4141,
      "Ġhundreds": 4142,
      "Ġsyndr": 4143,
      "Ġprotot": 4144,
      "Ġquickly": 4145,
      "ĠgroÃŁartige": 4146,
      "Ġhoffnung": 4147,
      "Ġvortrag": 4148,
      "Ġcompromise": 4149,
      "Ġwoman": 4150,
      "Ġrouge": 4151,
      "Ġcentury": 4152,
      "Ġinfrastr": 4153,
      "Ġaufmerksamkeit": 4154,
      "Ġsyndrome": 4155,
      "ael": 4156,
      "cially": 4157,
      "fo": 4158,
      "fre": 4159,
      "gh": 4160,
      "gaben": 4161,
      "hre": 4162,
      "hind": 4163,
      "hnen": 4164,
      "hne": 4165,
      "iop": 4166,
      "jo": 4167,
      "just": 4168,
      "lang": 4169,
      "mas": 4170,
      "mar": 4171,
      "mÃ¤": 4172,
      "ped": 4173,
      "rical": 4174,
      "uelle": 4175,
      "van": 4176,
      "vent": 4177,
      "wor": 4178,
      "wind": 4179,
      "yn": 4180,
      "endet": 4181,
      "iner": 4182,
      "inde": 4183,
      "inated": 4184,
      "inating": 4185,
      "Ġton": 4186,
      "Ġtier": 4187,
      "Ġtree": 4188,
      "Ġtakes": 4189,
      "Ġamen": 4190,
      "Ġafr": 4191,
      "Ġdich": 4192,
      "Ġdau": 4193,
      "Ġsent": 4194,
      "Ġwicht": 4195,
      "ĠwÃ¼n": 4196,
      "Ġwesent": 4197,
      "Ġike": 4198,
      "iele": 4199,
      "iefe": 4200,
      "Ġborn": 4201,
      "rep": 4202,
      "rew": 4203,
      "Ġears": 4204,
      "Ġol": 4205,
      "Ġopt": 4206,
      "asen": 4207,
      "asure": 4208,
      "Ġfen": 4209,
      "Ġfit": 4210,
      "ĠfÃ¤": 4211,
      "leep": 4212,
      "Ġpull": 4213,
      "Ġpfle": 4214,
      "organ": 4215,
      "Ġcosm": 4216,
      "iser": 4217,
      "ised": 4218,
      "Ġkosm": 4219,
      "ĠkÃ¤mp": 4220,
      "Ġeinander": 4221,
      "Ġlad": 4222,
      "Ġlern": 4223,
      "Ġlaufen": 4224,
      "otz": 4225,
      "Ã¼cke": 4226,
      "Ã¤g": 4227,
      "urg": 4228,
      "Ġhaiti": 4229,
      "Ġhaufen": 4230,
      "icated": 4231,
      "Ġsek": 4232,
      "Ġsever": 4233,
      "Ġsearch": 4234,
      "Ġdistr": 4235,
      "Ġreach": 4236,
      "Ġregel": 4237,
      "Ġzuerst": 4238,
      "ĠzufÃ¤": 4239,
      "Ġverd": 4240,
      "Ġvergle": 4241,
      "ĠverstÃ¤ndnis": 4242,
      "Ġuner": 4243,
      "Ġstol": 4244,
      "Ġstation": 4245,
      "ĠstÃ¤r": 4246,
      "Ġespe": 4247,
      "indest": 4248,
      "indust": 4249,
      "schu": 4250,
      "liches": 4251,
      "ols": 4252,
      "Ġerwar": 4253,
      "Ġerleben": 4254,
      "ctor": 4255,
      "Ġris": 4256,
      "Ġrenn": 4257,
      "iment": 4258,
      "ĠschÃ¼tzen": 4259,
      "Ġgehe": 4260,
      "auÃŁen": 4261,
      "umpt": 4262,
      "Ġprov": 4263,
      "Ġproz": 4264,
      "Ġprotect": 4265,
      "Ġmittel": 4266,
      "seit": 4267,
      "ulate": 4268,
      "Ġnear": 4269,
      "Ġfrancis": 4270,
      "Ġgoal": 4271,
      "Ġmeer": 4272,
      "iding": 4273,
      "Ġord": 4274,
      "Ġchat": 4275,
      "Ġchain": 4276,
      "Ġumwelt": 4277,
      "Ġdaher": 4278,
      "ivil": 4279,
      "Ġlocal": 4280,
      "ikel": 4281,
      "Ġdeal": 4282,
      "wirtschaft": 4283,
      "Ġmenschlichen": 4284,
      "Ġdaraus": 4285,
      "ĠblÃ¤t": 4286,
      "Ġsave": 4287,
      "Ġmachten": 4288,
      "Ġgenommen": 4289,
      "actions": 4290,
      "Ġfell": 4291,
      "brigens": 4292,
      "Ġrelat": 4293,
      "Ġdrink": 4294,
      "ĠdrauÃŁen": 4295,
      "Ġboy": 4296,
      "Ġamong": 4297,
      "griff": 4298,
      "zugehen": 4299,
      "Ġrolle": 4300,
      "jekte": 4301,
      "Ġflow": 4302,
      "Ġdiscip": 4303,
      "Ġproduce": 4304,
      "Ġprodukt": 4305,
      "Ġunseres": 4306,
      "Ġbestimmt": 4307,
      "lieÃŁen": 4308,
      "Ġliegt": 4309,
      "Ġsysteme": 4310,
      "ĠpersÃ¶n": 4311,
      "Ġautos": 4312,
      "Ġhumans": 4313,
      "ishing": 4314,
      "Ġverbunden": 4315,
      "Ġdesigned": 4316,
      "Ġfamilien": 4317,
      "Ġfreude": 4318,
      "Ġforms": 4319,
      "Ġsurf": 4320,
      "Ġsurv": 4321,
      "Ġfoot": 4322,
      "Ġversuche": 4323,
      "ances": 4324,
      "anced": 4325,
      "Ã¤ss": 4326,
      "Ġgeboren": 4327,
      "Ġfeels": 4328,
      "Ġcommunities": 4329,
      "Ġ400": 4330,
      "Ġjoy": 4331,
      "Ġbrings": 4332,
      "Ġwissenschaftliche": 4333,
      "Ġerkennt": 4334,
      "Ġidentity": 4335,
      "fleisch": 4336,
      "Ġgleichzeitig": 4337,
      "Ġpilzen": 4338,
      "ziehen": 4339,
      "Ġsonne": 4340,
      "Ġlego": 4341,
      "Ġready": 4342,
      "Ġparticip": 4343,
      "Ġwatching": 4344,
      "Ġscientist": 4345,
      "Ġschools": 4346,
      "Ġcortex": 4347,
      "Ġcapital": 4348,
      "syndrom": 4349,
      "fahren": 4350,
      "ĠÃ¤hnlich": 4351,
      "Ġdeliver": 4352,
      "Ġdelph": 4353,
      "Ġhistor": 4354,
      "Ġkarriere": 4355,
      "Ġakk": 4356,
      "ĠerzÃ¤hlt": 4357,
      "Ġexplain": 4358,
      "Ġbleiben": 4359,
      "Ġcosts": 4360,
      "Ġbeginning": 4361,
      "Ġerwachsen": 4362,
      "Ġamazon": 4363,
      "Ġfantastic": 4364,
      "Ġbenutzen": 4365,
      "Ġarbeitete": 4366,
      "Ġ70": 4367,
      "Ġchanged": 4368,
      "ĠglÃ¼cklich": 4369,
      "view": 4370,
      "Ġfacebook": 4371,
      "Ġnahe": 4372,
      "Ġtelescope": 4373,
      "Ġwhistling": 4374,
      "Ġfaszin": 4375,
      "Ġvoice": 4376,
      "Ġvirus": 4377,
      "Ġdigital": 4378,
      "aught": 4379,
      "Ġphotograph": 4380,
      "Ġdiagr": 4381,
      "zufÃ¼": 4382,
      "Ġencour": 4383,
      "Ġmolekular": 4384,
      "Ġdynamic": 4385,
      "Ġpcbs": 4386,
      "Ġsource": 4387,
      "Ġkapital": 4388,
      "ĠverrÃ¼ckt": 4389,
      "Ġdestro": 4390,
      "Ġfeedback": 4391,
      "lieÃŁlich": 4392,
      "Ġsuccess": 4393,
      "Ġcorner": 4394,
      "Ġessentially": 4395,
      "ĠgerÃ¤usch": 4396,
      "Ġgefangenendi": 4397,
      "Ġrecognize": 4398,
      "Ġincluding": 4399,
      "Ġchrist": 4400,
      "Ġshredder": 4401,
      "Ġkolonien": 4402,
      "Ġdescribed": 4403,
      "vÃ¶lker": 4404,
      "Ġtheatre": 4405,
      "ĠmÃ¤dchen": 4406,
      "amples": 4407,
      "gebra": 4408,
      "Ġikea": 4409,
      "Ġespecially": 4410,
      "bj": 4411,
      "bte": 4412,
      "ball": 4413,
      "cence": 4414,
      "haben": 4415,
      "haps": 4416,
      "ko": 4417,
      "kÃ¼": 4418,
      "more": 4419,
      "nat": 4420,
      "nimmt": 4421,
      "nahmen": 4422,
      "oh": 4423,
      "person": 4424,
      "ragen": 4425,
      "tats": 4426,
      "uÃŁ": 4427,
      "vation": 4428,
      "wann": 4429,
      "wert": 4430,
      "wÃ¤r": 4431,
      "ĠÂ": 4432,
      "ĠÃ¤nd": 4433,
      "ene": 4434,
      "eness": 4435,
      "erk": 4436,
      "inal": 4437,
      "Ġav": 4438,
      "chem": 4439,
      "Ġsend": 4440,
      "Ġsleep": 4441,
      "Ġwach": 4442,
      "nds": 4443,
      "Ġbay": 4444,
      "ĠbÃ¼r": 4445,
      "Ġbauten": 4446,
      "Ġbacter": 4447,
      "atisch": 4448,
      "ĠhÃ¼": 4449,
      "Ġhart": 4450,
      "reen": 4451,
      "Ġeher": 4452,
      "Ġgere": 4453,
      "Ġgingen": 4454,
      "Ġtheater": 4455,
      "ases": 4456,
      "Ġfight": 4457,
      "Ġfangen": 4458,
      "lemen": 4459,
      "Ġpin": 4460,
      "Ġpage": 4461,
      "Ġpile": 4462,
      "Ġnation": 4463,
      "arr": 4464,
      "arten": 4465,
      "Ġcars": 4466,
      "Ġciti": 4467,
      "Ġvi": 4468,
      "Ġvar": 4469,
      "ises": 4470,
      "ision": 4471,
      "Ġkat": 4472,
      "Ġkern": 4473,
      "Ġkaufen": 4474,
      "teid": 4475,
      "teile": 4476,
      "ald": 4477,
      "ires": 4478,
      "ĠbevÃ¶lker": 4479,
      "Ġzie": 4480,
      "utt": 4481,
      "Ġwealth": 4482,
      "Ġanal": 4483,
      "Ġangeb": 4484,
      "icles": 4485,
      "tend": 4486,
      "Ġseh": 4487,
      "Ġsell": 4488,
      "Ġseven": 4489,
      "ily": 4490,
      "Ġrei": 4491,
      "Ġrecent": 4492,
      "Ġzugang": 4493,
      "Ġwhale": 4494,
      "Ġjud": 4495,
      "ĠstÃ¤d": 4496,
      "Ġerfor": 4497,
      "Ġergeb": 4498,
      "Ġerschaffen": 4499,
      "Ġalg": 4500,
      "Ġalte": 4501,
      "Ġalgebra": 4502,
      "imeter": 4503,
      "Ġschn": 4504,
      "Ġschicken": 4505,
      "Ġleicht": 4506,
      "Ġleiden": 4507,
      "denn": 4508,
      "gegen": 4509,
      "Ġgekommen": 4510,
      "Ġgebracht": 4511,
      "Ġforest": 4512,
      "weisen": 4513,
      "Ġaufre": 4514,
      "Ġaufgeb": 4515,
      "Ġaren": 4516,
      "Ġareas": 4517,
      "Ġmanche": 4518,
      "Ġmeant": 4519,
      "Ġmeadow": 4520,
      "Ġheart": 4521,
      "Ġorte": 4522,
      "Ġausl": 4523,
      "Ġausbildung": 4524,
      "Ġchic": 4525,
      "Ġworth": 4526,
      "Ġumgebung": 4527,
      "Ġnotice": 4528,
      "Ġ16": 4529,
      "Ġloved": 4530,
      "Ġplatz": 4531,
      "Ġdetect": 4532,
      "astung": 4533,
      "Ġpract": 4534,
      "Ġprint": 4535,
      "Ġzeich": 4536,
      "Ġblood": 4537,
      "Ġbloom": 4538,
      "Ġnacht": 4539,
      "Ġfehler": 4540,
      "Ġcool": 4541,
      "Ã¤tzen": 4542,
      "Ġrelations": 4543,
      "Ġyeah": 4544,
      "Ġcompet": 4545,
      "Ġque": 4546,
      "Ġkompl": 4547,
      "ground": 4548,
      "Ġunternehmen": 4549,
      "ologists": 4550,
      "ared": 4551,
      "play": 4552,
      "Ġscale": 4553,
      "Ġrock": 4554,
      "Ġroad": 4555,
      "Ġstruktur": 4556,
      "Ġideen": 4557,
      "Ġpartner": 4558,
      "Ġmakey": 4559,
      "Ġhinaus": 4560,
      "Ġirr": 4561,
      "Ġacadem": 4562,
      "Ġeinfache": 4563,
      "fÃ¼hrt": 4564,
      "Ġproduzieren": 4565,
      "Ġneeds": 4566,
      "Ġaddr": 4567,
      "Ġmedical": 4568,
      "Ġstudying": 4569,
      "Ġcarr": 4570,
      "Ġwiederhol": 4571,
      "Ġbigger": 4572,
      "Ġbiggest": 4573,
      "igkeiten": 4574,
      "Ġmonaten": 4575,
      "Ġverbre": 4576,
      "Ġzumindest": 4577,
      "Ġkeiner": 4578,
      "Ġhalte": 4579,
      "gels": 4580,
      "produ": 4581,
      "Ġrealize": 4582,
      "Ġfreunde": 4583,
      "Ġgrunde": 4584,
      "Ġshowing": 4585,
      "Ġeigene": 4586,
      "Ġshouldn": 4587,
      "Ġexperimente": 4588,
      "Ġimagery": 4589,
      "glicht": 4590,
      "Ġgebaut": 4591,
      "ĠnatÃ¼rliche": 4592,
      "Ġfinde": 4593,
      "Ġfinally": 4594,
      "Ġbedeuten": 4595,
      "Ġverlieren": 4596,
      "olding": 4597,
      "Ġlearning": 4598,
      "Ġabsor": 4599,
      "Ġabsicht": 4600,
      "Ġberg": 4601,
      "Ġdirectly": 4602,
      "Ġbekommt": 4603,
      "Ġspricht": 4604,
      "ĠidentitÃ¤t": 4605,
      "Ġgives": 4606,
      "Ġlaunch": 4607,
      "Ġspread": 4608,
      "Ġmolecul": 4609,
      "Ġserious": 4610,
      "Ġbetrachten": 4611,
      "Ġbetrachtet": 4612,
      "Ġverwand": 4613,
      "Ġgreater": 4614,
      "like": 4615,
      "Ġwunderbar": 4616,
      "Ġfahrer": 4617,
      "Ġvoller": 4618,
      "Ġanswer": 4619,
      "Ġdream": 4620,
      "Ġerreicht": 4621,
      "Ġfolgen": 4622,
      "Ġhundert": 4623,
      "Ġconnection": 4624,
      "Ġrichtige": 4625,
      "Ġtypes": 4626,
      "Ġtotally": 4627,
      "Ġkambod": 4628,
      "Ġcollective": 4629,
      "Ġfunction": 4630,
      "Ġmiles": 4631,
      "Ġaufgabe": 4632,
      "Ġspending": 4633,
      "Ġkolle": 4634,
      "Ġjobs": 4635,
      "ĠfÃ¤higkeiten": 4636,
      "Ġsinne": 4637,
      "Ġverkaufen": 4638,
      "Ġinstrument": 4639,
      "Ġleaves": 4640,
      "viele": 4641,
      "Ġmicro": 4642,
      "Ġcopy": 4643,
      "Ġpopulation": 4644,
      "Ġcollabor": 4645,
      "Ġindividual": 4646,
      "Ġentirely": 4647,
      "Ġgesichter": 4648,
      "ĠerklÃ¤r": 4649,
      "Ġlimited": 4650,
      "Ġlistening": 4651,
      "Ġrobot": 4652,
      "Ġnamens": 4653,
      "Ġbreath": 4654,
      "ĠermÃ¶glicht": 4655,
      "Ġkrankenhaus": 4656,
      "Ġcambod": 4657,
      "Ġrequire": 4658,
      "ĠunterstÃ¼t": 4659,
      "Ġentstehen": 4660,
      "Ġachie": 4661,
      "Ġspirit": 4662,
      "Ġextraord": 4663,
      "Ġpuppet": 4664,
      "Ġcontrol": 4665,
      "Ġsouth": 4666,
      "Ġsterben": 4667,
      "Ġbrilliant": 4668,
      "Ġhospital": 4669,
      "unehmen": 4670,
      "Ġmilliarden": 4671,
      "Ġwesentlichen": 4672,
      "Ġfenster": 4673,
      "Ġseveral": 4674,
      "natÃ¼r": 4675,
      "tatsÃ¤chlich": 4676,
      "Ġcitizen": 4677,
      "Ġrelationship": 4678,
      "Ġacademy": 4679,
      "Ġaddress": 4680,
      "Ġmolecules": 4681,
      "10": 4682,
      "bienen": 4683,
      "cm": 4684,
      "cer": 4685,
      "fet": 4686,
      "finden": 4687,
      "gs": 4688,
      "hor": 4689,
      "hÃ¤lt": 4690,
      "ients": 4691,
      "len": 4692,
      "lin": 4693,
      "light": 4694,
      "ments": 4695,
      "miss": 4696,
      "nall": 4697,
      "nah": 4698,
      "ove": 4699,
      "ps": 4700,
      "pass": 4701,
      "rik": 4702,
      "rate": 4703,
      "sion": 4704,
      "tes": 4705,
      "tag": 4706,
      "tim": 4707,
      "za": 4708,
      "zw": 4709,
      "zum": 4710,
      "zunehmen": 4711,
      "ena": 4712,
      "Ġtit": 4713,
      "Ġtro": 4714,
      "Ġtagen": 4715,
      "Ġtaten": 4716,
      "Ġage": 4717,
      "Ġaud": 4718,
      "Ġdir": 4719,
      "Ġdise": 4720,
      "Ġsal": 4721,
      "Ġsite": 4722,
      "Ġwes": 4723,
      "Ġwand": 4724,
      "Ġwik": 4725,
      "Ġwils": 4726,
      "Ġice": 4727,
      "ĠmÃ¼": 4728,
      "Ġmcm": 4729,
      "Ġbur": 4730,
      "Ġbunch": 4731,
      "onen": 4732,
      "Ġhit": 4733,
      "Ġhom": 4734,
      "Ġhinge": 4735,
      "reten": 4736,
      "Ġeinge": 4737,
      "anu": 4738,
      "anford": 4739,
      "Ġgern": 4740,
      "Ġgyr": 4741,
      "Ġoth": 4742,
      "ased": 4743,
      "asion": 4744,
      "Ġfem": 4745,
      "Ġfel": 4746,
      "Ġfine": 4747,
      "Ġpest": 4748,
      "Ġpiz": 4749,
      "Ġpuppen": 4750,
      "Ġintr": 4751,
      "Ġinno": 4752,
      "Ġinner": 4753,
      "oud": 4754,
      "orie": 4755,
      "Ġce": 4756,
      "Ġvalle": 4757,
      "Ġkid": 4758,
      "Ġkamen": 4759,
      "ĠkÃ¼m": 4760,
      "apse": 4761,
      "tete": 4762,
      "Ġtod": 4763,
      "Ġtoll": 4764,
      "Ġlow": 4765,
      "Ġlist": 4766,
      "Ġlok": 4767,
      "ĠlÃ¤uft": 4768,
      "oth": 4769,
      "irin": 4770,
      "Ġzahl": 4771,
      "Ã¤ger": 4772,
      "urdo": 4773,
      "Ġhaut": 4774,
      "Ġhaven": 4775,
      "though": 4776,
      "ements": 4777,
      "elten": 4778,
      "Ġanzu": 4779,
      "icon": 4780,
      "Ã¶nen": 4781,
      "Ġseed": 4782,
      "iling": 4783,
      "ames": 4784,
      "Ġzustand": 4785,
      "Ġjanu": 4786,
      "ago": 4787,
      "Ġstay": 4788,
      "Ġstanford": 4789,
      "schte": 4790,
      "schÃ¶n": 4791,
      "Ġerle": 4792,
      "Ġalter": 4793,
      "Ġalarm": 4794,
      "Ġalthough": 4795,
      "Ġrich": 4796,
      "Ġrot": 4797,
      "Ġrund": 4798,
      "Ġrunter": 4799,
      "imag": 4800,
      "Ġlebe": 4801,
      "Ġleist": 4802,
      "Ġlebt": 4803,
      "bees": 4804,
      "Ġforg": 4805,
      "Ġabge": 4806,
      "Ġabove": 4807,
      "Ġaufzu": 4808,
      "Ġaufgenommen": 4809,
      "ules": 4810,
      "Ġmangro": 4811,
      "Ġallgem": 4812,
      "Ġneutr": 4813,
      "head": 4814,
      "Ġgoog": 4815,
      "Ġmeth": 4816,
      "Ġsphere": 4817,
      "Ġspitze": 4818,
      "Ġspores": 4819,
      "idge": 4820,
      "Ġchance": 4821,
      "Ġworden": 4822,
      "Ġwords": 4823,
      "Ġexpensive": 4824,
      "Ġwarren": 4825,
      "Ġtrust": 4826,
      "Ġteen": 4827,
      "Ġteile": 4828,
      "zeigt": 4829,
      "Ġsomewhere": 4830,
      "Ġgrad": 4831,
      "ieso": 4832,
      "Ġdessen": 4833,
      "abt": 4834,
      "Ġwerk": 4835,
      "inken": 4836,
      "ĠÃ¼berw": 4837,
      "ĠÃ¼berall": 4838,
      "Ġplast": 4839,
      "Ġentf": 4840,
      "Ġwoche": 4841,
      "Ġnobody": 4842,
      "Ġdef": 4843,
      "Ġdepr": 4844,
      "Ġmenschheit": 4845,
      "Ġ250": 4846,
      "Ġzehn": 4847,
      "wasser": 4848,
      "dass": 4849,
      "Ġblatt": 4850,
      "Ġcontr": 4851,
      "Ġenor": 4852,
      "Ġengl": 4853,
      "Ġnachzu": 4854,
      "Ġnachdem": 4855,
      "ipt": 4856,
      "action": 4857,
      "Ġfeat": 4858,
      "Ġcoal": 4859,
      "Ġamp": 4860,
      "Ġmussten": 4861,
      "ously": 4862,
      "Ġperform": 4863,
      "Ġperhaps": 4864,
      "Ġscan": 4865,
      "Ġweltall": 4866,
      "Ġrow": 4867,
      "Ġrole": 4868,
      "Ġclim": 4869,
      "Ġsheep": 4870,
      "Ġstrom": 4871,
      "Ġstrand": 4872,
      "Ġflash": 4873,
      "Ġmillions": 4874,
      "Ġmillimeter": 4875,
      "Ġeinfl": 4876,
      "Ġwants": 4877,
      "Ġobvious": 4878,
      "Ġhoffe": 4879,
      "Ġnews": 4880,
      "Ġindire": 4881,
      "Ġletters": 4882,
      "Ġproductive": 4883,
      "Ġhands": 4884,
      "Ġgewesen": 4885,
      "Ġgewisse": 4886,
      "Ġhelium": 4887,
      "Ġresour": 4888,
      "Ġelim": 4889,
      "Ġgelernt": 4890,
      "Ġmonat": 4891,
      "Ġstark": 4892,
      "Ġsolche": 4893,
      "Ġhalb": 4894,
      "prof": 4895,
      "Ġbasic": 4896,
      "Ġcolor": 4897,
      "ĠhÃ¶her": 4898,
      "Ġkrit": 4899,
      "Ġbehau": 4900,
      "Ġtatsache": 4901,
      "volle": 4902,
      "Ġkleines": 4903,
      "ĠbÃ¼hne": 4904,
      "Ġhimmel": 4905,
      "Ġappl": 4906,
      "Ġappro": 4907,
      "Ġfindet": 4908,
      "Ġwahrneh": 4909,
      "Ġbringing": 4910,
      "Ġbenef": 4911,
      "Ġneues": 4912,
      "Ġnorth": 4913,
      "Ġinteressiert": 4914,
      "Ġinteressante": 4915,
      "Ġskin": 4916,
      "Ġtransport": 4917,
      "ucks": 4918,
      "ameras": 4919,
      "Ġantar": 4920,
      "Ġantwort": 4921,
      "Ġsignals": 4922,
      "Ġseemed": 4923,
      "Ġcheap": 4924,
      "Ġschaff": 4925,
      "Ġmovie": 4926,
      "Ġserm": 4927,
      "Ġpossibility": 4928,
      "Ġbiologie": 4929,
      "Ġpatent": 4930,
      "Ġanimal": 4931,
      "Ġreasons": 4932,
      "Ġprofess": 4933,
      "Ġcontin": 4934,
      "Ġwunderbare": 4935,
      "Ġvollkommen": 4936,
      "Ġaccum": 4937,
      "ymour": 4938,
      "estens": 4939,
      "Ġeconomic": 4940,
      "Ġmeter": 4941,
      "Ġexistieren": 4942,
      "ĠÃ¼brigens": 4943,
      "ĠverÃ¤ndert": 4944,
      "Ġvietnamese": 4945,
      "Ġsupposed": 4946,
      "Ġbleibt": 4947,
      "Ġcurr": 4948,
      "ushed": 4949,
      "Ġinspiriert": 4950,
      "Ġinstitutions": 4951,
      "Ġbodies": 4952,
      "Ġaufgaben": 4953,
      "Ġ1970": 4954,
      "Ġnahrung": 4955,
      "Ġamerikanischen": 4956,
      "Ġretten": 4957,
      "Ġchanging": 4958,
      "Ġmicros": 4959,
      "Ġfisk": 4960,
      "Ġbewusst": 4961,
      "Ġstaaten": 4962,
      "Ġinteresse": 4963,
      "Ġschwierig": 4964,
      "Ġbegannen": 4965,
      "Ġincredible": 4966,
      "Ġfundamental": 4967,
      "Ġsque": 4968,
      "Ġposition": 4969,
      "augh": 4970,
      "ĠerklÃ¤ren": 4971,
      "Ġdomest": 4972,
      "Ġeurope": 4973,
      "Ġinsects": 4974,
      "Ġforschung": 4975,
      "Ġkommunik": 4976,
      "Ġkilometers": 4977,
      "Ġtempor": 4978,
      "Ġdramatic": 4979,
      "Ġteleskop": 4980,
      "Ġteleskope": 4981,
      "Ġmental": 4982,
      "Ġlinie": 4983,
      "ĠlÃ¤nder": 4984,
      "Ġschulen": 4985,
      "Ġelektron": 4986,
      "Ġcowbo": 4987,
      "Ġzentr": 4988,
      "Ġimmedi": 4989,
      "pressed": 4990,
      "Ġtask": 4991,
      "Ġdanach": 4992,
      "Ġsuddenly": 4993,
      "Ġfertig": 4994,
      "Ġpfeifen": 4995,
      "Ġcolonies": 4996,
      "Ġbedingungen": 4997,
      "Ġdemokratie": 4998,
      "Ġvergangenheit": 4999,
      "Ġpatienten": 5000,
      "Ġharvard": 5001,
      "Ġtiny": 5002,
      "Ġverein": 5003,
      "Ġkermit": 5004,
      "Ġbeziehung": 5005,
      "ĠverfÃ¼gung": 5006,
      "Ġmodernen": 5007,
      "Ġautonomous": 5008,
      "Ġkohlenstoff": 5009,
      "Ġverursacht": 5010,
      "Ġtexas": 5011,
      "Ġchirurg": 5012,
      "akterien": 5013,
      "Ġresolve": 5014,
      "Ġbottom": 5015,
      "Ġurknall": 5016,
      "umption": 5017,
      "Ġgefangenendilemma": 5018,
      "Ġbacteria": 5019,
      "Ġchicago": 5020,
      "Ġcambodia": 5021,
      "Ġextraordinary": 5022,
      "Ġmcmurdo": 5023,
      "Ġgyrus": 5024,
      "Ġothers": 5025,
      "Ġpizza": 5026,
      "Ġvalley": 5027,
      "Ġnachzudenken": 5028,
      "Ġimmediately": 5029,
      "dig": 5030,
      "fan": 5031,
      "fung": 5032,
      "fish": 5033,
      "fÃ¤h": 5034,
      "gie": 5035,
      "ha": 5036,
      "ios": 5037,
      "iled": 5038,
      "jen": 5039,
      "jeder": 5040,
      "kungen": 5041,
      "mus": 5042,
      "mers": 5043,
      "pend": 5044,
      "pack": 5045,
      "pflanzen": 5046,
      "sa": 5047,
      "ses": 5048,
      "son": 5049,
      "upt": 5050,
      "uable": 5051,
      "von": 5052,
      "vision": 5053,
      "wÃ¼r": 5054,
      "wagen": 5055,
      "wÃ¤hrend": 5056,
      "your": 5057,
      "ycl": 5058,
      "zogen": 5059,
      "Ġtal": 5060,
      "Ġtage": 5061,
      "Ġavo": 5062,
      "Ġahnung": 5063,
      "ched": 5064,
      "chern": 5065,
      "ĠwÃ¼": 5066,
      "Ġwild": 5067,
      "Ġthom": 5068,
      "ndon": 5069,
      "iete": 5070,
      "Ġmap": 5071,
      "Ġmention": 5072,
      "Ġbom": 5073,
      "Ġband": 5074,
      "Ġbic": 5075,
      "Ġbought": 5076,
      "Ġbaum": 5077,
      "Ġhem": 5078,
      "stet": 5079,
      "stop": 5080,
      "stÃ¼ck": 5081,
      "Ġeat": 5082,
      "Ġeis": 5083,
      "Ġecht": 5084,
      "Ġeating": 5085,
      "Ġeye": 5086,
      "anist": 5087,
      "Ġgiant": 5088,
      "Ġfire": 5089,
      "Ġfix": 5090,
      "lei": 5091,
      "Ġpause": 5092,
      "Ġpants": 5093,
      "Ġpuppe": 5094,
      "Ġnad": 5095,
      "Ġnone": 5096,
      "Ġnenne": 5097,
      "lly": 5098,
      "Ġcat": 5099,
      "Ġcaus": 5100,
      "Ġcause": 5101,
      "isan": 5102,
      "isation": 5103,
      "isiert": 5104,
      "isieren": 5105,
      "Ġkan": 5106,
      "Ġkir": 5107,
      "ĠkÃ¼": 5108,
      "Ġkamera": 5109,
      "appen": 5110,
      "Ġlauf": 5111,
      "ĠlÃ¤nger": 5112,
      "ott": 5113,
      "irm": 5114,
      "Ġbeach": 5115,
      "Ġbege": 5116,
      "edy": 5117,
      "Ġwet": 5118,
      "Ã¤gt": 5119,
      "urr": 5120,
      "uren": 5121,
      "Ġhab": 5122,
      "emals": 5123,
      "roffen": 5124,
      "Ġanc": 5125,
      "Ġangel": 5126,
      "Ġansehen": 5127,
      "icke": 5128,
      "Ã¶pf": 5129,
      "Ġderen": 5130,
      "Ġdien": 5131,
      "ama": 5132,
      "Ġrece": 5133,
      "Ġwhol": 5134,
      "Ġjemals": 5135,
      "Ġverstand": 5136,
      "Ġverteil": 5137,
      "Ġvergessen": 5138,
      "Ġunge": 5139,
      "Ġunbed": 5140,
      "Ġsold": 5141,
      "Ġstage": 5142,
      "Ġstick": 5143,
      "Ġstore": 5144,
      "Ġstoff": 5145,
      "berg": 5146,
      "Ġerschein": 5147,
      "Ġersetzen": 5148,
      "Ġalph": 5149,
      "cting": 5150,
      "Ġring": 5151,
      "Ġrap": 5152,
      "Ġruss": 5153,
      "Ġschau": 5154,
      "Ġschmer": 5155,
      "ĠschlieÃŁlich": 5156,
      "Ġlegen": 5157,
      "Ġleuchten": 5158,
      "gegeben": 5159,
      "Ġgezeigt": 5160,
      "aubt": 5161,
      "Ġabgesch": 5162,
      "heim": 5163,
      "Ġliber": 5164,
      "Ġorient": 5165,
      "Ġausdr": 5166,
      "essern": 5167,
      "Ġchann": 5168,
      "Ġexamples": 5169,
      "Ġtrue": 5170,
      "Ġtrouble": 5171,
      "zeichen": 5172,
      "Ġsomehow": 5173,
      "ĠgrÃ¼": 5174,
      "ĠgrÃ¼n": 5175,
      "Ġgrippe": 5176,
      "stellt": 5177,
      "abled": 5178,
      "ability": 5179,
      "iene": 5180,
      "nete": 5181,
      "ends": 5182,
      "ived": 5183,
      "Ġlog": 5184,
      "Ġlondon": 5185,
      "Ġplat": 5186,
      "Ġbran": 5187,
      "Ġbrachte": 5188,
      "Ġbrief": 5189,
      "Ġentities": 5190,
      "Ġvorstellung": 5191,
      "Ġgeschen": 5192,
      "Ġdeath": 5193,
      "astroph": 5194,
      "sieht": 5195,
      "Ġprim": 5196,
      "Ġpress": 5197,
      "Ġprakt": 5198,
      "Ġuses": 5199,
      "Ġ23": 5200,
      "Ġzeige": 5201,
      "Ġbecomes": 5202,
      "Ġblut": 5203,
      "Ġblick": 5204,
      "Ġconst": 5205,
      "Ġcongress": 5206,
      "idet": 5207,
      "Ġenz": 5208,
      "Ġsahen": 5209,
      "Ġactivity": 5210,
      "Ġsteuer": 5211,
      "Ġstellte": 5212,
      "stens": 5213,
      "Ġfeet": 5214,
      "Ġcover": 5215,
      "griffen": 5216,
      "Ġproblemen": 5217,
      "ological": 5218,
      "phil": 5219,
      "Ġphone": 5220,
      "Ġphoto": 5221,
      "auft": 5222,
      "Ġwilling": 5223,
      "Ġevent": 5224,
      "Ġmeinung": 5225,
      "Ġgesche": 5226,
      "hnliche": 5227,
      "Ġsheet": 5228,
      "Ġzweite": 5229,
      "Ġzweiten": 5230,
      "Ġarbeitet": 5231,
      "Ġexperten": 5232,
      "Ġflas": 5233,
      "Ġdisk": 5234,
      "Ġdiszip": 5235,
      "Ġdisplay": 5236,
      "ĠgroÃŁes": 5237,
      "Ġobjekt": 5238,
      "Ġhook": 5239,
      "Ġspeed": 5240,
      "ampf": 5241,
      "Ġbestand": 5242,
      "ĠbestÃ¤": 5243,
      "Ġadult": 5244,
      "Ġhandle": 5245,
      "Ġmedien": 5246,
      "ĠgewÃ¶": 5247,
      "Ġgewinnen": 5248,
      "Ã¤rm": 5249,
      "Ġgelang": 5250,
      "Ġmonate": 5251,
      "Ġlights": 5252,
      "Ġ193": 5253,
      "Ġamerika": 5254,
      "werke": 5255,
      "Ġganzheit": 5256,
      "maÃŁ": 5257,
      "ĠfÃ¼hr": 5258,
      "ĠfÃ¼hlt": 5259,
      "ĠfÃ¼hrt": 5260,
      "rian": 5261,
      "Ġpreis": 5262,
      "Ġweiteres": 5263,
      "Ġpersonal": 5264,
      "ĠhÃ¶he": 5265,
      "Ġbehav": 5266,
      "ometown": 5267,
      "ancy": 5268,
      "Ã¤sent": 5269,
      "Ġkleiner": 5270,
      "Ġentwicklung": 5271,
      "Ġguess": 5272,
      "Ġsmart": 5273,
      "boot": 5274,
      "Ġbuchst": 5275,
      "Ġecke": 5276,
      "Ġfinanz": 5277,
      "Ġfinished": 5278,
      "Ġcenter": 5279,
      "Ġverloren": 5280,
      "Ġjoin": 5281,
      "Ġgeneral": 5282,
      "Ġturning": 5283,
      "Ġdirection": 5284,
      "fÃ¼hlend": 5285,
      "Ġerkannte": 5286,
      "Ġtelling": 5287,
      "ĠgrÃ¶ÃŁe": 5288,
      "Ġgemeinsam": 5289,
      "Ġlawn": 5290,
      "Ġspecific": 5291,
      "Ġpilz": 5292,
      "Ġantib": 5293,
      "Ġsignale": 5294,
      "Ġpolitik": 5295,
      "Ġreading": 5296,
      "Ġcomputers": 5297,
      "Ġbeschrieben": 5298,
      "Ġfavor": 5299,
      "Ġremind": 5300,
      "Ġmathematik": 5301,
      "Ġfahrrad": 5302,
      "Ġlargest": 5303,
      "Ġphysical": 5304,
      "Ġirgendwann": 5305,
      "fahrt": 5306,
      "Ġhighly": 5307,
      "kette": 5308,
      "Ġhyd": 5309,
      "Ġexistiert": 5310,
      "Ġsecular": 5311,
      "Ġstrecke": 5312,
      "legenheit": 5313,
      "Ġverschw": 5314,
      "arbeitet": 5315,
      "Ġvietnames": 5316,
      "ĠmÃ¶glichkeiten": 5317,
      "Ġeinzige": 5318,
      "Ġfragten": 5319,
      "Ġdemocracy": 5320,
      "schlag": 5321,
      "Ġpollution": 5322,
      "brechen": 5323,
      "ĠprÃ¤sident": 5324,
      "ĠlÃ¶sungen": 5325,
      "kraft": 5326,
      "Ġbillion": 5327,
      "Ġarbeiteten": 5328,
      "grow": 5329,
      "Ġpropos": 5330,
      "Ġassem": 5331,
      "Ġchemical": 5332,
      "Ġdeveloping": 5333,
      "Ġkomplett": 5334,
      "Ġbesteht": 5335,
      "Ġriesige": 5336,
      "systeme": 5337,
      "Ġsorgen": 5338,
      "Ġfasc": 5339,
      "Ġfundamentally": 5340,
      "Ġdigit": 5341,
      "Ġrepresent": 5342,
      "Ġelectron": 5343,
      "Ġeurop": 5344,
      "Ġinsekten": 5345,
      "Ġanstatt": 5346,
      "Ġerinnern": 5347,
      "nehmer": 5348,
      "wissenschaft": 5349,
      "Ġrunning": 5350,
      "Ġobjects": 5351,
      "Ġernst": 5352,
      "Ġcommunication": 5353,
      "Ġprofessional": 5354,
      "Ġexcited": 5355,
      "Ġdrivers": 5356,
      "Ġgalaxy": 5357,
      "Ġpenc": 5358,
      "Ġrelease": 5359,
      "Ġchoice": 5360,
      "ĠgeschÃ¤fts": 5361,
      "Ġreaktion": 5362,
      "ĠzugÃ¤n": 5363,
      "Ġbestimmten": 5364,
      "Ġkeyboard": 5365,
      "Ġkrieg": 5366,
      "Ġbemerkt": 5367,
      "Ġgrenzen": 5368,
      "Ġgesamte": 5369,
      "Ġerfolgreich": 5370,
      "Ġextremely": 5371,
      "Ġdolphin": 5372,
      "Ġannoun": 5373,
      "Ġcloser": 5374,
      "Ġmorgens": 5375,
      "Ġfollow": 5376,
      "Ġglobal": 5377,
      "Ġkontroll": 5378,
      "Ġkompromiss": 5379,
      "Ġdadurch": 5380,
      "Ġintens": 5381,
      "Ġnahm": 5382,
      "Ġcritical": 5383,
      "Ġfortschritt": 5384,
      "windigkeit": 5385,
      "Ġoptim": 5386,
      "ĠkÃ¤mpfen": 5387,
      "Ġordnung": 5388,
      "Ġdestroy": 5389,
      "Ġsuccessful": 5390,
      "wÃ¤rts": 5391,
      "ĠbÃ¼rger": 5392,
      "Ġviol": 5393,
      "ĠbevÃ¶lkerung": 5394,
      "Ġreihe": 5395,
      "Ġrecently": 5396,
      "Ġjudy": 5397,
      "Ġkambodscha": 5398,
      "Ġkollektiv": 5399,
      "natÃ¼rlich": 5400,
      "nahme": 5401,
      "imagine": 5402,
      "Ġlebewesen": 5403,
      "Ġwahrnehmung": 5404,
      "Ġthomas": 5405,
      "Ġwholeness": 5406,
      "Ġbehavior": 5407,
      "11": 5408,
      "200": 5409,
      "30": 5410,
      "aid": 5411,
      "afen": 5412,
      "affen": 5413,
      "bing": 5414,
      "band": 5415,
      "bold": 5416,
      "bald": 5417,
      "cen": 5418,
      "can": 5419,
      "car": 5420,
      "col": 5421,
      "fir": 5422,
      "gelt": 5423,
      "iot": 5424,
      "jemand": 5425,
      "joy": 5426,
      "kan": 5427,
      "kle": 5428,
      "know": 5429,
      "kommt": 5430,
      "mern": 5431,
      "mass": 5432,
      "meine": 5433,
      "over": 5434,
      "obe": 5435,
      "oge": 5436,
      "oid": 5437,
      "round": 5438,
      "samen": 5439,
      "win": 5440,
      "ype": 5441,
      "yond": 5442,
      "zur": 5443,
      "zul": 5444,
      "zahl": 5445,
      "erc": 5446,
      "inct": 5447,
      "Ġtast": 5448,
      "Ġtieren": 5449,
      "Ġtour": 5450,
      "Ġastr": 5451,
      "Ġahead": 5452,
      "Ġdro": 5453,
      "Ġdame": 5454,
      "Ġdanc": 5455,
      "Ġdwar": 5456,
      "char": 5457,
      "chsel": 5458,
      "Ġsong": 5459,
      "Ġsamen": 5460,
      "Ġsitting": 5461,
      "Ġsaras": 5462,
      "Ġsacks": 5463,
      "Ġwin": 5464,
      "ĠwÃ¤chst": 5465,
      "Ġmars": 5466,
      "ĠmÃ¤r": 5467,
      "Ġmix": 5468,
      "Ġbag": 5469,
      "Ġhig": 5470,
      "Ġhunder": 5471,
      "Ġharm": 5472,
      "Ġhoney": 5473,
      "ston": 5474,
      "Ġed": 5475,
      "Ġeuch": 5476,
      "Ġgay": 5477,
      "Ġgather": 5478,
      "Ġgold": 5479,
      "Ġgaben": 5480,
      "Ġthemen": 5481,
      "Ġober": 5482,
      "itieren": 5483,
      "aschen": 5484,
      "Ġfot": 5485,
      "Ġul": 5486,
      "leitet": 5487,
      "Ġpenn": 5488,
      "Ġpaul": 5489,
      "Ġpunkte": 5490,
      "Ġinf": 5491,
      "Ġnom": 5492,
      "Ġname": 5493,
      "ĠnÃ¶t": 5494,
      "Ġnannte": 5495,
      "arf": 5496,
      "aries": 5497,
      "order": 5498,
      "orien": 5499,
      "orough": 5500,
      "Ġcure": 5501,
      "Ġcities": 5502,
      "Ġvib": 5503,
      "Ġvolum": 5504,
      "isy": 5505,
      "isons": 5506,
      "ĠkÃ¤": 5507,
      "Ġket": 5508,
      "Ġkuch": 5509,
      "Ġkath": 5510,
      "appe": 5511,
      "Ġtown": 5512,
      "Ġtolle": 5513,
      "Ġlose": 5514,
      "Ġlower": 5515,
      "alie": 5516,
      "Ã¼te": 5517,
      "Ġbeteil": 5518,
      "igr": 5519,
      "Ġzun": 5520,
      "Ġzut": 5521,
      "Ġzahlen": 5522,
      "Ġdiejen": 5523,
      "uts": 5524,
      "utionen": 5525,
      "usagen": 5526,
      "Ã¤ne": 5527,
      "Ã¤hlt": 5528,
      "Ġsieben": 5529,
      "ications": 5530,
      "icient": 5531,
      "Ġderzeit": 5532,
      "Ġsea": 5533,
      "Ġsex": 5534,
      "Ġsequ": 5535,
      "Ġseattle": 5536,
      "Ġseymour": 5537,
      "Ġdilem": 5538,
      "Ġreich": 5539,
      "Ġrepe": 5540,
      "Ġreise": 5541,
      "Ġredesign": 5542,
      "Ġwhite": 5543,
      "Ġverbringen": 5544,
      "Ġverfol": 5545,
      "Ġverteid": 5546,
      "Ġunver": 5547,
      "etz": 5548,
      "Ġstam": 5549,
      "ĠstÃ¤nd": 5550,
      "Ġesc": 5551,
      "scht": 5552,
      "schw": 5553,
      "schutz": 5554,
      "Ġerd": 5555,
      "Ġerr": 5556,
      "Ġergibt": 5557,
      "Ġalone": 5558,
      "Ġress": 5559,
      "Ġrate": 5560,
      "Ġride": 5561,
      "Ġrac": 5562,
      "Ġrahmen": 5563,
      "Ġrasen": 5564,
      "imp": 5565,
      "verage": 5566,
      "Ġschad": 5567,
      "Ġschiz": 5568,
      "Ġlehr": 5569,
      "Ġlead": 5570,
      "Ġgefr": 5571,
      "Ġgeomet": 5572,
      "Ġgehalten": 5573,
      "Ġgebrau": 5574,
      "einer": 5575,
      "auben": 5576,
      "cker": 5577,
      "weite": 5578,
      "umm": 5579,
      "uments": 5580,
      "Ġabzu": 5581,
      "ĠmitfÃ¼hlend": 5582,
      "Ġaufnehmen": 5583,
      "Ġaufgrund": 5584,
      "uchs": 5585,
      "Ġarzt": 5586,
      "Ġdoc": 5587,
      "mented": 5588,
      "Ġmob": 5589,
      "Ġmeeres": 5590,
      "Ġmeilen": 5591,
      "kton": 5592,
      "ktor": 5593,
      "Ġheil": 5594,
      "Ġasso": 5595,
      "eseit": 5596,
      "Ġauseinander": 5597,
      "Ġchurch": 5598,
      "Ġworry": 5599,
      "ibung": 5600,
      "Ġpeer": 5601,
      "ielt": 5602,
      "Ġgros": 5603,
      "iesen": 5604,
      "ney": 5605,
      "endungen": 5606,
      "ival": 5607,
      "zenz": 5608,
      "ĠÃ¼berleben": 5609,
      "Ġentlang": 5610,
      "Ġvorles": 5611,
      "Ġnoise": 5612,
      "Ġdeut": 5613,
      "Ġdefen": 5614,
      "Ġshot": 5615,
      "Ġshort": 5616,
      "Ġshift": 5617,
      "Ġusa": 5618,
      "Ġusually": 5619,
      "anger": 5620,
      "Ġ25": 5621,
      "Ġherz": 5622,
      "Ġdarwin": 5623,
      "Ġconvin": 5624,
      "Ġenjoy": 5625,
      "track": 5626,
      "Ġactiv": 5627,
      "Ġsteuern": 5628,
      "pected": 5629,
      "render": 5630,
      "Ġcode": 5631,
      "Ã¤tze": 5632,
      "Ġinterpre": 5633,
      "Ġinterview": 5634,
      "Ġdritte": 5635,
      "Ġboston": 5636,
      "Ġeveryday": 5637,
      "Ġquiet": 5638,
      "Ġkomp": 5639,
      "Ġkomment": 5640,
      "grÃ¼nd": 5641,
      "Ġpost": 5642,
      "wohn": 5643,
      "platz": 5644,
      "Ġpercept": 5645,
      "Ġscr": 5646,
      "Ġscreen": 5647,
      "Ġallein": 5648,
      "Ã¤che": 5649,
      "Ġweltweit": 5650,
      "Ġartists": 5651,
      "uell": 5652,
      "Ġkons": 5653,
      "Ġagar": 5654,
      "Ġagree": 5655,
      "Ġcliff": 5656,
      "Ġgeschah": 5657,
      "Ġgeschaffen": 5658,
      "Ġschwimmen": 5659,
      "Ġexpert": 5660,
      "Ġexperien": 5661,
      "Ġflo": 5662,
      "Ġklingen": 5663,
      "Ġklingt": 5664,
      "Ã¤nde": 5665,
      "Ġdisappe": 5666,
      "Ġmichael": 5667,
      "Ġanyway": 5668,
      "inning": 5669,
      "Ġfirma": 5670,
      "Ġacqu": 5671,
      "Ã¤hrt": 5672,
      "Ġindien": 5673,
      "Ġspezie": 5674,
      "Ã¼sse": 5675,
      "Ã¼nft": 5676,
      "Ġproducts": 5677,
      "Ġproduktion": 5678,
      "Ġproducing": 5679,
      "Ġtechnik": 5680,
      "Ġadam": 5681,
      "Ġgewalt": 5682,
      "Ġgewonnen": 5683,
      "Ġcaliforn": 5684,
      "Ġcarry": 5685,
      "gery": 5686,
      "Ġauthor": 5687,
      "Ġemploy": 5688,
      "Ġgehabt": 5689,
      "Ġtalks": 5690,
      "Ġ199": 5691,
      "Ġverbinden": 5692,
      "Ġverbindet": 5693,
      "Ġverbessern": 5694,
      "Ġstarten": 5695,
      "Ġmarx": 5696,
      "Ġbitten": 5697,
      "Ġfamiliar": 5698,
      "Ġlandsc": 5699,
      "ĠfÃ¼hle": 5700,
      "ĠfÃ¼hlte": 5701,
      "progr": 5702,
      "Ġkostet": 5703,
      "ĠrealitÃ¤t": 5704,
      "front": 5705,
      "Ġfrem": 5706,
      "Ġcold": 5707,
      "Ġstarts": 5708,
      "ĠuniversitÃ¤t": 5709,
      "Ġsurgery": 5710,
      "Ġshowed": 5711,
      "Ġerfunden": 5712,
      "gendes": 5713,
      "Ġplankton": 5714,
      "Ġtechnologies": 5715,
      "Ġ2005": 5716,
      "Ġentwickelte": 5717,
      "idence": 5718,
      "Ġtermit": 5719,
      "Ġsoundtrack": 5720,
      "ĠnatÃ¼rlichen": 5721,
      "Ġapart": 5722,
      "Ġkept": 5723,
      "Ġreport": 5724,
      "Ġwahrheit": 5725,
      "Ġberuf": 5726,
      "Ġturned": 5727,
      "Ġinstance": 5728,
      "Ġcalls": 5729,
      "bling": 5730,
      "Ġafgh": 5731,
      "Ġwriting": 5732,
      "ĠbenÃ¶t": 5733,
      "ĠgrÃ¶ÃŁer": 5734,
      "ĠgrÃ¶ÃŁten": 5735,
      "Ġfalls": 5736,
      "Ġerstes": 5737,
      "Ġsprach": 5738,
      "Ġskills": 5739,
      "losen": 5740,
      "Ġsuche": 5741,
      "gehend": 5742,
      "Ġprogress": 5743,
      "Ġbildung": 5744,
      "Ġbildungs": 5745,
      "Ġcreating": 5746,
      "Ġhealthy": 5747,
      "Ġpolitischen": 5748,
      "Ġstanding": 5749,
      "Ġlegs": 5750,
      "Ġclasses": 5751,
      "Ġpatients": 5752,
      "stellte": 5753,
      "Ġfair": 5754,
      "altung": 5755,
      "Ġcontact": 5756,
      "Ġmathematical": 5757,
      "Ġmindestens": 5758,
      "ĠwunderschÃ¶n": 5759,
      "Ġintim": 5760,
      "ĠvollstÃ¤nd": 5761,
      "duced": 5762,
      "Ġkopie": 5763,
      "Ġwaves": 5764,
      "Ġstopped": 5765,
      "Ġconnect": 5766,
      "ifft": 5767,
      "ship": 5768,
      "Ġdunkle": 5769,
      "Ġprojects": 5770,
      "ĠfrÃ¼h": 5771,
      "Ġerfahren": 5772,
      "Ġanfangen": 5773,
      "Ġebenfalls": 5774,
      "Ġinspiration": 5775,
      "Ġkreiert": 5776,
      "apping": 5777,
      "Ġinstitution": 5778,
      "Ġpredict": 5779,
      "Ġfantastisch": 5780,
      "Ġsteps": 5781,
      "Ġamerikaner": 5782,
      "Ġstimmen": 5783,
      "Ġdeveloped": 5784,
      "Ġperfectly": 5785,
      "Ġkontakt": 5786,
      "Ġadvanced": 5787,
      "Ġparticularly": 5788,
      "Ġtausenden": 5789,
      "Ġtraining": 5790,
      "Ġentdeckt": 5791,
      "Ġentdeckte": 5792,
      "spring": 5793,
      "Ġcollapse": 5794,
      "Ġindividu": 5795,
      "Ġspezies": 5796,
      "Ġspezial": 5797,
      "feld": 5798,
      "Ġwald": 5799,
      "Ġwalfleisch": 5800,
      "Ġpositive": 5801,
      "Ġvalue": 5802,
      "Ġvaluable": 5803,
      "ĠreprÃ¤sent": 5804,
      "Ġphotos": 5805,
      "ophon": 5806,
      "Ġchallenge": 5807,
      "Ġkommunizieren": 5808,
      "Ġuntersuchen": 5809,
      "ĠkÃ¼nstlerin": 5810,
      "Ġkilometer": 5811,
      "zufinden": 5812,
      "Ġoffensicht": 5813,
      "Ġargument": 5814,
      "Ġdepartment": 5815,
      "Ġstraight": 5816,
      "ĠsÃ¼ÃŁ": 5817,
      "Ġsilent": 5818,
      "Ġlinken": 5819,
      "Ġislamic": 5820,
      "Ġemotion": 5821,
      "Ġemotional": 5822,
      "Ġkrankheiten": 5823,
      "ĠsÃ¤k": 5824,
      "Ġvolk": 5825,
      "Ġselection": 5826,
      "Ġdoctors": 5827,
      "afft": 5828,
      "Ġfuhr": 5829,
      "Ġpaper": 5830,
      "Ġeinzelne": 5831,
      "Ġanderer": 5832,
      "Ġreflex": 5833,
      "Ġempath": 5834,
      "Ġkonzentrieren": 5835,
      "film": 5836,
      "Ġmaschine": 5837,
      "Ġoccasion": 5838,
      "Ġfields": 5839,
      "Ġconcern": 5840,
      "Ġphenomenon": 5841,
      "Ġaugmented": 5842,
      "Ġsummer": 5843,
      "Ġbirds": 5844,
      "Ġbionicle": 5845,
      "Ġkorre": 5846,
      "Ġbezeichnet": 5847,
      "ĠzerstÃ¶ren": 5848,
      "probieren": 5849,
      "ĠgefÃ¤ngnis": 5850,
      "Ġrosalie": 5851,
      "Ġlectures": 5852,
      "Ġatmosphere": 5853,
      "abytes": 5854,
      "ipedia": 5855,
      "Ġsurprising": 5856,
      "gewÃ¶hnlich": 5857,
      "Ġindustrial": 5858,
      "Ġsuggests": 5859,
      "Ġdeta": 5860,
      "Ġsweet": 5861,
      "Ġuganda": 5862,
      "Ġmanagement": 5863,
      "Ġzusammenhang": 5864,
      "Ġintuition": 5865,
      "joey": 5866,
      "Ġvergleichen": 5867,
      "industrie": 5868,
      "Ġfrancisco": 5869,
      "Ġchatr": 5870,
      "ĠblÃ¤tter": 5871,
      "Ġsurvive": 5872,
      "Ġdiagram": 5873,
      "Ġencourage": 5874,
      "Ġwachst": 5875,
      "Ġaufgebaut": 5876,
      "Ġblooms": 5877,
      "Ġcollaboration": 5878,
      "Ġdisease": 5879,
      "Ġinnerhalb": 5880,
      "Ġgoogle": 5881,
      "Ġentfernt": 5882,
      "Ġbehaup": 5883,
      "Ġcurrent": 5884,
      "Ġsquee": 5885,
      "Ġcowboys": 5886,
      "Ġvereinigten": 5887,
      "anistan": 5888,
      "Ġlaufe": 5889,
      "Ġunbedingt": 5890,
      "Ġgeschenk": 5891,
      "Ġlawns": 5892,
      "Ġantibiot": 5893,
      "ĠzugÃ¤nglich": 5894,
      "Ġdwarf": 5895,
      "Ġhigher": 5896,
      "Ġkuchen": 5897,
      "Ġdiejenigen": 5898,
      "Ġressour": 5899,
      "Ġperception": 5900,
      "Ġcalifornia": 5901,
      "20": 5902,
      "40": 5903,
      "ae": 5904,
      "aÃŁ": 5905,
      "aired": 5906,
      "bc": 5907,
      "ban": 5908,
      "bis": 5909,
      "bet": 5910,
      "cast": 5911,
      "cial": 5912,
      "dor": 5913,
      "dis": 5914,
      "eth": 5915,
      "eper": 5916,
      "fern": 5917,
      "have": 5918,
      "iqu": 5919,
      "ihr": 5920,
      "iber": 5921,
      "ike": 5922,
      "iese": 5923,
      "jÃ¤hr": 5924,
      "kar": 5925,
      "kap": 5926,
      "kung": 5927,
      "krie": 5928,
      "lit": 5929,
      "last": 5930,
      "lose": 5931,
      "lungen": 5932,
      "lines": 5933,
      "masch": 5934,
      "nicht": 5935,
      "ote": 5936,
      "oft": 5937,
      "offen": 5938,
      "pc": 5939,
      "pers": 5940,
      "pfe": 5941,
      "sal": 5942,
      "sichtig": 5943,
      "satz": 5944,
      "sweise": 5945,
      "uit": 5946,
      "uden": 5947,
      "uert": 5948,
      "vater": 5949,
      "wÃ¼": 5950,
      "with": 5951,
      "wide": 5952,
      "wick": 5953,
      "wise": 5954,
      "xim": 5955,
      "ypen": 5956,
      "zig": 5957,
      "ender": 5958,
      "inate": 5959,
      "Ġtie": 5960,
      "Ġtan": 5961,
      "Ġtou": 5962,
      "Ġtall": 5963,
      "Ġtable": 5964,
      "Ġagr": 5965,
      "Ġakte": 5966,
      "Ġatem": 5967,
      "Ġdue": 5968,
      "ĠdÃ¼n": 5969,
      "Ġdrop": 5970,
      "Ġdinner": 5971,
      "Ġdaugh": 5972,
      "child": 5973,
      "Ġwann": 5974,
      "Ġwide": 5975,
      "Ġwahl": 5976,
      "Ġwiese": 5977,
      "Ġther": 5978,
      "esth": 5979,
      "ieÃŁen": 5980,
      "Ġmaps": 5981,
      "Ġmasse": 5982,
      "Ġbat": 5983,
      "Ġbare": 5984,
      "Ġbattle": 5985,
      "Ġbakterien": 5986,
      "Ġbeseit": 5987,
      "onse": 5988,
      "onne": 5989,
      "onstr": 5990,
      "atte": 5991,
      "ature": 5992,
      "atically": 5993,
      "Ġhind": 5994,
      "Ġhill": 5995,
      "ĠhÃ¶r": 5996,
      "ĠhÃ¤uf": 5997,
      "reif": 5998,
      "stage": 5999,
      "Ġechte": 6000,
      "another": 6001,
      "itz": 6002,
      "itung": 6003,
      "Ġfus": 6004,
      "Ġfern": 6005,
      "Ġfurch": 6006,
      "Ġfish": 6007,
      "Ġpf": 6008,
      "Ġpan": 6009,
      "Ġpages": 6010,
      "Ġnahmen": 6011,
      "llten": 6012,
      "aren": 6013,
      "ares": 6014,
      "orgt": 6015,
      "ingly": 6016,
      "osition": 6017,
      "Ġvent": 6018,
      "isst": 6019,
      "isis": 6020,
      "Ġkill": 6021,
      "Ġkreat": 6022,
      "Ġkateg": 6023,
      "Ġkennt": 6024,
      "Ġkampf": 6025,
      "aped": 6026,
      "tell": 6027,
      "teten": 6028,
      "Ġtools": 6029,
      "Ġlag": 6030,
      "Ġlau": 6031,
      "Ġlese": 6032,
      "Ġlust": 6033,
      "Ġloss": 6034,
      "alitÃ¤t": 6035,
      "irk": 6036,
      "omit": 6037,
      "ommel": 6038,
      "Ġbeit": 6039,
      "Ġbeyond": 6040,
      "igm": 6041,
      "unt": 6042,
      "Ġweib": 6043,
      "Ġwett": 6044,
      "Ġwearing": 6045,
      "anders": 6046,
      "Ã¤st": 6047,
      "Ã¤ge": 6048,
      "urther": 6049,
      "Ġham": 6050,
      "think": 6051,
      "employ": 6052,
      "rochen": 6053,
      "elbe": 6054,
      "Ġital": 6055,
      "Ġanb": 6056,
      "Ġansch": 6057,
      "Ġants": 6058,
      "Ġangef": 6059,
      "ication": 6060,
      "Ã¶ff": 6061,
      "Ã¶ffent": 6062,
      "Ġsepar": 6063,
      "Ġdiv": 6064,
      "iles": 6065,
      "Ġreve": 6066,
      "Ġisol": 6067,
      "Ġverf": 6068,
      "Ġverlet": 6069,
      "ĠverÃ¶ffent": 6070,
      "Ġunw": 6071,
      "Ġunemploy": 6072,
      "ette": 6073,
      "Ġsoon": 6074,
      "Ġsoil": 6075,
      "Ġstars": 6076,
      "Ġstift": 6077,
      "indr": 6078,
      "iers": 6079,
      "ierungen": 6080,
      "keine": 6081,
      "kehren": 6082,
      "ologe": 6083,
      "Ġerne": 6084,
      "Ġerstellen": 6085,
      "Ġerzeugen": 6086,
      "Ġaltern": 6087,
      "Ġonstage": 6088,
      "Ġrid": 6089,
      "Ġrain": 6090,
      "imens": 6091,
      "verse": 6092,
      "Ġschatten": 6093,
      "Ġschenken": 6094,
      "bewer": 6095,
      "geht": 6096,
      "Ġdenkt": 6097,
      "wegen": 6098,
      "umb": 6099,
      "Ġabges": 6100,
      "Ġabuse": 6101,
      "Ġprobe": 6102,
      "gener": 6103,
      "Ġmitten": 6104,
      "Ġaufbauen": 6105,
      "Ġaufbau": 6106,
      "ula": 6107,
      "ulieren": 6108,
      "Ġmanip": 6109,
      "Ġneh": 6110,
      "estr": 6111,
      "Ġmoves": 6112,
      "Ġlik": 6113,
      "Ġsper": 6114,
      "ennung": 6115,
      "ischung": 6116,
      "ktr": 6117,
      "ktoren": 6118,
      "Ġheilen": 6119,
      "ades": 6120,
      "fford": 6121,
      "esehen": 6122,
      "Ġausgeben": 6123,
      "Ġaussieht": 6124,
      "ĠausmaÃŁ": 6125,
      "Ġexisten": 6126,
      "Ġexerc": 6127,
      "Ġattr": 6128,
      "ibute": 6129,
      "Ġwarten": 6130,
      "Ġtrib": 6131,
      "Ġtrotz": 6132,
      "Ġtrommel": 6133,
      "Ġpeak": 6134,
      "Ġumf": 6135,
      "Ġumgang": 6136,
      "ĠkÃ¶nig": 6137,
      "Ġnotic": 6138,
      "Ġgras": 6139,
      "Ġgrav": 6140,
      "Ġcommer": 6141,
      "Ġdesp": 6142,
      "hlten": 6143,
      "ods": 6144,
      "ending": 6145,
      "ivitÃ¤t": 6146,
      "Ġload": 6147,
      "Ġplus": 6148,
      "Ġbriefe": 6149,
      "Ġentschieden": 6150,
      "Ġentgegen": 6151,
      "Ġmain": 6152,
      "Ġgeste": 6153,
      "Ġdeg": 6154,
      "Ġdebr": 6155,
      "wirken": 6156,
      "Ġshadow": 6157,
      "Ġprom": 6158,
      "ifest": 6159,
      "iform": 6160,
      "ierende": 6161,
      "Ġ21": 6162,
      "Ġzeichen": 6163,
      "Ġzeigte": 6164,
      "aint": 6165,
      "Ġheran": 6166,
      "Ġherstellen": 6167,
      "Ġblog": 6168,
      "Ġconstr": 6169,
      "Ġconcl": 6170,
      "Ġetc": 6171,
      "Ġactive": 6172,
      "Ġactual": 6173,
      "Ġgenut": 6174,
      "Ġstecken": 6175,
      "Ġwelcher": 6176,
      "Ġwelchem": 6177,
      "Ġfeuer": 6178,
      "Ġcooperation": 6179,
      "Ġinteract": 6180,
      "Ġdrive": 6181,
      "Ġdrug": 6182,
      "Ġdriving": 6183,
      "Ġquality": 6184,
      "Ġamount": 6185,
      "Ġunterricht": 6186,
      "zug": 6187,
      "Ġjahrze": 6188,
      "Ġartikel": 6189,
      "Ã¤ngen": 6190,
      "Ġbesche": 6191,
      "Ġbesitzen": 6192,
      "Ġbesorgt": 6193,
      "Ġbegins": 6194,
      "Ġmeines": 6195,
      "Ġbios": 6196,
      "Ġclosed": 6197,
      "Ġgeschrieben": 6198,
      "Ġgeschafft": 6199,
      "hnte": 6200,
      "Ġzweck": 6201,
      "Ġstrug": 6202,
      "Ġflower": 6203,
      "Ġfliegen": 6204,
      "Ã¶rter": 6205,
      "ĠgroÃŁer": 6206,
      "Ġselber": 6207,
      "Ġgeme": 6208,
      "Ġanyone": 6209,
      "Ġeinfacher": 6210,
      "Ġspeaking": 6211,
      "fÃ¼hr": 6212,
      "meister": 6213,
      "Ã¼ss": 6214,
      "Ġimpaired": 6215,
      "ĠbestÃ¤t": 6216,
      "ungsver": 6217,
      "ĠlieÃŁ": 6218,
      "inton": 6219,
      "Ġstudieren": 6220,
      "Ġzusammenarbeit": 6221,
      "Ġdamals": 6222,
      "Ġrespekt": 6223,
      "Ġgelangen": 6224,
      "manche": 6225,
      "Ġbeings": 6226,
      "ularen": 6227,
      "achteten": 6228,
      "Ġsolve": 6229,
      "Ġsolutions": 6230,
      "Ġhalt": 6231,
      "Ġlandwirtschaft": 6232,
      "Ġbased": 6233,
      "Ġearl": 6234,
      "Ġkooperation": 6235,
      "Ġfreund": 6236,
      "orses": 6237,
      "Ġherauszufinden": 6238,
      "rix": 6239,
      "Ġcraz": 6240,
      "Ġcrushed": 6241,
      "Ġcrisis": 6242,
      "ropon": 6243,
      "ĠhÃ¶ch": 6244,
      "Ġeigenes": 6245,
      "Ġversuchten": 6246,
      "Ġtechnologien": 6247,
      "iums": 6248,
      "Ġlichter": 6249,
      "ĠauÃŁen": 6250,
      "spitze": 6251,
      "Ġmoments": 6252,
      "ĠgebÃ¤": 6253,
      "Ġasking": 6254,
      "ĠbÃ¼ro": 6255,
      "Ġappre": 6256,
      "Ġincre": 6257,
      "Ġcount": 6258,
      "baren": 6259,
      "bares": 6260,
      "Ġwichtiger": 6261,
      "Ġoffice": 6262,
      "Ġverlust": 6263,
      "Ġschluss": 6264,
      "Ġschlimm": 6265,
      "wahl": 6266,
      "ĠberÃ¼h": 6267,
      "itude": 6268,
      "Ġwissenschaftlichen": 6269,
      "Ġhelping": 6270,
      "blÃ¤t": 6271,
      "nost": 6272,
      "Ġwriter": 6273,
      "Ġtells": 6274,
      "Ġsubmers": 6275,
      "Ġgemeinschaften": 6276,
      "ighten": 6277,
      "Ġidentities": 6278,
      "ĠidentitÃ¤ten": 6279,
      "Ġinteressan": 6280,
      "Ġiranischen": 6281,
      "Ġlake": 6282,
      "Ġspielt": 6283,
      "Ġsignal": 6284,
      "Ġsignific": 6285,
      "Ġcreatures": 6286,
      "Ġpolitics": 6287,
      "Ġsonst": 6288,
      "Ġmathe": 6289,
      "Ġpublished": 6290,
      "usehen": 6291,
      "Ġmeistens": 6292,
      "Ġteaching": 6293,
      "Ġdecide": 6294,
      "Ġslide": 6295,
      "ĠbedÃ¼r": 6296,
      "Ġbedarf": 6297,
      "Ġbiological": 6298,
      "Ġconsum": 6299,
      "Ġconsist": 6300,
      "Ġbeschreiben": 6301,
      "Ġbienenst": 6302,
      "Ġnieder": 6303,
      "Ġholz": 6304,
      "Ġgedanke": 6305,
      "imming": 6306,
      "Ġmathematics": 6307,
      "Ġcreation": 6308,
      "Ġplayed": 6309,
      "Ġintro": 6310,
      "Ġcorpor": 6311,
      "Ġcapt": 6312,
      "Ġphysic": 6313,
      "Ġirgendwo": 6314,
      "Ġaccur": 6315,
      "Ġaccident": 6316,
      "Ġbeeindr": 6317,
      "Ġhallucination": 6318,
      "clock": 6319,
      "Ġsituationen": 6320,
      "Ġhybr": 6321,
      "Ġhyena": 6322,
      "Ġfolge": 6323,
      "ĠerzÃ¤hlte": 6324,
      "fortun": 6325,
      "Ġatheisten": 6326,
      "Ġatheism": 6327,
      "Ġatheists": 6328,
      "Ġatheismus": 6329,
      "Ġpowerful": 6330,
      "Ġangesehen": 6331,
      "Ġwheel": 6332,
      "ĠÃ¼b": 6333,
      "ĠÃ¼bere": 6334,
      "Ġcollege": 6335,
      "Ġebene": 6336,
      "Ġfunn": 6337,
      "Ġpferde": 6338,
      "ilence": 6339,
      "Ġscheinen": 6340,
      "Ġinstitutionen": 6341,
      "Ġwalking": 6342,
      "Ġmilk": 6343,
      "stoffe": 6344,
      "Ġcake": 6345,
      "Ġoriginal": 6346,
      "Ġgesundheits": 6347,
      "setzung": 6348,
      "Ġindustry": 6349,
      "Ġamerikanische": 6350,
      "Ġmeaningful": 6351,
      "Ġbenutzt": 6352,
      "Ġreturn": 6353,
      "Ġterrible": 6354,
      "Ġterribly": 6355,
      "Ġveh": 6356,
      "Ġvector": 6357,
      "Ġleaders": 6358,
      "Ġpropag": 6359,
      "Ġprivile": 6360,
      "Ġlevels": 6361,
      "Ġtrained": 6362,
      "Ġboxes": 6363,
      "Ġbioluminescence": 6364,
      "Ġbiolumineszenz": 6365,
      "beding": 6366,
      "bereich": 6367,
      "Ġpopular": 6368,
      "Ġradio": 6369,
      "Ġschlechte": 6370,
      "Ġschlecht": 6371,
      "umente": 6372,
      "Ġorganismen": 6373,
      "Ġcousin": 6374,
      "Ġvirt": 6375,
      "Ġdistance": 6376,
      "Ġresponse": 6377,
      "Ġbibliotheken": 6378,
      "Ġpaint": 6379,
      "Ġresults": 6380,
      "Ġschwarzes": 6381,
      "bonnet": 6382,
      "Ġswimming": 6383,
      "Ġopport": 6384,
      "Ġraise": 6385,
      "Ġforscher": 6386,
      "Ġchallenges": 6387,
      "ipped": 6388,
      "Ġchecklist": 6389,
      "Ġcheckliste": 6390,
      "ailable": 6391,
      "Ġhosen": 6392,
      "Ġindeed": 6393,
      "Ġindepend": 6394,
      "Ġstatus": 6395,
      "Ġtragedy": 6396,
      "ĠstraÃŁen": 6397,
      "nachrichten": 6398,
      "Ġpresentation": 6399,
      "Ġstrategy": 6400,
      "Ġstrategie": 6401,
      "ĠprÃ¤sentation": 6402,
      "Ġexciting": 6403,
      "Ġpresident": 6404,
      "Ġprograms": 6405,
      "Ġprinzipien": 6406,
      "Ġrequires": 6407,
      "ĠunterstÃ¼tzen": 6408,
      "Ġnahrungskette": 6409,
      "Ġreaktionen": 6410,
      "Ġscanning": 6411,
      "Ġkonzentriert": 6412,
      "Ġbestimmte": 6413,
      "Ġcorrect": 6414,
      "Ġeffect": 6415,
      "Ġfleder": 6416,
      "Ġvertraut": 6417,
      "Ġmechanism": 6418,
      "Ġgrenze": 6419,
      "Ġcomplicated": 6420,
      "Ġskype": 6421,
      "Ġdunkelheit": 6422,
      "Ġbroadcast": 6423,
      "Ġbionicles": 6424,
      "Ġhonig": 6425,
      "Ġreplace": 6426,
      "Ġreplac": 6427,
      "ifornien": 6428,
      "ĠreligiÃ¶sen": 6429,
      "ĠreligiÃ¶se": 6430,
      "Ġpartei": 6431,
      "Ġherausforderung": 6432,
      "Ġslowly": 6433,
      "Ġbalance": 6434,
      "Ġbudget": 6435,
      "Ġtoxic": 6436,
      "Ġtelevision": 6437,
      "Ġorganisms": 6438,
      "Ġengineering": 6439,
      "ciated": 6440,
      "Ġabendessen": 6441,
      "Ġignor": 6442,
      "religionen": 6443,
      "Ġjourney": 6444,
      "Ġverantwortung": 6445,
      "ĠÃ¼berrasch": 6446,
      "Ġbegrenzt": 6447,
      "Ġprinciples": 6448,
      "Ġresponsibility": 6449,
      "Ġastonishing": 6450,
      "Ġinfrastructure": 6451,
      "Ġwichtige": 6452,
      "ĠwÃ¼nschte": 6453,
      "Ġpflege": 6454,
      "Ġlady": 6455,
      "Ġsekunden": 6456,
      "ĠzufÃ¤llig": 6457,
      "Ġrisik": 6458,
      "Ġprozess": 6459,
      "Ġviruses": 6460,
      "ĠÃ¤ndern": 6461,
      "Ġavailable": 6462,
      "Ġabsorb": 6463,
      "Ġcitizens": 6464,
      "Ġwilson": 6465,
      "Ġfeld": 6466,
      "Ġmetho": 6467,
      "Ġenorme": 6468,
      "iption": 6469,
      "Ġfeatures": 6470,
      "Ġeinfluss": 6471,
      "Ġresources": 6472,
      "profit": 6473,
      "Ġprofessor": 6474,
      "Ġkommunikation": 6475,
      "Ġtalent": 6476,
      "Ġbicycle": 6477,
      "Ġgeschehen": 6478,
      "growth": 6479,
      "Ġpencil": 6480,
      "known": 6481,
      "Ġtastatur": 6482,
      "Ġhunderte": 6483,
      "Ġbeteiligt": 6484,
      "Ġgebraucht": 6485,
      "Ġmobile": 6486,
      "Ġinterpret": 6487,
      "Ġchatrou": 6488,
      "Ġressourcen": 6489,
      "Ġwettbewer": 6490,
      "Ġdebris": 6491,
      "Ġcrazy": 6492,
      "Ġopportun": 6493,
      "Ġwettbewerb": 6494,
      "aim": 6495,
      "ader": 6496,
      "bu": 6497,
      "blich": 6498,
      "bank": 6499,
      "cut": 6500,
      "dh": 6501,
      "did": 6502,
      "eur": 6503,
      "fab": 6504,
      "fert": 6505,
      "father": 6506,
      "gte": 6507,
      "gern": 6508,
      "gliche": 6509,
      "hÃ¶": 6510,
      "hil": 6511,
      "haf": 6512,
      "iation": 6513,
      "iest": 6514,
      "iod": 6515,
      "kor": 6516,
      "kop": 6517,
      "kart": 6518,
      "kunst": 6519,
      "kultur": 6520,
      "lan": 6521,
      "lauf": 6522,
      "lvan": 6523,
      "mod": 6524,
      "mob": 6525,
      "nn": 6526,
      "nom": 6527,
      "nissen": 6528,
      "nosed": 6529,
      "put": 6530,
      "pher": 6531,
      "punkte": 6532,
      "rich": 6533,
      "rot": 6534,
      "rufen": 6535,
      "ruh": 6536,
      "sm": 6537,
      "sor": 6538,
      "time": 6539,
      "take": 6540,
      "uay": 6541,
      "uate": 6542,
      "vad": 6543,
      "ville": 6544,
      "vices": 6545,
      "will": 6546,
      "wart": 6547,
      "ykl": 6548,
      "zige": 6549,
      "zungen": 6550,
      "Ġx": 6551,
      "enc": 6552,
      "erd": 6553,
      "erte": 6554,
      "erten": 6555,
      "inc": 6556,
      "inst": 6557,
      "inos": 6558,
      "inem": 6559,
      "ĠtÃ¶": 6560,
      "Ġtons": 6561,
      "Ġtanz": 6562,
      "Ġtesting": 6563,
      "Ġtaught": 6564,
      "Ġape": 6565,
      "Ġaverage": 6566,
      "Ġdut": 6567,
      "Ġdance": 6568,
      "Ġsn": 6569,
      "Ġsus": 6570,
      "Ġszen": 6571,
      "Ġsamm": 6572,
      "Ġsize": 6573,
      "Ġsitzen": 6574,
      "Ġsides": 6575,
      "Ġsisy": 6576,
      "Ġsilence": 6577,
      "Ġwall": 6578,
      "Ġwesen": 6579,
      "Ġwider": 6580,
      "Ġthin": 6581,
      "esus": 6582,
      "esome": 6583,
      "esse": 6584,
      "nde": 6585,
      "ieb": 6586,
      "ieben": 6587,
      "ieht": 6588,
      "ieÃŁ": 6589,
      "iegel": 6590,
      "Ġmer": 6591,
      "Ġmart": 6592,
      "Ġmomen": 6593,
      "Ġba": 6594,
      "Ġbm": 6595,
      "Ġbam": 6596,
      "Ġbund": 6597,
      "Ġbess": 6598,
      "Ġbast": 6599,
      "Ġbiz": 6600,
      "Ġbats": 6601,
      "onym": 6602,
      "aters": 6603,
      "atory": 6604,
      "Ġhop": 6605,
      "Ġhang": 6606,
      "ĠhÃ¤l": 6607,
      "ĠhÃ¶rt": 6608,
      "ĠhÃ¤ss": 6609,
      "Ġhometown": 6610,
      "Ġhula": 6611,
      "ret": 6612,
      "recht": 6613,
      "reichen": 6614,
      "reement": 6615,
      "reifen": 6616,
      "stad": 6617,
      "stelle": 6618,
      "stoffen": 6619,
      "Ġep": 6620,
      "Ġeast": 6621,
      "Ġelem": 6622,
      "ankt": 6623,
      "ĠgÃ¤": 6624,
      "Ġgates": 6625,
      "itzt": 6626,
      "itary": 6627,
      "itable": 6628,
      "ittel": 6629,
      "asa": 6630,
      "asie": 6631,
      "Ġfier": 6632,
      "Ġfok": 6633,
      "Ġfiel": 6634,
      "Ġfolding": 6635,
      "Ġutop": 6636,
      "lear": 6637,
      "Ġpit": 6638,
      "Ġpul": 6639,
      "Ġpace": 6640,
      "Ġpump": 6641,
      "Ġine": 6642,
      "Ġinfer": 6643,
      "Ġner": 6644,
      "ĠnÃ¤hr": 6645,
      "Ġnuc": 6646,
      "Ġnord": 6647,
      "Ġnimmt": 6648,
      "Ġnennt": 6649,
      "Ġnames": 6650,
      "Ġnasa": 6651,
      "arre": 6652,
      "arian": 6653,
      "orid": 6654,
      "osoph": 6655,
      "Ġct": 6656,
      "Ġced": 6657,
      "Ġcard": 6658,
      "Ġcath": 6659,
      "Ġcateg": 6660,
      "Ġcivil": 6661,
      "Ġvanen": 6662,
      "isa": 6663,
      "isierung": 6664,
      "ĠkÃ¼r": 6665,
      "Ġkoll": 6666,
      "Ġkaum": 6667,
      "Ġkameras": 6668,
      "techn": 6669,
      "text": 6670,
      "Ġeiniges": 6671,
      "Ġtowards": 6672,
      "Ġtochter": 6673,
      "Ġtoky": 6674,
      "Ġlat": 6675,
      "ĠlÃ¤rm": 6676,
      "ota": 6677,
      "ales": 6678,
      "alities": 6679,
      "altet": 6680,
      "Ã¼ten": 6681,
      "Ã¼gen": 6682,
      "Ġbell": 6683,
      "Ġbeun": 6684,
      "Ġbeein": 6685,
      "Ġzelle": 6686,
      "Ġzivil": 6687,
      "unal": 6688,
      "uth": 6689,
      "edom": 6690,
      "Ġwei": 6691,
      "Ġweather": 6692,
      "Ġwechsel": 6693,
      "enter": 6694,
      "ande": 6695,
      "Ã¤umen": 6696,
      "Ã¤blich": 6697,
      "ural": 6698,
      "Ġhast": 6699,
      "Ġhaupt": 6700,
      "throp": 6701,
      "thiop": 6702,
      "ropl": 6703,
      "rofo": 6704,
      "elm": 6705,
      "Ġangr": 6706,
      "Ġanerk": 6707,
      "Ġanthrop": 6708,
      "ickt": 6709,
      "icien": 6710,
      "icious": 6711,
      "Ġsets": 6712,
      "Ġdial": 6713,
      "Ġdimen": 6714,
      "ilde": 6715,
      "amt": 6716,
      "Ġrede": 6717,
      "Ġrecover": 6718,
      "Ġreisen": 6719,
      "Ġreactions": 6720,
      "ĠzuhÃ¶ren": 6721,
      "Ġjul": 6722,
      "Ġjesus": 6723,
      "acher": 6724,
      "Ġverbr": 6725,
      "Ġverbracht": 6726,
      "Ġverstanden": 6727,
      "Ġverhind": 6728,
      "Ġunex": 6729,
      "ett": 6730,
      "etic": 6731,
      "agern": 6732,
      "Ġsogen": 6733,
      "Ġsodass": 6734,
      "Ġstink": 6735,
      "Ġstuck": 6736,
      "Ġstatic": 6737,
      "Ġstories": 6738,
      "Ġstille": 6739,
      "schung": 6740,
      "schne": 6741,
      "olic": 6742,
      "Ġerweit": 6743,
      "Ġalgen": 6744,
      "Ġalive": 6745,
      "Ġaltr": 6746,
      "ufe": 6747,
      "Ġrum": 6748,
      "Ġrare": 6749,
      "Ġritu": 6750,
      "Ġrhy": 6751,
      "Ġrural": 6752,
      "Ġschwe": 6753,
      "Ġschien": 6754,
      "Ġleisten": 6755,
      "Ġlebten": 6756,
      "denkt": 6757,
      "behind": 6758,
      "Ġgek": 6759,
      "Ġgegangen": 6760,
      "Ġgearbeitet": 6761,
      "Ġdenk": 6762,
      "einen": 6763,
      "einige": 6764,
      "auch": 6765,
      "Ġformer": 6766,
      "weich": 6767,
      "wellen": 6768,
      "umor": 6769,
      "umble": 6770,
      "Ġabschl": 6771,
      "Ġproper": 6772,
      "Ġprojekte": 6773,
      "Ġimmun": 6774,
      "anna": 6775,
      "Ġmitt": 6776,
      "Ġaufwand": 6777,
      "sense": 6778,
      "Ġarm": 6779,
      "istert": 6780,
      "seits": 6781,
      "ulose": 6782,
      "ulous": 6783,
      "Ġmanager": 6784,
      "Ġmanifest": 6785,
      "Ġfrighten": 6786,
      "Ġgore": 6787,
      "Ġmeg": 6788,
      "Ġmeist": 6789,
      "ktar": 6790,
      "Ġhell": 6791,
      "Ġheav": 6792,
      "Ġheisst": 6793,
      "idung": 6794,
      "idance": 6795,
      "Ġasph": 6796,
      "Ġaspect": 6797,
      "fferson": 6798,
      "ausende": 6799,
      "Ġausg": 6800,
      "Ġausm": 6801,
      "Ġausgeb": 6802,
      "Ġchest": 6803,
      "Ġchamp": 6804,
      "Ġexe": 6805,
      "Ġext": 6806,
      "Ġexpress": 6807,
      "Ġatom": 6808,
      "Ġatmen": 6809,
      "antly": 6810,
      "usta": 6811,
      "Ġtramp": 6812,
      "Ġtruth": 6813,
      "Ġteuer": 6814,
      "zeiten": 6815,
      "Ġnotion": 6816,
      "Ġgruppen": 6817,
      "Ġdemonstr": 6818,
      "Ġ14": 6819,
      "Ġcomb": 6820,
      "Ġdesert": 6821,
      "abl": 6822,
      "mert": 6823,
      "Ġwerke": 6824,
      "odes": 6825,
      "ightly": 6826,
      "Ġenter": 6827,
      "Ġentstanden": 6828,
      "Ġmaster": 6829,
      "Ġvorbe": 6830,
      "ikum": 6831,
      "Ġwohlt": 6832,
      "Ġgestellt": 6833,
      "Ġdepressed": 6834,
      "Ġship": 6835,
      "Ġsharing": 6836,
      "Ġshirt": 6837,
      "aster": 6838,
      "Ġpray": 6839,
      "Ġprisons": 6840,
      "Ġgetroffen": 6841,
      "Ġzeug": 6842,
      "ained": 6843,
      "Ġconser": 6844,
      "Ġsaving": 6845,
      "Ġmache": 6846,
      "Ġmachines": 6847,
      "Ġnachricht": 6848,
      "Ġnachdenkt": 6849,
      "Ġseines": 6850,
      "Ġupon": 6851,
      "Ġknowing": 6852,
      "osex": 6853,
      "ickelt": 6854,
      "reneur": 6855,
      "izont": 6856,
      "bridge": 6857,
      "Ġcore": 6858,
      "Ġcook": 6859,
      "Ã¤tigkeit": 6860,
      "Ã¤tzung": 6861,
      "Ġworksh": 6862,
      "Ġworkload": 6863,
      "Ġcompare": 6864,
      "Ġunterrichten": 6865,
      "Ġpoison": 6866,
      "place": 6867,
      "Ġphnom": 6868,
      "akte": 6869,
      "Ġdurchschnitt": 6870,
      "Ġperu": 6871,
      "Ġperiod": 6872,
      "Ġworldwide": 6873,
      "print": 6874,
      "pression": 6875,
      "Ġevents": 6876,
      "Ġagusta": 6877,
      "Ġclaim": 6878,
      "Ġgeschichten": 6879,
      "Ġgeschieht": 6880,
      "selbst": 6881,
      "Ġstrange": 6882,
      "Ġexperts": 6883,
      "Ġideolog": 6884,
      "Ġflick": 6885,
      "Ġfluss": 6886,
      "Ġflorid": 6887,
      "Ġklug": 6888,
      "Ġklav": 6889,
      "ĠklÃ¤nge": 6890,
      "Ã¤nder": 6891,
      "Ã¤ndert": 6892,
      "Ġdisorder": 6893,
      "Ġpartisan": 6894,
      "Ġselten": 6895,
      "uguay": 6896,
      "Ġhinweg": 6897,
      "Ġzeitpunkt": 6898,
      "Ġirgen": 6899,
      "Ġeinfachen": 6900,
      "Ġindia": 6901,
      "Ġbuil": 6902,
      "flÃ¤che": 6903,
      "Ġparal": 6904,
      "Ġparent": 6905,
      "fÃ¼llen": 6906,
      "fÃ¼hren": 6907,
      "fÃ¼hrer": 6908,
      "which": 6909,
      "ileo": 6910,
      "Ã¼ssel": 6911,
      "Ġprodukte": 6912,
      "Ġproduziert": 6913,
      "Ġtechnical": 6914,
      "Ġtechniker": 6915,
      "ounts": 6916,
      "Ġhandelt": 6917,
      "Ġlied": 6918,
      "Ġgewann": 6919,
      "Ġmostly": 6920,
      "Ġstudenten": 6921,
      "Ġbisher": 6922,
      "Ġwiederum": 6923,
      "Ġautor": 6924,
      "Ġemail": 6925,
      "Ġbefinden": 6926,
      "Ġgering": 6927,
      "Ġrespect": 6928,
      "Ġcommons": 6929,
      "ĠgelÃ¶st": 6930,
      "many": 6931,
      "ried": 6932,
      "Ġselbstver": 6933,
      "Ġ198": 6934,
      "ysis": 6935,
      "Ġthroughout": 6936,
      "Ġfactory": 6937,
      "werten": 6938,
      "werken": 6939,
      "Ġsolchen": 6940,
      "Ġmark": 6941,
      "Ġmarine": 6942,
      "Ġdesigning": 6943,
      "Ġpassieren": 6944,
      "Ġganzes": 6945,
      "mail": 6946,
      "projekt": 6947,
      "Ġkooper": 6948,
      "Ġkohler": 6949,
      "Ġfreie": 6950,
      "Ġfreunden": 6951,
      "Ġfreedom": 6952,
      "Ġuniversal": 6953,
      "rift": 6954,
      "Ġsurround": 6955,
      "Ġsurrender": 6956,
      "ropor": 6957,
      "Ġeigenschaften": 6958,
      "Ġimagination": 6959,
      "Ġberech": 6960,
      "Ġregular": 6961,
      "ĠgefÃ¤hr": 6962,
      "Ġnutzt": 6963,
      "Ġguidance": 6964,
      "flanze": 6965,
      "Ġimportance": 6966,
      "esented": 6967,
      "Ġvisuellen": 6968,
      "Ġsmith": 6969,
      "Ġgebiete": 6970,
      "Ġterabytes": 6971,
      "atherine": 6972,
      "Ġecosystem": 6973,
      "vented": 6974,
      "Ġwichtigste": 6975,
      "Ġverliert": 6976,
      "Ġverlassen": 6977,
      "Ġintelle": 6978,
      "Ġ45": 6979,
      "ĠÃ¶l": 6980,
      "Ġschlaf": 6981,
      "ĠberÃ¼": 6982,
      "Ġgegenseit": 6983,
      "Ġgenerations": 6984,
      "Ġdirections": 6985,
      "noch": 6986,
      "Ġbrauchte": 6987,
      "deshalb": 6988,
      "Ġwrite": 6989,
      "Ġfoundation": 6990,
      "ussion": 6991,
      "ĠgrÃ¶ÃŁeren": 6992,
      "Ġsubst": 6993,
      "Ġfilled": 6994,
      "ondere": 6995,
      "ondropl": 6996,
      "Ġbekam": 6997,
      "Ġbekannte": 6998,
      "Ġsozusagen": 6999,
      "Ġsprachen": 7000,
      "azine": 7001,
      "Ã¼nde": 7002,
      "Ã¼nden": 7003,
      "Ġamericans": 7004,
      "losigkeit": 7005,
      "Ġurspr": 7006,
      "Ġurban": 7007,
      "Ġuruguay": 7008,
      "Ġclean": 7009,
      "Ġcharity": 7010,
      "Ġsonnen": 7011,
      "stÃ¤nde": 7012,
      "Ġstandard": 7013,
      "Ġschafe": 7014,
      "Ġconduct": 7015,
      "Ġslightly": 7016,
      "Ġkurve": 7017,
      "Ġbeschre": 7018,
      "ĠnatÃ¼rliches": 7019,
      "Ġfail": 7020,
      "Ġfaith": 7021,
      "Ġniedr": 7022,
      "ilton": 7023,
      "Ġjefferson": 7024,
      "Ġverwalter": 7025,
      "Ġgrew": 7026,
      "Ġgedankt": 7027,
      "Ġremark": 7028,
      "Ġjemanden": 7029,
      "Ġmagazine": 7030,
      "Ġwundervoll": 7031,
      "Ġunderground": 7032,
      "ultural": 7033,
      "Ġ65": 7034,
      "Ġcapable": 7035,
      "sylvan": 7036,
      "Ġhorizont": 7037,
      "Ġheadph": 7038,
      "Ġaccom": 7039,
      "uctions": 7040,
      "Ġdread": 7041,
      "Ġlibraries": 7042,
      "Ġeconomists": 7043,
      "ĠÃ¤uÃŁ": 7044,
      "ĠÃ¤thiop": 7045,
      "Ġwait": 7046,
      "Ġwaiting": 7047,
      "ĠhyÃ¤ne": 7048,
      "Ġkarl": 7049,
      "Ġkarte": 7050,
      "Ġkarten": 7051,
      "Ġsicherheit": 7052,
      "Ġ95": 7053,
      "Ġexisted": 7054,
      "Ġpictures": 7055,
      "Ġangep": 7056,
      "Ġstreet": 7057,
      "Ġatheist": 7058,
      "Ġsingular": 7059,
      "Ġfarbe": 7060,
      "Ġverschmel": 7061,
      "erneath": 7062,
      "mÃ¶glich": 7063,
      "ĠÃ¼bel": 7064,
      "ĠverÃ¤nderung": 7065,
      "Ġevolved": 7066,
      "Ġcollect": 7067,
      "chsigen": 7068,
      "Ġbleist": 7069,
      "Ġebenso": 7070,
      "Ġgalileo": 7071,
      "Ġgarden": 7072,
      "Ġbeobachte": 7073,
      "Ġwalked": 7074,
      "Ġeffiz": 7075,
      "Ġpredators": 7076,
      "ĠvÃ¶gel": 7077,
      "ĠkÃ¶rpers": 7078,
      "Ġ1975": 7079,
      "viren": 7080,
      "Ġoneself": 7081,
      "Ġindustrie": 7082,
      "Ġgottes": 7083,
      "Ġmedicare": 7084,
      "ĠÃ¶kosystem": 7085,
      "ĠÃ¶konomen": 7086,
      "Ġdylan": 7087,
      "reichend": 7088,
      "Ġinstructions": 7089,
      "Ġassumption": 7090,
      "Ġchemische": 7091,
      "Ġattack": 7092,
      "Ġperfect": 7093,
      "Ġperfekt": 7094,
      "Ġadvant": 7095,
      "Ġmedizinischen": 7096,
      "Ġsometime": 7097,
      "Ġanzusch": 7098,
      "Ġstaat": 7099,
      "Ġriesigen": 7100,
      "Ġschuld": 7101,
      "Ġtraur": 7102,
      "Ġbioluminescent": 7103,
      "Ġ55": 7104,
      "Ġpopul": 7105,
      "Ġwhistle": 7106,
      "Ġwhistled": 7107,
      "Ġschlechter": 7108,
      "Ġschwieriger": 7109,
      "ĠauÃŁerdem": 7110,
      "Ġalexander": 7111,
      "Ġdistur": 7112,
      "Ġhappiness": 7113,
      "Ġnormalerweise": 7114,
      "ĠkopfhÃ¶r": 7115,
      "richtungen": 7116,
      "Ġastroph": 7117,
      "wegs": 7118,
      "Ġimprove": 7119,
      "Ġelectrical": 7120,
      "Ġmaterials": 7121,
      "Ġevolutionary": 7122,
      "besondere": 7123,
      "vollen": 7124,
      "Ġdinger": 7125,
      "Ġopp": 7126,
      "Ġerinnert": 7127,
      "zeugt": 7128,
      "Ġrobards": 7129,
      "Ġchromosome": 7130,
      "Ġchromosomes": 7131,
      "Ġtemper": 7132,
      "Ġeinges": 7133,
      "Ġbelow": 7134,
      "Ġstatische": 7135,
      "Ġdescription": 7136,
      "Ġtraditional": 7137,
      "Ġsilicon": 7138,
      "Ġethiop": 7139,
      "Ġislamischen": 7140,
      "Ġcommunicate": 7141,
      "host": 7142,
      "Ġpcb": 7143,
      "Ġselektion": 7144,
      "ĠermÃ¶glichen": 7145,
      "Ġdoctor": 7146,
      "Ġakzeptieren": 7147,
      "Ġakzeptanz": 7148,
      "Ġmission": 7149,
      "Ġpenh": 7150,
      "Ġpapier": 7151,
      "Ġcambridge": 7152,
      "Ġanderem": 7153,
      "bilder": 7154,
      "Ġtasche": 7155,
      "Ġlauter": 7156,
      "Ġsofortnachrichten": 7157,
      "ĠgehÃ¶rlosen": 7158,
      "Ġidentify": 7159,
      "Ġidentified": 7160,
      "Ġenvironmental": 7161,
      "ĠÃ¤rzte": 7162,
      "Ġmultiver": 7163,
      "Ġforever": 7164,
      "Ġvertrauen": 7165,
      "Ġgesamten": 7166,
      "Ġdolphins": 7167,
      "Ġemerged": 7168,
      "Ġbezeichnen": 7169,
      "Ġstyrofo": 7170,
      "Ġstyropor": 7171,
      "Ġauszuprobieren": 7172,
      "ĠgrÃ¼nde": 7173,
      "ĠgrÃ¼nden": 7174,
      "ĠÃ¼bertragen": 7175,
      "Ġacceptance": 7176,
      "ĠgefÃ¤ngnisse": 7177,
      "Ġcomplexity": 7178,
      "Ġintelligence": 7179,
      "Ġschrecklich": 7180,
      "Ġcircuit": 7181,
      "Ġawful": 7182,
      "Ġawesome": 7183,
      "Ġsommer": 7184,
      "Ġsymb": 7185,
      "Ġillness": 7186,
      "Ġplease": 7187,
      "Ġlecture": 7188,
      "ĠatmosphÃ¤re": 7189,
      "Ġmuseum": 7190,
      "Ã¤chtige": 7191,
      "Ġtaxes": 7192,
      "Ġ1960": 7193,
      "Ġnormally": 7194,
      "Ġtransformation": 7195,
      "Ġarchitect": 7196,
      "Ġarchitektur": 7197,
      "ĠunabhÃ¤ngig": 7198,
      "Ġfabric": 7199,
      "Ġinnere": 7200,
      "Ġgelebt": 7201,
      "abilities": 7202,
      "Ġwurzelspitze": 7203,
      "Ġparadox": 7204,
      "Ġparadigm": 7205,
      "Ġcalculus": 7206,
      "Ġprinciple": 7207,
      "Ġinfrastruktur": 7208,
      "markt": 7209,
      "mÃ¤ÃŁ": 7210,
      "repreneur": 7211,
      "Ġcosmos": 7212,
      "Ġkosmos": 7213,
      "Ġstolz": 7214,
      "schuld": 7215,
      "Ġerwartet": 7216,
      "Ġrennfahr": 7217,
      "Ġdisciplines": 7218,
      "Ġdelphin": 7219,
      "Ġerwachsene": 7220,
      "Ġfaszinierend": 7221,
      "zufÃ¼hren": 7222,
      "Ġfighting": 7223,
      "utta": 7224,
      "gelsdor": 7225,
      "ĠunterstÃ¼tzung": 7226,
      "Ġfensterfar": 7227,
      "zwischen": 7228,
      "Ġwandel": 7229,
      "Ġwikipedia": 7230,
      "Ġfemin": 7231,
      "Ġintrins": 7232,
      "ĠkÃ¼mmern": 7233,
      "Ġneutrino": 7234,
      "Ġobviously": 7235,
      "Ġbenefit": 7236,
      "Ġcontinu": 7237,
      "Ġaccumulate": 7238,
      "Ġmicrosoft": 7239,
      "Ġcaused": 7240,
      "Ġwetter": 7241,
      "Ġerscheint": 7242,
      "Ġalpha": 7243,
      "Ġringing": 7244,
      "Ġschmerz": 7245,
      "Ġabgeschlossen": 7246,
      "Ġflashing": 7247,
      "Ġdisziplin": 7248,
      "Ġadults": 7249,
      "ĠbuchstÃ¤blich": 7250,
      "Ġhydro": 7251,
      "Ġassemble": 7252,
      "Ġfascinating": 7253,
      "first": 7254,
      "Ġastronom": 7255,
      "Ġpennsylvan": 7256,
      "Ġnomad": 7257,
      "ĠnÃ¶tig": 7258,
      "Ġvibri": 7259,
      "ĠstÃ¤ndig": 7260,
      "Ġschizophon": 7261,
      "Ġdefense": 7262,
      "Ġkompon": 7263,
      "Ġacquire": 7264,
      "Ġauthority": 7265,
      "Ġlandscapes": 7266,
      "programm": 7267,
      "Ġafghanistan": 7268,
      "Ġoffensichtlich": 7269,
      "ĠsÃ¤kularen": 7270,
      "Ġwachstum": 7271,
      "krieg": 7272,
      "salman": 7273,
      "wÃ¼chsigen": 7274,
      "Ġtanzen": 7275,
      "Ġagric": 7276,
      "Ġdaughter": 7277,
      "Ġfusiform": 7278,
      "Ġventure": 7279,
      "Ġhamilton": 7280,
      "Ġanbieten": 7281,
      "Ġalternative": 7282,
      "Ġnehme": 7283,
      "Ġnoticed": 7284,
      "Ġgenutzt": 7285,
      "Ġsubmersible": 7286,
      "fortunately": 7287,
      "dhist": 7288,
      "fabrik": 7289,
      "hafte": 7290,
      "Ġapex": 7291,
      "Ġsisyph": 7292,
      "Ġmomente": 7293,
      "ĠhÃ¤lfte": 7294,
      "Ġvanengelsdor": 7295,
      "Ġtokyo": 7296,
      "Ġbeunruh": 7297,
      "iciency": 7298,
      "Ġdimension": 7299,
      "Ġunexpected": 7300,
      "Ġaltru": 7301,
      "Ġtrampol": 7302,
      "Ġflorida": 7303,
      "ĠursprÃ¼n": 7304,
      "Ġverschmelzen": 7305,
      "Ġastrophys": 7306,
      "Ġstyrofoam": 7307,
      "Ġpennsylvania": 7308,
      "Ġvanengelsdorp": 7309,
      "affe": 7310,
      "bors": 7311,
      "cam": 7312,
      "cop": 7313,
      "cri": 7314,
      "dar": 7315,
      "ding": 7316,
      "dom": 7317,
      "dort": 7318,
      "durch": 7319,
      "dimens": 7320,
      "eh": 7321,
      "even": 7322,
      "fon": 7323,
      "fig": 7324,
      "fast": 7325,
      "feren": 7326,
      "face": 7327,
      "fore": 7328,
      "frei": 7329,
      "fold": 7330,
      "gu": 7331,
      "gal": 7332,
      "gren": 7333,
      "geln": 7334,
      "gift": 7335,
      "gÃ¼nst": 7336,
      "greg": 7337,
      "hem": 7338,
      "hel": 7339,
      "hall": 7340,
      "hers": 7341,
      "hood": 7342,
      "hboard": 7343,
      "ihen": 7344,
      "iate": 7345,
      "iologen": 7346,
      "iologists": 7347,
      "kel": 7348,
      "kam": 7349,
      "kern": 7350,
      "kont": 7351,
      "kÃ¼nd": 7352,
      "lÃ¶": 7353,
      "lag": 7354,
      "lation": 7355,
      "lungs": 7356,
      "lager": 7357,
      "lippe": 7358,
      "life": 7359,
      "med": 7360,
      "mik": 7361,
      "nor": 7362,
      "nern": 7363,
      "night": 7364,
      "national": 7365,
      "nÃ¼sse": 7366,
      "pop": 7367,
      "piele": 7368,
      "penter": 7369,
      "ra": 7370,
      "ris": 7371,
      "ration": 7372,
      "raten": 7373,
      "sol": 7374,
      "sein": 7375,
      "sage": 7376,
      "setzt": 7377,
      "somit": 7378,
      "ucken": 7379,
      "wan": 7380,
      "wel": 7381,
      "yt": 7382,
      "yard": 7383,
      "zierte": 7384,
      "Ã©": 7385,
      "Ġere": 7386,
      "eng": 7387,
      "enz": 7388,
      "erfen": 7389,
      "inkt": 7390,
      "inted": 7391,
      "Ġten": 7392,
      "Ġtor": 7393,
      "Ġtent": 7394,
      "Ġtip": 7395,
      "Ġtank": 7396,
      "Ġtesten": 7397,
      "Ġtreiben": 7398,
      "Ġtens": 7399,
      "Ġtonnen": 7400,
      "Ġtumor": 7401,
      "Ġain": 7402,
      "Ġaqu": 7403,
      "Ġapr": 7404,
      "Ġafford": 7405,
      "Ġdor": 7406,
      "Ġdicht": 7407,
      "Ġdeine": 7408,
      "Ġdying": 7409,
      "Ġdeter": 7410,
      "Ġdopp": 7411,
      "ching": 7412,
      "Ġsund": 7413,
      "Ġsuf": 7414,
      "Ġsib": 7415,
      "Ġwit": 7416,
      "Ġwis": 7417,
      "Ġwid": 7418,
      "Ġwire": 7419,
      "Ġwieso": 7420,
      "Ġthick": 7421,
      "ested": 7422,
      "iev": 7423,
      "Ġmist": 7424,
      "Ġmort": 7425,
      "Ġmessen": 7426,
      "Ġmesh": 7427,
      "Ġmapping": 7428,
      "Ġbann": 7429,
      "Ġbible": 7430,
      "Ġbands": 7431,
      "Ġbump": 7432,
      "onents": 7433,
      "atische": 7434,
      "atoes": 7435,
      "Ġhed": 7436,
      "Ġhur": 7437,
      "Ġhid": 7438,
      "Ġhide": 7439,
      "ĠhÃ¤lt": 7440,
      "ĠhÃ¤ngt": 7441,
      "ĠhÃ¤nde": 7442,
      "Ġhorses": 7443,
      "rehen": 7444,
      "reality": 7445,
      "star": 7446,
      "sters": 7447,
      "statt": 7448,
      "Ġehr": 7449,
      "ana": 7450,
      "any": 7451,
      "anol": 7452,
      "anuts": 7453,
      "Ġgam": 7454,
      "Ġgip": 7455,
      "Ġgree": 7456,
      "Ġghost": 7457,
      "Ġtheory": 7458,
      "Ġoreg": 7459,
      "itiv": 7460,
      "itiert": 7461,
      "itionen": 7462,
      "itely": 7463,
      "ason": 7464,
      "ĠfÃ¤ngt": 7465,
      "Ġfurther": 7466,
      "legt": 7467,
      "lekÃ¼": 7468,
      "legte": 7469,
      "Ġpor": 7470,
      "Ġpion": 7471,
      "Ġpus": 7472,
      "Ġpet": 7473,
      "Ġpian": 7474,
      "Ġpush": 7475,
      "Ġpurs": 7476,
      "Ġpflanze": 7477,
      "icherung": 7478,
      "Ġink": 7479,
      "Ġingen": 7480,
      "Ġinfl": 7481,
      "Ġiniti": 7482,
      "Ġinvented": 7483,
      "Ġnu": 7484,
      "Ġnick": 7485,
      "arren": 7486,
      "arily": 7487,
      "orben": 7488,
      "orms": 7489,
      "ingend": 7490,
      "osc": 7491,
      "Ġcust": 7492,
      "Ġcult": 7493,
      "Ġcrow": 7494,
      "Ġcaught": 7495,
      "Ġcases": 7496,
      "Ġvast": 7497,
      "Ġkit": 7498,
      "Ġkah": 7499,
      "Ġkred": 7500,
      "Ġkalk": 7501,
      "Ġkalen": 7502,
      "Ġkuh": 7503,
      "Ġeinrichtungen": 7504,
      "Ġtoler": 7505,
      "Ġlou": 7506,
      "Ġlack": 7507,
      "ĠlÃ¤ch": 7508,
      "Ġlines": 7509,
      "Ġluck": 7510,
      "Ġliste": 7511,
      "Ġloud": 7512,
      "Ġlisa": 7513,
      "otic": 7514,
      "Ã¼st": 7515,
      "Ã¼le": 7516,
      "Ã¼chten": 7517,
      "Ġbeine": 7518,
      "Ġbegriff": 7519,
      "igungs": 7520,
      "ĠzÃ¤h": 7521,
      "unken": 7522,
      "Ġunderneath": 7523,
      "utigen": 7524,
      "utage": 7525,
      "Ġwein": 7526,
      "Ġweight": 7527,
      "Ġwellen": 7528,
      "Ġwebs": 7529,
      "enty": 7530,
      "Ġdashboard": 7531,
      "andom": 7532,
      "usion": 7533,
      "usive": 7534,
      "usual": 7535,
      "Ã¤te": 7536,
      "Ã¤glich": 7537,
      "Ã¤ÃŁe": 7538,
      "uring": 7539,
      "Ġhabit": 7540,
      "eme": 7541,
      "eless": 7542,
      "erei": 7543,
      "Ġangehen": 7544,
      "Ġanbau": 7545,
      "Ġangenommen": 7546,
      "Ġanpass": 7547,
      "Ġanonym": 7548,
      "icals": 7549,
      "Ġdive": 7550,
      "Ġdiox": 7551,
      "ilar": 7552,
      "ildet": 7553,
      "amin": 7554,
      "Ġreis": 7555,
      "Ġreicht": 7556,
      "Ġreag": 7557,
      "Ġregen": 7558,
      "Ġrechte": 7559,
      "Ġreichen": 7560,
      "Ġrefr": 7561,
      "Ġjam": 7562,
      "Ġjungs": 7563,
      "Ġjump": 7564,
      "achter": 7565,
      "Ġvert": 7566,
      "Ġverab": 7567,
      "Ġverpf": 7568,
      "Ġvergebung": 7569,
      "Ġvermittel": 7570,
      "Ġverzwe": 7571,
      "Ġverpack": 7572,
      "Ġverstop": 7573,
      "Ġunhe": 7574,
      "Ġunusual": 7575,
      "etwa": 7576,
      "agr": 7577,
      "aging": 7578,
      "aged": 7579,
      "Ġsoils": 7580,
      "Ġsobald": 7581,
      "Ġstammen": 7582,
      "Ġstamm": 7583,
      "Ġstock": 7584,
      "Ġstunde": 7585,
      "Ġstabil": 7586,
      "ungef": 7587,
      "indungen": 7588,
      "ierungs": 7589,
      "schÃ¼": 7590,
      "schirm": 7591,
      "bern": 7592,
      "lichten": 7593,
      "kehrt": 7594,
      "Ġermut": 7595,
      "ufact": 7596,
      "ctica": 7597,
      "alles": 7598,
      "allappen": 7599,
      "Ġrat": 7600,
      "Ġrud": 7601,
      "Ġrates": 7602,
      "Ġrandom": 7603,
      "ima": 7604,
      "imal": 7605,
      "verbrauch": 7606,
      "vergift": 7607,
      "Ġsche": 7608,
      "ĠschÃ¤": 7609,
      "Ġschick": 7610,
      "Ġschienen": 7611,
      "Ġschrift": 7612,
      "Ġleaf": 7613,
      "Ġlehren": 7614,
      "Ġleads": 7615,
      "open": 7616,
      "oparas": 7617,
      "beled": 7618,
      "gekommen": 7619,
      "Ġgepf": 7620,
      "Ġgelegenheit": 7621,
      "ĠgeÃ¤ndert": 7622,
      "einstein": 7623,
      "Ã¼ren": 7624,
      "auchen": 7625,
      "Ġforce": 7626,
      "dert": 7627,
      "weis": 7628,
      "umpen": 7629,
      "ceed": 7630,
      "Ġimage": 7631,
      "Ġimpl": 7632,
      "Ġimitieren": 7633,
      "genau": 7634,
      "Ġwieviel": 7635,
      "Ġarmen": 7636,
      "Ġarab": 7637,
      "Ġdoor": 7638,
      "Ġdoktr": 7639,
      "ulare": 7640,
      "ulating": 7641,
      "Ġnecess": 7642,
      "Ġneigh": 7643,
      "Ġneither": 7644,
      "heute": 7645,
      "heuer": 7646,
      "ĠfrÃ¶": 7647,
      "mend": 7648,
      "Ġmeas": 7649,
      "Ġlifet": 7650,
      "Ġspor": 7651,
      "Ġspot": 7652,
      "Ġspont": 7653,
      "Ġspiele": 7654,
      "Ġspinning": 7655,
      "ĠspaÃŁ": 7656,
      "Ġsplit": 7657,
      "Ġspiegel": 7658,
      "ithm": 7659,
      "ktika": 7660,
      "Ġheutigen": 7661,
      "iday": 7662,
      "Ġasp": 7663,
      "Ġaspe": 7664,
      "Ġorch": 7665,
      "Ġorten": 7666,
      "Ġorgel": 7667,
      "auschen": 7668,
      "auspiel": 7669,
      "ausgaben": 7670,
      "Ġausz": 7671,
      "Ġaussch": 7672,
      "Ġausgel": 7673,
      "ĠworÃ¼ber": 7674,
      "Ġexil": 7675,
      "Ġexile": 7676,
      "Ġexists": 7677,
      "Ġextend": 7678,
      "Ġexpression": 7679,
      "Ġattem": 7680,
      "Ġtraf": 7681,
      "Ġtrifft": 7682,
      "Ġtrennung": 7683,
      "Ġtext": 7684,
      "Ġteeth": 7685,
      "Ġpeanuts": 7686,
      "Ġumso": 7687,
      "Ġumfeld": 7688,
      "ership": 7689,
      "zell": 7690,
      "zeigen": 7691,
      "zeuge": 7692,
      "Ġgrade": 7693,
      "Ġgramm": 7694,
      "Ġgraph": 7695,
      "stehen": 7696,
      "steigen": 7697,
      "Ġcomment": 7698,
      "Ġcomfort": 7699,
      "Ġdeser": 7700,
      "abet": 7701,
      "ienz": 7702,
      "Ġplatt": 7703,
      "Ġbrit": 7704,
      "Ġbrust": 7705,
      "Ġbrachten": 7706,
      "Ġmengen": 7707,
      "Ġenth": 7708,
      "Ġmaxim": 7709,
      "Ġvorbei": 7710,
      "Ġvorgang": 7711,
      "Ġgesp": 7712,
      "Ġdete": 7713,
      "wirr": 7714,
      "Ġshoes": 7715,
      "asten": 7716,
      "ĠprÃ¤": 7717,
      "ifically": 7718,
      "Ġusual": 7719,
      "ierenden": 7720,
      "Ġmenschlicher": 7721,
      "Ġgetr": 7722,
      "Ġzell": 7723,
      "ains": 7724,
      "Ġdarunter": 7725,
      "Ġdarstellung": 7726,
      "Ġblume": 7727,
      "Ġblumen": 7728,
      "Ġouter": 7729,
      "Ġconver": 7730,
      "Ġens": 7731,
      "Ġenabled": 7732,
      "trotz": 7733,
      "Ġnachrichten": 7734,
      "Ġgenes": 7735,
      "Ġwelches": 7736,
      "peer": 7737,
      "peten": 7738,
      "acts": 7739,
      "actic": 7740,
      "reng": 7741,
      "Ġhadn": 7742,
      "Ã¤tig": 7743,
      "Ã¤tzlich": 7744,
      "Ġinternal": 7745,
      "Ġgrown": 7746,
      "Ġkannst": 7747,
      "Ġcomponents": 7748,
      "ahnen": 7749,
      "Ġdra": 7750,
      "Ġdrin": 7751,
      "Ġdrum": 7752,
      "Ġdress": 7753,
      "Ġdrill": 7754,
      "Ġdrauf": 7755,
      "Ġdriven": 7756,
      "Ġdrittel": 7757,
      "Ġdringend": 7758,
      "Ġboom": 7759,
      "Ġboys": 7760,
      "Ġquar": 7761,
      "Ġquellen": 7762,
      "Ġkomm": 7763,
      "Ġkomme": 7764,
      "Ġame": 7765,
      "gruppe": 7766,
      "Ġunterscheiden": 7767,
      "ologist": 7768,
      "ologische": 7769,
      "penden": 7770,
      "Ġphant": 7771,
      "ameisen": 7772,
      "ptoparas": 7773,
      "zubringen": 7774,
      "Ġdonor": 7775,
      "Ġscene": 7776,
      "auften": 7777,
      "Ã¼cken": 7778,
      "Ġroll": 7779,
      "Ġrote": 7780,
      "Ġjahres": 7781,
      "Ġkonser": 7782,
      "Ġkonzept": 7783,
      "Ġevidence": 7784,
      "Ġbegun": 7785,
      "Ġbegonnen": 7786,
      "Ġbegleitet": 7787,
      "Ġbio": 7788,
      "Ġhassen": 7789,
      "Ġclick": 7790,
      "Ġclinton": 7791,
      "Ġgeschwindigkeit": 7792,
      "selben": 7793,
      "aced": 7794,
      "acity": 7795,
      "Ġzweites": 7796,
      "Ġstrings": 7797,
      "Ġflut": 7798,
      "Ġflug": 7799,
      "ĠflieÃŁ": 7800,
      "Ġklass": 7801,
      "Ġklare": 7802,
      "Ġklasse": 7803,
      "Ã¶rper": 7804,
      "Ġdisag": 7805,
      "ĠgroÃŁteil": 7806,
      "ĠgroÃŁvater": 7807,
      "Ġselts": 7808,
      "alklippe": 7809,
      "ĠhinzufÃ¼": 7810,
      "Ġversus": 7811,
      "Ġversamm": 7812,
      "Ġverspre": 7813,
      "Ġhoher": 7814,
      "Ġhoffen": 7815,
      "Ġanywhere": 7816,
      "Ġanymore": 7817,
      "Ġfirmen": 7818,
      "Ġinsight": 7819,
      "Ġinsbesondere": 7820,
      "Ġmehrere": 7821,
      "Ã¤hrung": 7822,
      "Ġindo": 7823,
      "whelm": 7824,
      "Ġoverwhelm": 7825,
      "mehr": 7826,
      "Ġkleptoparas": 7827,
      "Ġproduct": 7828,
      "Ġproduces": 7829,
      "Ġproduced": 7830,
      "gesamt": 7831,
      "Ġtechnisch": 7832,
      "Ġadrian": 7833,
      "ungsvoll": 7834,
      "ungsfÃ¤h": 7835,
      "Ġliebten": 7836,
      "Ġgutes": 7837,
      "formed": 7838,
      "Ġgewicht": 7839,
      "Ġcalc": 7840,
      "Ġcalend": 7841,
      "Ġcarpenter": 7842,
      "Ġzusammenpr": 7843,
      "Ġautonomen": 7844,
      "Ġheld": 7845,
      "Ġgoodness": 7846,
      "Ġentwerfen": 7847,
      "manchmal": 7848,
      "Ġtalked": 7849,
      "Ġfinding": 7850,
      "schied": 7851,
      "Ġdennoch": 7852,
      "ĠmÃ¼ssten": 7853,
      "stra": 7854,
      "Ġsolch": 7855,
      "Ġsolved": 7856,
      "Ġsolange": 7857,
      "Ġmarch": 7858,
      "Ġteilnehmen": 7859,
      "Ġpassing": 7860,
      "maÃŁen": 7861,
      "Ġwenigen": 7862,
      "ĠfÃ¼hren": 7863,
      "osphÃ¤re": 7864,
      "Ġformed": 7865,
      "Ġgrundle": 7866,
      "rients": 7867,
      "Ġprevent": 7868,
      "Ġlangweil": 7869,
      "Ġcross": 7870,
      "Ġmini": 7871,
      "Ġminer": 7872,
      "Ġminute": 7873,
      "Ġimagined": 7874,
      "Ġtechnological": 7875,
      "Ġ2001": 7876,
      "Ġauge": 7877,
      "Ġnutrients": 7878,
      "spre": 7879,
      "Ġended": 7880,
      "Ġendlich": 7881,
      "Ġsms": 7882,
      "Ġgebiet": 7883,
      "Ġorganismus": 7884,
      "Ġorganized": 7885,
      "Ġorganization": 7886,
      "after": 7887,
      "afik": 7888,
      "Ġbuches": 7889,
      "Ġsociologists": 7890,
      "Ġjail": 7891,
      "Ġversteck": 7892,
      "Ġhumanity": 7893,
      "molekÃ¼": 7894,
      "Ġappe": 7895,
      "Ġappar": 7896,
      "Ġfinal": 7897,
      "Ġcenters": 7898,
      "Ġrepet": 7899,
      "Ġabsatz": 7900,
      "Ġwahrnehmen": 7901,
      "detwas": 7902,
      "nament": 7903,
      "ĠÃ¶ff": 7904,
      "Ġschlafen": 7905,
      "Ġgenerate": 7906,
      "Ġgenerationen": 7907,
      "Ġgreatest": 7908,
      "Ġphilipp": 7909,
      "Ġwissenschaftlern": 7910,
      "Ġwritten": 7911,
      "ĠgrÃ¶ÃŁere": 7912,
      "Ġsubway": 7913,
      "teilen": 7914,
      "Ġgrows": 7915,
      "Ġgemeinde": 7916,
      "Ġgemeinsamen": 7917,
      "Ġsimilar": 7918,
      "Ġsoziologen": 7919,
      "Ġinteressieren": 7920,
      "Ġbildern": 7921,
      "Ġcarefully": 7922,
      "Ġlaw": 7923,
      "Ġlabeled": 7924,
      "Ġspreche": 7925,
      "gefunden": 7926,
      "Ġpiles": 7927,
      "Ġurge": 7928,
      "Ġcreature": 7929,
      "Ġpolitische": 7930,
      "Ġtremend": 7931,
      "Ġmatrix": 7932,
      "stÃ¤nden": 7933,
      "Ġpublikum": 7934,
      "Ġdecades": 7935,
      "Ġphilanthro": 7936,
      "Ġtedx": 7937,
      "Ġserve": 7938,
      "Ġseries": 7939,
      "Ġservices": 7940,
      "Ġmorality": 7941,
      "Ġbedro": 7942,
      "Ġbetrachteten": 7943,
      "pielt": 7944,
      "stellten": 7945,
      "Ġwondering": 7946,
      "Ġwondered": 7947,
      "ĠnatÃ¼rlicher": 7948,
      "Ġhilf": 7949,
      "Ġlosing": 7950,
      "Ġverwendet": 7951,
      "ktiven": 7952,
      "yramide": 7953,
      "Ġjemandem": 7954,
      "immung": 7955,
      "Ġmotor": 7956,
      "condition": 7957,
      "doch": 7958,
      "Ġcrews": 7959,
      "Ġlarger": 7960,
      "Ġcapacity": 7961,
      "Ġweiteren": 7962,
      "Ġhintergrund": 7963,
      "Ġwenigstens": 7964,
      "Ġbeispiele": 7965,
      "Ġphysiker": 7966,
      "working": 7967,
      "Ġdrew": 7968,
      "Ġeconomist": 7969,
      "Ġwaffen": 7970,
      "Ġmetaph": 7971,
      "Ġhyper": 7972,
      "Ġfolgendes": 7973,
      "Ġfastest": 7974,
      "Ġschneller": 7975,
      "Ġschnellsten": 7976,
      "Ġrichtigen": 7977,
      "shirt": 7978,
      "Ġtypically": 7979,
      "Ġseconds": 7980,
      "Ġverschmut": 7981,
      "Ġbreaking": 7982,
      "Ġinvent": 7983,
      "Ġexplore": 7984,
      "Ġharder": 7985,
      "Ġcurve": 7986,
      "Ġcurves": 7987,
      "Ġinspirieren": 7988,
      "gedacht": 7989,
      "Ġbadly": 7990,
      "Ġkreis": 7991,
      "Ġschritte": 7992,
      "axites": 7993,
      "Ġmilch": 7994,
      "Ġpredigt": 7995,
      "Ġpollut": 7996,
      "Ġfantastisches": 7997,
      "Ġbillions": 7998,
      "reiche": 7999,
      "Ġretro": 8000,
      "Ġunterschiede": 8001,
      "Ġarbeitsplatz": 8002,
      "Ġaugenblick": 8003,
      "Ġnetzwerk": 8004,
      "Ġgestalten": 8005,
      "Ġinstruments": 8006,
      "Ġinstrumente": 8007,
      "Ġveget": 8008,
      "Ġleader": 8009,
      "Ġpropose": 8010,
      "Ġchanges": 8011,
      "Ġdevelopment": 8012,
      "Ġprivaten": 8013,
      "Ġmarkets": 8014,
      "Ġtutor": 8015,
      "Ġsowas": 8016,
      "Ġpieces": 8017,
      "Ġriesiger": 8018,
      "versicherung": 8019,
      "Ġboxenc": 8020,
      "Ġviews": 8021,
      "Ġbereiche": 8022,
      "Ġresearchers": 8023,
      "fÃ¤llt": 8024,
      "Ġbesondere": 8025,
      "ĠauÃŁergewÃ¶hnlich": 8026,
      "Ġorganisation": 8027,
      "belastung": 8028,
      "exper": 8029,
      "Ġeasier": 8030,
      "ĠnÃ¤he": 8031,
      "Ġdistanz": 8032,
      "Ġwertvoll": 8033,
      "Ġspezielle": 8034,
      "Ġerstaunt": 8035,
      "ĠaktivitÃ¤ten": 8036,
      "Ġunterschiedliche": 8037,
      "besch": 8038,
      "Ġtests": 8039,
      "Ġlimit": 8040,
      "Ġwirtschaftliche": 8041,
      "Ġextreme": 8042,
      "ipping": 8043,
      "Ġcompanies": 8044,
      "Ġuntersucht": 8045,
      "Ġdifferences": 8046,
      "Ġdifficulty": 8047,
      "Ġprogramming": 8048,
      "Ġchromosom": 8049,
      "Ġchromosomen": 8050,
      "Ġtempo": 8051,
      "Ġmassive": 8052,
      "Ġbaute": 8053,
      "Ġbelastung": 8054,
      "utzutage": 8055,
      "Ġanwendungen": 8056,
      "Ġstatist": 8057,
      "Ġargu": 8058,
      "Ġargue": 8059,
      "Ġencoun": 8060,
      "ĠstraÃŁe": 8061,
      "Ġwussten": 8062,
      "Ġbarr": 8063,
      "Ġbarriere": 8064,
      "Ġlinks": 8065,
      "ĠkostengÃ¼nst": 8066,
      "Ġlanguages": 8067,
      "Ġcleverer": 8068,
      "ĠprÃ¤sentiert": 8069,
      "ĠprÃ¤sentierte": 8070,
      "Ġdynamische": 8071,
      "Ġfacing": 8072,
      "Ġfaced": 8073,
      "Ġlinien": 8074,
      "ĠlÃ¤ndlichen": 8075,
      "Ġdoctr": 8076,
      "Ġdeeply": 8077,
      "Ġblaue": 8078,
      "Ġelektro": 8079,
      "Ġclearly": 8080,
      "Ġakzeptiert": 8081,
      "Ġsources": 8082,
      "ĠfuÃŁ": 8083,
      "Ġeinzelnen": 8084,
      "Ġzentral": 8085,
      "Ġempower": 8086,
      "damit": 8087,
      "Ġgirls": 8088,
      "Ġfrog": 8089,
      "ĠrÃ¼ckwÃ¤rts": 8090,
      "Ġcolony": 8091,
      "Ġnetworks": 8092,
      "ĠÃ¶ffentlichen": 8093,
      "everybody": 8094,
      "jede": 8095,
      "ĠÃ¤rzten": 8096,
      "Ġmaschinen": 8097,
      "Ġforeign": 8098,
      "Ġfarms": 8099,
      "Ġbemerken": 8100,
      "Ġarrang": 8101,
      "Ġshared": 8102,
      "Ġconcert": 8103,
      "Ġbewegungen": 8104,
      "Ġfocused": 8105,
      "Ġengaging": 8106,
      "Ġengaged": 8107,
      "ĠkomplexitÃ¤t": 8108,
      "Ġphenomena": 8109,
      "hydr": 8110,
      "ĠerhÃ¶": 8111,
      "Ġgrandfather": 8112,
      "Ġgenetic": 8113,
      "Ġparteien": 8114,
      "problem": 8115,
      "Ġherausforderungen": 8116,
      "Ġbehandlung": 8117,
      "point": 8118,
      "Ġsomit": 8119,
      "Ġbuddhist": 8120,
      "Ġfollowing": 8121,
      "Ġpleasure": 8122,
      "Ġwebcam": 8123,
      "Ġreduziert": 8124,
      "Ġallowed": 8125,
      "Ġvoraussetzung": 8126,
      "Ġdrawing": 8127,
      "Ġmuseums": 8128,
      "Ġjahrhunderts": 8129,
      "Ġirgendeiner": 8130,
      "Ġsurprise": 8131,
      "looking": 8132,
      "gewÃ¶hnliche": 8133,
      "zwei": 8134,
      "Ġtwig": 8135,
      "Ġtiefsee": 8136,
      "Ġugly": 8137,
      "Ġinneren": 8138,
      "Ġkalifornien": 8139,
      "Ġbezahlen": 8140,
      "Ġjournal": 8141,
      "Ġrule": 8142,
      "ĠÃ¼berraschen": 8143,
      "Ġdiscour": 8144,
      "haltung": 8145,
      "Ġprototyp": 8146,
      "ynth": 8147,
      "Ġwichtigen": 8148,
      "ĠfÃ¤llt": 8149,
      "Ġsekunde": 8150,
      "Ġdistrict": 8151,
      "Ġunerwar": 8152,
      "Ġerwarten": 8153,
      "Ġprovide": 8154,
      "ĠpersÃ¶nlich": 8155,
      "Ġsurface": 8156,
      "Ġparticipate": 8157,
      "ĠÃ¤hnliches": 8158,
      "Ġakkur": 8159,
      "Ġchristmas": 8160,
      "ĠhÃ¼b": 8161,
      "Ġpinsel": 8162,
      "Ġziehen": 8163,
      "Ġselling": 8164,
      "ĠstÃ¤dt": 8165,
      "Ġergebnis": 8166,
      "Ġergebnisse": 8167,
      "Ġdetectors": 8168,
      "Ġzeichnung": 8169,
      "Ġcompetition": 8170,
      "Ġqueen": 8171,
      "Ġwiederholen": 8172,
      "Ġfolgenden": 8173,
      "Ġroboter": 8174,
      "ĠunterstÃ¼tzt": 8175,
      "Ġachieve": 8176,
      "mission": 8177,
      "Ġaudience": 8178,
      "Ġwestern": 8179,
      "Ġhomosex": 8180,
      "Ġpestic": 8181,
      "Ġpestiz": 8182,
      "Ġpuppenspiel": 8183,
      "Ġceo": 8184,
      "Ġlokal": 8185,
      "Ġjanuary": 8186,
      "Ġaufzubauen": 8187,
      "Ġmangroven": 8188,
      "ĠÃ¼berwinden": 8189,
      "Ġplastic": 8190,
      "Ġdeprim": 8191,
      "Ġenglish": 8192,
      "Ġscannen": 8193,
      "Ġindirectly": 8194,
      "Ġantarctica": 8195,
      "Ġantarktika": 8196,
      "Ġschafft": 8197,
      "Ġsermon": 8198,
      "Ġsermons": 8199,
      "Ġfiskalen": 8200,
      "Ġfiskalklippe": 8201,
      "ycling": 8202,
      "Ġavoid": 8203,
      "Ġkirche": 8204,
      "Ġbegeg": 8205,
      "Ġancest": 8206,
      "Ġungeheuer": 8207,
      "Ġliberal": 8208,
      "Ġorientierung": 8209,
      "Ġchannel": 8210,
      "Ġgrippeviren": 8211,
      "Ġbranch": 8212,
      "Ġeventually": 8213,
      "ĠbestÃ¤ub": 8214,
      "Ġgelangt": 8215,
      "Ġverschwunden": 8216,
      "wissenschaftler": 8217,
      "ĠgeschÃ¤ftsfÃ¼hrer": 8218,
      "Ġannounced": 8219,
      "Ġdestroyed": 8220,
      "Ġdrogen": 8221,
      "Ġdancing": 8222,
      "ĠmÃ¤rkte": 8223,
      "Ġharmon": 8224,
      "Ġgathering": 8225,
      "Ġultim": 8226,
      "Ġsealed": 8227,
      "Ġdilemmas": 8228,
      "Ġrepeat": 8229,
      "Ġredesigned": 8230,
      "Ġstammt": 8231,
      "Ġescape": 8232,
      "Ġlehrern": 8233,
      "Ġleading": 8234,
      "Ġgrosse": 8235,
      "Ġkonsument": 8236,
      "Ġfloor": 8237,
      "Ġdisappear": 8238,
      "Ġreports": 8239,
      "ĠbenÃ¶tigen": 8240,
      "Ġbildungsweg": 8241,
      "ĠwunderschÃ¶ne": 8242,
      "Ġintimacy": 8243,
      "ĠreprÃ¤sentiert": 8244,
      "Ġphotosynth": 8245,
      "ĠsÃ¼ÃŁkart": 8246,
      "Ġemotionale": 8247,
      "Ġempathy": 8248,
      "Ġkorrekt": 8249,
      "Ġdetails": 8250,
      "maschine": 8251,
      "Ġtouch": 8252,
      "Ġfurcht": 8253,
      "Ġlautet": 8254,
      "Ġangefangen": 8255,
      "Ġdivided": 8256,
      "Ġreveals": 8257,
      "ĠverÃ¶ffentlicht": 8258,
      "Ġstiftungen": 8259,
      "Ġridic": 8260,
      "Ġtribunal": 8261,
      "Ġcommercial": 8262,
      "Ġconclusion": 8263,
      "Ġbiospher": 8264,
      "ĠbestÃ¤tigt": 8265,
      "Ġearlier": 8266,
      "Ġfreundin": 8267,
      "ĠgebÃ¤ude": 8268,
      "ĠbedÃ¼rf": 8269,
      "Ġconsumer": 8270,
      "Ġconsistently": 8271,
      "Ġbeeindruck": 8272,
      "Ġvirtual": 8273,
      "Ġbroadcasting": 8274,
      "Ġmethode": 8275,
      "Ġopportunity": 8276,
      "hilfe": 8277,
      "laufbahn": 8278,
      "Ġbastler": 8279,
      "Ġbizarre": 8280,
      "ĠgÃ¤be": 8281,
      "Ġfokus": 8282,
      "Ġcedar": 8283,
      "Ġzivilisation": 8284,
      "schneiden": 8285,
      "Ġabschluss": 8286,
      "Ġasphalt": 8287,
      "ĠwohltÃ¤tigkeit": 8288,
      "Ġpoisoning": 8289,
      "Ġirgendetwas": 8290,
      "Ġbuilders": 8291,
      "Ġberechnete": 8292,
      "ĠÃ¤thiopien": 8293,
      "Ġbleistift": 8294,
      "Ġanzuschauen": 8295,
      "Ġdisturb": 8296,
      "Ġarchitecture": 8297,
      "cribe": 8298,
      "freiheit": 8299,
      "Ġapril": 8300,
      "Ġsuffer": 8301,
      "Ġhidden": 8302,
      "Ġgipfel": 8303,
      "Ġpushing": 8304,
      "Ġpiano": 8305,
      "Ġinflu": 8306,
      "Ġcustom": 8307,
      "Ġcrowd": 8308,
      "Ġkahle": 8309,
      "Ġkalender": 8310,
      "Ġlucky": 8311,
      "ungefÃ¤hr": 8312,
      "vergiftung": 8313,
      "Ġgepfiffen": 8314,
      "Ġlifetime": 8315,
      "Ġkonserven": 8316,
      "Ġmetaphor": 8317,
      "ĠsÃ¼ÃŁkartoff": 8318,
      "59": 8319,
      "70": 8320,
      "aven": 8321,
      "aders": 8322,
      "bm": 8323,
      "big": 8324,
      "bay": 8325,
      "bill": 8326,
      "bust": 8327,
      "bled": 8328,
      "baut": 8329,
      "baum": 8330,
      "barn": 8331,
      "borough": 8332,
      "con": 8333,
      "cies": 8334,
      "cons": 8335,
      "cious": 8336,
      "dan": 8337,
      "ees": 8338,
      "each": 8339,
      "fisch": 8340,
      "fÃ¤lt": 8341,
      "fÃ¤hrt": 8342,
      "gig": 8343,
      "gical": 8344,
      "gyp": 8345,
      "girl": 8346,
      "hes": 8347,
      "hiz": 8348,
      "hatt": 8349,
      "hÃ¶rt": 8350,
      "happ": 8351,
      "hosen": 8352,
      "ikt": 8353,
      "iations": 8354,
      "ioren": 8355,
      "ihre": 8356,
      "iwan": 8357,
      "jim": 8358,
      "jul": 8359,
      "jane": 8360,
      "kal": 8361,
      "kur": 8362,
      "kind": 8363,
      "kauf": 8364,
      "kamen": 8365,
      "kument": 8366,
      "lf": 8367,
      "las": 8368,
      "lap": 8369,
      "lim": 8370,
      "lant": 8371,
      "lass": 8372,
      "lingen": 8373,
      "listen": 8374,
      "loss": 8375,
      "lob": 8376,
      "lÃ¤ss": 8377,
      "mÃ": 8378,
      "mot": 8379,
      "mil": 8380,
      "mart": 8381,
      "mungen": 8382,
      "mitt": 8383,
      "meln": 8384,
      "mri": 8385,
      "messer": 8386,
      "nch": 8387,
      "nich": 8388,
      "nÃ¤": 8389,
      "nur": 8390,
      "ntag": 8391,
      "oben": 8392,
      "ober": 8393,
      "oose": 8394,
      "oomen": 8395,
      "ohlen": 8396,
      "oiden": 8397,
      "otem": 8398,
      "ping": 8399,
      "pel": 8400,
      "pol": 8401,
      "part": 8402,
      "pted": 8403,
      "passen": 8404,
      "ptem": 8405,
      "pyramide": 8406,
      "res": 8407,
      "rit": 8408,
      "right": 8409,
      "raum": 8410,
      "rael": 8411,
      "ss": 8412,
      "situ": 8413,
      "suff": 8414,
      "swÃ¼r": 8415,
      "ta": 8416,
      "tle": 8417,
      "tage": 8418,
      "two": 8419,
      "turn": 8420,
      "tausende": 8421,
      "ux": 8422,
      "uhr": 8423,
      "uder": 8424,
      "vant": 8425,
      "vort": 8426,
      "vention": 8427,
      "wat": 8428,
      "wis": 8429,
      "wam": 8430,
      "whe": 8431,
      "wend": 8432,
      "wster": 8433,
      "wiser": 8434,
      "yl": 8435,
      "yon": 8436,
      "ypt": 8437,
      "yme": 8438,
      "yfish": 8439,
      "zz": 8440,
      "zial": 8441,
      "zlichen": 8442,
      "zeln": 8443,
      "zÃ¤h": 8444,
      "zusehen": 8445,
      "ªte": 8446,
      "Ãªte": 8447,
      "era": 8448,
      "erie": 8449,
      "erlich": 8450,
      "erungen": 8451,
      "erstens": 8452,
      "ini": 8453,
      "inational": 8454,
      "inery": 8455,
      "inicians": 8456,
      "intell": 8457,
      "Ġts": 8458,
      "Ġtenn": 8459,
      "Ġtack": 8460,
      "Ġtape": 8461,
      "Ġtiefe": 8462,
      "Ġtype": 8463,
      "Ġtypen": 8464,
      "Ġtested": 8465,
      "Ġate": 8466,
      "Ġaster": 8467,
      "Ġded": 8468,
      "ĠdÃ¼r": 8469,
      "Ġdoug": 8470,
      "Ġdage": 8471,
      "Ġdouble": 8472,
      "chel": 8473,
      "chung": 8474,
      "chend": 8475,
      "chup": 8476,
      "Ġsat": 8477,
      "Ġsit": 8478,
      "Ġsand": 8479,
      "Ġsem": 8480,
      "Ġshr": 8481,
      "Ġsad": 8482,
      "Ġsick": 8483,
      "Ġsue": 8484,
      "Ġsme": 8485,
      "Ġwol": 8486,
      "Ġwine": 8487,
      "ĠwÃ¼s": 8488,
      "Ġwiesen": 8489,
      "ĠwÃ¶rter": 8490,
      "Ġthr": 8491,
      "Ġthread": 8492,
      "esb": 8493,
      "estern": 8494,
      "estet": 8495,
      "Ġibm": 8496,
      "ieden": 8497,
      "iely": 8498,
      "iegt": 8499,
      "Ġmun": 8500,
      "Ġmand": 8501,
      "Ġmur": 8502,
      "Ġmim": 8503,
      "Ġmaus": 8504,
      "Ġmamm": 8505,
      "Ġmouse": 8506,
      "Ġmerk": 8507,
      "Ġmigr": 8508,
      "Ġmischung": 8509,
      "ĠmÃ¤chtige": 8510,
      "ĠbÃ¶": 8511,
      "Ġbist": 8512,
      "Ġbip": 8513,
      "Ġbaut": 8514,
      "Ġbuff": 8515,
      "Ġbinden": 8516,
      "Ġbieten": 8517,
      "Ġbumble": 8518,
      "onx": 8519,
      "atie": 8520,
      "atung": 8521,
      "ativer": 8522,
      "Ġhi": 8523,
      "Ġhut": 8524,
      "Ġhine": 8525,
      "Ġhip": 8526,
      "Ġhong": 8527,
      "Ġhits": 8528,
      "ĠhÃ¤m": 8529,
      "Ġhunter": 8530,
      "Ġhitting": 8531,
      "rea": 8532,
      "redu": 8533,
      "rechn": 8534,
      "rews": 8535,
      "stes": 8536,
      "stag": 8537,
      "sthe": 8538,
      "stud": 8539,
      "stÃ¤r": 8540,
      "Ġeier": 8541,
      "Ġehren": 8542,
      "Ġechten": 8543,
      "aning": 8544,
      "anomet": 8545,
      "ananda": 8546,
      "anlagen": 8547,
      "Ġgap": 8548,
      "Ġgir": 8549,
      "Ġgig": 8550,
      "Ġgol": 8551,
      "Ġgib": 8552,
      "Ġgang": 8553,
      "Ġgatt": 8554,
      "ĠgÃ¼nst": 8555,
      "Ġgaw": 8556,
      "Ġgames": 8557,
      "ĠgÃ¼te": 8558,
      "Ġtheta": 8559,
      "Ġoil": 8560,
      "Ġoct": 8561,
      "itungen": 8562,
      "itÃ¤r": 8563,
      "itrea": 8564,
      "asis": 8565,
      "assten": 8566,
      "asche": 8567,
      "aswam": 8568,
      "Ġfisch": 8569,
      "Ġfill": 8570,
      "Ġfif": 8571,
      "Ġfult": 8572,
      "ĠfÃ¶r": 8573,
      "Ġfakt": 8574,
      "Ġfuss": 8575,
      "Ġfully": 8576,
      "Ġfmri": 8577,
      "ĠfÃªte": 8578,
      "Ġuh": 8579,
      "Ġuhren": 8580,
      "ley": 8581,
      "leun": 8582,
      "lecht": 8583,
      "Ġpink": 8584,
      "Ġpure": 8585,
      "Ġpour": 8586,
      "Ġpac": 8587,
      "Ġpassen": 8588,
      "Ġpasst": 8589,
      "Ġpike": 8590,
      "ichern": 8591,
      "Ġinh": 8592,
      "Ġinnen": 8593,
      "Ġincent": 8594,
      "Ġinex": 8595,
      "Ġinhaft": 8596,
      "Ġinzwischen": 8597,
      "Ġnir": 8598,
      "Ġnive": 8599,
      "Ġnations": 8600,
      "Ġnav": 8601,
      "Ġnesh": 8602,
      "Ġnarr": 8603,
      "Ġngu": 8604,
      "Ġnanomet": 8605,
      "lles": 8606,
      "llfish": 8607,
      "arma": 8608,
      "arcer": 8609,
      "ora": 8610,
      "org": 8611,
      "oration": 8612,
      "orgung": 8613,
      "osing": 8614,
      "ossen": 8615,
      "osite": 8616,
      "Ġcand": 8617,
      "Ġcred": 8618,
      "Ġcatch": 8619,
      "Ġcoup": 8620,
      "Ġcameras": 8621,
      "Ġcnn": 8622,
      "Ġkab": 8623,
      "ĠkÃ¼nd": 8624,
      "Ġkalt": 8625,
      "Ġkatherine": 8626,
      "aper": 8627,
      "apol": 8628,
      "apher": 8629,
      "appt": 8630,
      "Ġeinst": 8631,
      "Ġeiniger": 8632,
      "Ġeindr": 8633,
      "Ġeinnimmt": 8634,
      "Ġeinkauf": 8635,
      "Ġtool": 8636,
      "Ġlas": 8637,
      "Ġlut": 8638,
      "Ġlate": 8639,
      "Ġlists": 8640,
      "Ġlangen": 8641,
      "Ġluc": 8642,
      "Ġlager": 8643,
      "Ġlasst": 8644,
      "Ġlesb": 8645,
      "otten": 8646,
      "alain": 8647,
      "irs": 8648,
      "omm": 8649,
      "omon": 8650,
      "oming": 8651,
      "Ã¼ben": 8652,
      "Ã¼ge": 8653,
      "Ã¼hen": 8654,
      "Ġbeher": 8655,
      "Ġbelle": 8656,
      "Ġbegeben": 8657,
      "Ġbelo": 8658,
      "Ġbeides": 8659,
      "Ġbezug": 8660,
      "igi": 8661,
      "iglich": 8662,
      "igend": 8663,
      "igated": 8664,
      "Ġzack": 8665,
      "Ġzwer": 8666,
      "Ġzoom": 8667,
      "ĠzÃ¼chten": 8668,
      "Ġdied": 8669,
      "una": 8670,
      "unte": 8671,
      "unser": 8672,
      "unting": 8673,
      "Ġwege": 8674,
      "entwick": 8675,
      "andt": 8676,
      "ussen": 8677,
      "Ã¤ÃŁ": 8678,
      "Ġyves": 8679,
      "Ġyards": 8680,
      "urf": 8681,
      "urt": 8682,
      "urance": 8683,
      "Ġhack": 8684,
      "thin": 8685,
      "quis": 8686,
      "qualitÃ¤t": 8687,
      "rolle": 8688,
      "eregt": 8689,
      "Ġanx": 8690,
      "Ġanre": 8691,
      "Ġanle": 8692,
      "Ġanges": 8693,
      "Ġanger": 8694,
      "Ġananth": 8695,
      "Ġangesch": 8696,
      "Ġanhand": 8697,
      "Ġanrufen": 8698,
      "icit": 8699,
      "icate": 8700,
      "icip": 8701,
      "tenborough": 8702,
      "Ã¶ÃŁ": 8703,
      "Ã¶cke": 8704,
      "Ã¶pfe": 8705,
      "Ġderer": 8706,
      "Ġderiv": 8707,
      "vey": 8708,
      "Ġsew": 8709,
      "Ġsees": 8710,
      "Ġseptem": 8711,
      "Ġdimit": 8712,
      "Ġdivers": 8713,
      "Ġdiastroph": 8714,
      "ilmt": 8715,
      "Ġwirst": 8716,
      "Ġreform": 8717,
      "Ġreject": 8718,
      "Ġrezept": 8719,
      "Ġreader": 8720,
      "Ġzufall": 8721,
      "Ġzurecht": 8722,
      "hra": 8723,
      "Ġwhom": 8724,
      "Ġisrael": 8725,
      "Ġjim": 8726,
      "ĠjÃ¼n": 8727,
      "Ġjell": 8728,
      "Ġjane": 8729,
      "Ġjones": 8730,
      "ĠjÃ¤ger": 8731,
      "ows": 8732,
      "Ġverg": 8733,
      "Ġverwe": 8734,
      "Ġverme": 8735,
      "Ġverschie": 8736,
      "Ġvernet": 8737,
      "Ġvertre": 8738,
      "ĠvermÃ¶": 8739,
      "Ġvermut": 8740,
      "Ġvergriffen": 8741,
      "Ġunion": 8742,
      "Ġunges": 8743,
      "Ġunless": 8744,
      "Ġunmittel": 8745,
      "Ġunknown": 8746,
      "Ġunfortunately": 8747,
      "Ġunhapp": 8748,
      "etwas": 8749,
      "etzte": 8750,
      "agm": 8751,
      "again": 8752,
      "Ġsoph": 8753,
      "Ġsoviel": 8754,
      "Ġsterne": 8755,
      "Ġstumm": 8756,
      "Ġescal": 8757,
      "iersch": 8758,
      "ierter": 8759,
      "scher": 8760,
      "schle": 8761,
      "schild": 8762,
      "schoose": 8763,
      "olas": 8764,
      "olation": 8765,
      "oliver": 8766,
      "olischen": 8767,
      "olina": 8768,
      "Ġerm": 8769,
      "Ġeric": 8770,
      "Ġerhe": 8771,
      "Ġergie": 8772,
      "ĠerÃ¶ff": 8773,
      "Ġalien": 8774,
      "ufel": 8775,
      "ufangen": 8776,
      "ctual": 8777,
      "aymÃ": 8778,
      "Ġran": 8779,
      "Ġrit": 8780,
      "Ġrise": 8781,
      "Ġrough": 8782,
      "Ġrile": 8783,
      "Ġross": 8784,
      "Ġrennen": 8785,
      "image": 8786,
      "verb": 8787,
      "verhÃ¤lt": 8788,
      "Ġschen": 8789,
      "Ġschicht": 8790,
      "Ġschachte": 8791,
      "Ġschock": 8792,
      "ĠschÃ¤d": 8793,
      "Ġschrieben": 8794,
      "Ġschutz": 8795,
      "Ġschnitt": 8796,
      "ĠschÃ¶nen": 8797,
      "Ġschauspiel": 8798,
      "Ġleds": 8799,
      "Ġleider": 8800,
      "Ġleitet": 8801,
      "Ġlevin": 8802,
      "Ġlehre": 8803,
      "Ġdieselbe": 8804,
      "opath": 8805,
      "dennis": 8806,
      "bez": 8807,
      "beim": 8808,
      "bewe": 8809,
      "beide": 8810,
      "geist": 8811,
      "Ġgeert": 8812,
      "Ġgegend": 8813,
      "Ġgegessen": 8814,
      "eines": 8815,
      "aue": 8816,
      "auber": 8817,
      "auern": 8818,
      "auÃŁer": 8819,
      "Ġformal": 8820,
      "weile": 8821,
      "weiten": 8822,
      "ĠabhÃ¤ng": 8823,
      "Ġabweich": 8824,
      "Ġprove": 8825,
      "Ġproje": 8826,
      "Ġimmen": 8827,
      "gender": 8828,
      "Ġaufs": 8829,
      "Ġaufge": 8830,
      "Ġauftr": 8831,
      "Ġaufhalten": 8832,
      "Ġaufbl": 8833,
      "Ġaufzeich": 8834,
      "Ġark": 8835,
      "Ġarith": 8836,
      "Ġarme": 8837,
      "Ġarche": 8838,
      "Ġarmy": 8839,
      "Ġarrow": 8840,
      "Ġariely": 8841,
      "istischen": 8842,
      "istisches": 8843,
      "Ġdozen": 8844,
      "Ġdokument": 8845,
      "seh": 8846,
      "sex": 8847,
      "sequ": 8848,
      "seite": 8849,
      "uly": 8850,
      "uliert": 8851,
      "Ġmancus": 8852,
      "Ġmanufact": 8853,
      "Ġmanhatt": 8854,
      "Ġnevad": 8855,
      "Ġframe": 8856,
      "menschen": 8857,
      "ests": 8858,
      "Ġmoz": 8859,
      "Ġmex": 8860,
      "Ġlip": 8861,
      "Ġsport": 8862,
      "Ġspite": 8863,
      "ischt": 8864,
      "ktionen": 8865,
      "Ġheal": 8866,
      "Ġhektar": 8867,
      "Ġaspekt": 8868,
      "Ġunsicht": 8869,
      "add": 8870,
      "adrian": 8871,
      "Ġorbit": 8872,
      "Ġausde": 8873,
      "Ġausein": 8874,
      "Ġausgest": 8875,
      "Ġauswahl": 8876,
      "Ġausreichend": 8877,
      "Ġaussage": 8878,
      "essa": 8879,
      "essed": 8880,
      "Ġchin": 8881,
      "Ġchau": 8882,
      "Ġchord": 8883,
      "Ġchina": 8884,
      "Ġworst": 8885,
      "Ġextern": 8886,
      "Ġexquis": 8887,
      "Ġatac": 8888,
      "Ġatlant": 8889,
      "Ġattenborough": 8890,
      "ibut": 8891,
      "usty": 8892,
      "Ġcancer": 8893,
      "Ġcanyon": 8894,
      "okol": 8895,
      "Ġtrou": 8896,
      "Ġtrig": 8897,
      "Ġtrip": 8898,
      "Ġtrucks": 8899,
      "Ġtruly": 8900,
      "Ġteens": 8901,
      "Ġteufel": 8902,
      "Ġpew": 8903,
      "ielten": 8904,
      "Ġumher": 8905,
      "Ġumgehen": 8906,
      "Ġumlaufbahn": 8907,
      "ĠkÃ¶nne": 8908,
      "zeut": 8909,
      "Ġgrie": 8910,
      "Ġgrate": 8911,
      "Ġgross": 8912,
      "Ġgrafik": 8913,
      "stefan": 8914,
      "Ġdahin": 8915,
      "ahren": 8916,
      "Ġdeshalb": 8917,
      "ables": 8918,
      "Ġhate": 8919,
      "neten": 8920,
      "negie": 8921,
      "neapol": 8922,
      "hlung": 8923,
      "Ġthereby": 8924,
      "enda": 8925,
      "endes": 8926,
      "Ġlob": 8927,
      "Ġlobe": 8928,
      "Ġlovel": 8929,
      "ĠÃ¼berfl": 8930,
      "ĠÃ¼bertre": 8931,
      "ĠÃ¼berzeugen": 8932,
      "Ġplaus": 8933,
      "Ġplenty": 8934,
      "herum": 8935,
      "Ġbrand": 8936,
      "Ġbricht": 8937,
      "Ġbright": 8938,
      "Ġbrother": 8939,
      "Ġbronx": 8940,
      "Ġentr": 8941,
      "Ġentstand": 8942,
      "Ġentsche": 8943,
      "Ġentspr": 8944,
      "Ġentered": 8945,
      "Ġmac": 8946,
      "Ġmale": 8947,
      "ĠmaÃŁ": 8948,
      "Ġmailing": 8949,
      "Ġvorgehen": 8950,
      "Ġvorschl": 8951,
      "Ġvorbere": 8952,
      "Ġvorhand": 8953,
      "Ġvorschlag": 8954,
      "ĠvorwÃ¤rts": 8955,
      "ikes": 8956,
      "ikon": 8957,
      "Ġwob": 8958,
      "Ġwohnung": 8959,
      "Ġnov": 8960,
      "Ġnote": 8961,
      "Ġgesc": 8962,
      "Ġgespr": 8963,
      "Ġgespro": 8964,
      "Ġgesetz": 8965,
      "Ġdeb": 8966,
      "Ġdebt": 8967,
      "Ġdeeper": 8968,
      "wirkungen": 8969,
      "Ġsho": 8970,
      "Ġshock": 8971,
      "Ġshakes": 8972,
      "Ġshape": 8973,
      "Ġshapes": 8974,
      "Ġshelf": 8975,
      "Ġshares": 8976,
      "Ġthemes": 8977,
      "ĠprÃ¼": 8978,
      "Ġpride": 8979,
      "Ġpragm": 8980,
      "iften": 8981,
      "Ġmyst": 8982,
      "Ġmyth": 8983,
      "Ġmyster": 8984,
      "iertes": 8985,
      "oglob": 8986,
      "Ġgetestet": 8987,
      "aining": 8988,
      "atever": 8989,
      "Ġbecoming": 8990,
      "Ġherzen": 8991,
      "Ġdarzustellen": 8992,
      "Ġblame": 8993,
      "Ġblauen": 8994,
      "Ġblinken": 8995,
      "ĠblÃ¼te": 8996,
      "Ġconcent": 8997,
      "Ġcontext": 8998,
      "Ġenl": 8999,
      "Ġenorm": 9000,
      "Ġenrich": 9001,
      "Ġsafe": 9002,
      "Ġsafet": 9003,
      "Ġabermals": 9004,
      "Ġmachinery": 9005,
      "Ġnachgedacht": 9006,
      "Ġacting": 9007,
      "Ġkindle": 9008,
      "Ġsteigen": 9009,
      "Ġsteigt": 9010,
      "Ġstefan": 9011,
      "Ġsteuert": 9012,
      "Ġstewart": 9013,
      "Ġupper": 9014,
      "ipe": 9015,
      "Ġknows": 9016,
      "lement": 9017,
      "ztes": 9018,
      "peare": 9019,
      "active": 9020,
      "izon": 9021,
      "Ġfebr": 9022,
      "Ġfehlt": 9023,
      "bruch": 9024,
      "britt": 9025,
      "brachte": 9026,
      "brush": 9027,
      "Ġcoo": 9028,
      "Ġcoach": 9029,
      "Ġcooper": 9030,
      "Ġcoinc": 9031,
      "Ġinterface": 9032,
      "Ġrelated": 9033,
      "Ġnurses": 9034,
      "udes": 9035,
      "aham": 9036,
      "Ġdran": 9037,
      "ĠdrÃ¼ckt": 9038,
      "ĠdrÃ¼ben": 9039,
      "Ġvieler": 9040,
      "iveren": 9041,
      "Ġboard": 9042,
      "Ġbonds": 9043,
      "Ġbooth": 9044,
      "Ġamb": 9045,
      "Ġamster": 9046,
      "Ġamounts": 9047,
      "grÃ¤": 9048,
      "grÃ¼n": 9049,
      "graph": 9050,
      "grimage": 9051,
      "Ġunterr": 9052,
      "Ġunterwer": 9053,
      "Ġmuschel": 9054,
      "formen": 9055,
      "Ġpock": 9056,
      "Ġpoyn": 9057,
      "aceut": 9058,
      "plÃ¤tze": 9059,
      "Ġpharm": 9060,
      "Ġpharma": 9061,
      "aki": 9062,
      "akten": 9063,
      "zulegen": 9064,
      "zukehren": 9065,
      "Ġdurchge": 9066,
      "Ġdurchmesser": 9067,
      "Ġwurzeln": 9068,
      "igns": 9069,
      "Ġscaff": 9070,
      "Ġotherwise": 9071,
      "Ġglas": 9072,
      "Ġglor": 9073,
      "Ġglobe": 9074,
      "Ġweltkrieg": 9075,
      "pres": 9076,
      "priate": 9077,
      "Ã¼cksicht": 9078,
      "Ġrollt": 9079,
      "Ġroots": 9080,
      "Ġrobert": 9081,
      "ueller": 9082,
      "Ġkonfront": 9083,
      "Ġwillen": 9084,
      "Ġeval": 9085,
      "Ġbesitzt": 9086,
      "Ġmeint": 9087,
      "ubble": 9088,
      "ubules": 9089,
      "Ġclip": 9090,
      "Ġclinicians": 9091,
      "Ġgeschlossen": 9092,
      "sely": 9093,
      "Ġshellfish": 9094,
      "Ġstrong": 9095,
      "Ġstrands": 9096,
      "Ġlebendig": 9097,
      "autor": 9098,
      "Ġschwul": 9099,
      "Ġschwingen": 9100,
      "Ġschwingt": 9101,
      "Ġexperte": 9102,
      "Ġideal": 9103,
      "ĠflÃ¼": 9104,
      "Ġflood": 9105,
      "Ġklapp": 9106,
      "Ġklima": 9107,
      "Ġdisabled": 9108,
      "Ġpartn": 9109,
      "Ġselben": 9110,
      "Ġobjekte": 9111,
      "Ġtaiwan": 9112,
      "Ġhinzu": 9113,
      "Ġhinsicht": 9114,
      "Ġhinweisen": 9115,
      "Ġversagen": 9116,
      "Ġversicher": 9117,
      "innten": 9118,
      "Ġiron": 9119,
      "Ġacute": 9120,
      "Ġacumen": 9121,
      "Ġinsgesamt": 9122,
      "Ġmehrheit": 9123,
      "Ġeinfaches": 9124,
      "Ġparas": 9125,
      "Ġparalle": 9126,
      "fÃ¼gt": 9127,
      "whatever": 9128,
      "Ġmirr": 9129,
      "Ġklebold": 9130,
      "Ġimpact": 9131,
      "gesinnten": 9132,
      "Ġtechnische": 9133,
      "Ġbestr": 9134,
      "Ġbestimmen": 9135,
      "Ġadmit": 9136,
      "ungslos": 9137,
      "Ġtunn": 9138,
      "liebe": 9139,
      "lieÃŁe": 9140,
      "Ġhandy": 9141,
      "Ġhandys": 9142,
      "Ġhandlung": 9143,
      "Ġhandspring": 9144,
      "Ġlieber": 9145,
      "Ġguten": 9146,
      "Ġperspect": 9147,
      "Ġstudie": 9148,
      "Ġstudies": 9149,
      "Ġstudiert": 9150,
[...]
